node {
  name: "actor/InputData/X"
  op: "Placeholder"
  attr {
    key: "dtype"
    value {
      type: DT_FLOAT
    }
  }
  attr {
    key: "shape"
    value {
      shape {
        dim {
          size: -1
        }
        dim {
          size: 6
        }
        dim {
          size: 8
        }
      }
    }
  }
}
node {
  name: "actor/strided_slice/stack"
  op: "Const"
  attr {
    key: "dtype"
    value {
      type: DT_INT32
    }
  }
  attr {
    key: "value"
    value {
      tensor {
        dtype: DT_INT32
        tensor_shape {
          dim {
            size: 3
          }
        }
        tensor_content: "\000\000\000\000\000\000\000\000\377\377\377\377"
      }
    }
  }
}
node {
  name: "actor/strided_slice/stack_1"
  op: "Const"
  attr {
    key: "dtype"
    value {
      type: DT_INT32
    }
  }
  attr {
    key: "value"
    value {
      tensor {
        dtype: DT_INT32
        tensor_shape {
          dim {
            size: 3
          }
        }
        tensor_content: "\000\000\000\000\001\000\000\000\000\000\000\000"
      }
    }
  }
}
node {
  name: "actor/strided_slice/stack_2"
  op: "Const"
  attr {
    key: "dtype"
    value {
      type: DT_INT32
    }
  }
  attr {
    key: "value"
    value {
      tensor {
        dtype: DT_INT32
        tensor_shape {
          dim {
            size: 3
          }
        }
        tensor_content: "\001\000\000\000\001\000\000\000\001\000\000\000"
      }
    }
  }
}
node {
  name: "actor/strided_slice"
  op: "StridedSlice"
  input: "actor/InputData/X"
  input: "actor/strided_slice/stack"
  input: "actor/strided_slice/stack_1"
  input: "actor/strided_slice/stack_2"
  attr {
    key: "Index"
    value {
      type: DT_INT32
    }
  }
  attr {
    key: "T"
    value {
      type: DT_FLOAT
    }
  }
  attr {
    key: "begin_mask"
    value {
      i: 1
    }
  }
  attr {
    key: "ellipsis_mask"
    value {
      i: 0
    }
  }
  attr {
    key: "end_mask"
    value {
      i: 1
    }
  }
  attr {
    key: "new_axis_mask"
    value {
      i: 0
    }
  }
  attr {
    key: "shrink_axis_mask"
    value {
      i: 4
    }
  }
}
node {
  name: "actor/FullyConnected/W"
  op: "Const"
  attr {
    key: "dtype"
    value {
      type: DT_FLOAT
    }
  }
  attr {
    key: "value"
    value {
      tensor {
        dtype: DT_FLOAT
        tensor_shape {
          dim {
            size: 1
          }
          dim {
            size: 128
          }
        }
        tensor_content: "M\346F\277g^i\277Y\205C\277\246\004L\277\357J \277\313\212\\\277\351\005\274\274\210\251;\277\337\365[\277`\342c\277\327\353l\274\207\232\005\275ul\273\274\356\374&\277./^\274_\307\214\274F+\253\274\330\036\245:\213)\241\274\3177f\277,\025^\277\002\031\244\273\3478\264;\337\346\220\274S\347\346\273\302d{\277E\375\274\274\306\254\337;`\337\352\273,\341Z\277\001\351\302\274\270\312\'\277<g\357\273\261\276\010\273<\210\205\274\275~d\277V2\005\274\027$\034\277\037k\021\274\036\']\277\260\331N\277bR\302;;\216d\277\364\n\217\274\327+\363\273\267\244\315\273\371p\221\274\017\254\244\274,)\031\277\224\206.\277m\216j\2772LM\274\375\225\275\274\224\205\334\2744tF\277\342\034\277\273\264\037D\277\364X\324\273\216\021O\274\276\330\310\273L\372\033\277\274\322O\277\376\236\202\277\374r\034\277= 1\274\256O3:\034\255\320\274<\033W\273[$\004\274}(\337\274>\025\r\273\275}W\277\341)g\277:x*\277`\210\236\274\364\315\307\2730\0046\277\023\327Q\274\r %\2778\271\267\274T\223L\277\005\rY\277\303\027\377\274\342\2034\2749K\030\277P\206\341\274\322u8\277\251GG\277\224L\016\277\253\212\2749N\324%\274\000\353#\265\017\243\344\274\225\235k\277\256IL\277\342%\253\274S&%\277\022\231\267\274F\325\323\274\261*M\277\205\302\027<}1\240\274\031\017\270\274\253\275\363\271\316.\206\273\006A\373\274\236\247G\277\355*\242\274\317,w\277T=\021\275\r\"6\277\375\301\2239b\314t\277\363\273,\274\001\354\2609\212W\007\274\212/4\274\013>\360\2742\235_\277={\033\277\330\275T\277\306\345Y\277;W\007\275M\nE\277\257p\333\274\276\227<\274\023a\352\273b\225J\277"
      }
    }
  }
}
node {
  name: "actor/FullyConnected/W/read"
  op: "Identity"
  input: "actor/FullyConnected/W"
  attr {
    key: "T"
    value {
      type: DT_FLOAT
    }
  }
  attr {
    key: "_class"
    value {
      list {
        s: "loc:@actor/FullyConnected/W"
      }
    }
  }
}
node {
  name: "actor/FullyConnected/b"
  op: "Const"
  attr {
    key: "dtype"
    value {
      type: DT_FLOAT
    }
  }
  attr {
    key: "value"
    value {
      tensor {
        dtype: DT_FLOAT
        tensor_shape {
          dim {
            size: 128
          }
        }
        tensor_content: "\365\377\224>\356\"\202?5]Y?\201\212j?0y`>\340\001\270>\000\000\000\000?\260_>\2454\267>\223\315\200?\000\000\000\000\000\000\000\000\000\000\000\000\370\253e>\000\000\000\000\000\000\000\000\000\000\000\000\300\306\321\272\000\000\000\000\022\224\031?H\304y?\000\000\000\000R\003\266\273\000\000\000\000\000\000\000\000\260\217\371>\000\000\000\000Da\340\273\000\000\000\000o\204u?\000\000\000\000p\264V>\000\000\000\000\000\000\000\000\000\000\000\000\241\333|?\000\000\000\000\000\177C>\000\000\000\000\006\317\267>\316Mb?\214\350\305\273\023\330\177?\000\000\000\000\000\000\000\000\000\000\000\000\000\000\000\000\000\000\000\000I\257U> \362R>\357U\311>\000\000\000\000\000\000\000\000\000\000\000\000v\026<?\000\000\000\000L\211\221>\000\000\000\000\000\000\000\000\000\000\000\000@\356Y>2\025k?*\245\335>P\232V>\000\000\000\000\300)i\272\000\000\000\000\000\000\000\000\000\000\000\000\000\000\000\000\000\000\000\000\270:y?\252\250\300>\213\ng>\000\000\000\000\000\000\000\000`\300q>\000\000\000\000\376\315N>\000\000\000\000B!c?\270\177q?\000\000\000\000\000\000\000\000h\341V>\000\000\000\000>\306\233>8\002\251>\2607E>\257\0251\272\000\000\000\000\360\227O\272\000\000\000\000(\007\204?\365\010n?\000\000\000\000\337Od>\000\000\000\000\000\000\000\000\270\225\233>9\342\030\274\000\000\000\000\000\000\000\000\000\000\000\000\000\000\000\000\000\000\000\000\200\']?\000\000\000\000.{\323>\000\000\000\0004\016z>\235\274\336\271D\372\355>\000\000\000\000\277F+\272\000\000\000\000\000\000\000\000\000\000\000\000\332\225\200?A7W>\006\325r?\250\023v?\000\000\000\000\246\024\212>\000\000\000\000\000\000\000\000\000\000\000\000%\365\253>"
      }
    }
  }
}
node {
  name: "actor/FullyConnected/b/read"
  op: "Identity"
  input: "actor/FullyConnected/b"
  attr {
    key: "T"
    value {
      type: DT_FLOAT
    }
  }
  attr {
    key: "_class"
    value {
      list {
        s: "loc:@actor/FullyConnected/b"
      }
    }
  }
}
node {
  name: "actor/FullyConnected/MatMul"
  op: "MatMul"
  input: "actor/strided_slice"
  input: "actor/FullyConnected/W/read"
  attr {
    key: "T"
    value {
      type: DT_FLOAT
    }
  }
  attr {
    key: "transpose_a"
    value {
      b: false
    }
  }
  attr {
    key: "transpose_b"
    value {
      b: false
    }
  }
}
node {
  name: "actor/FullyConnected/BiasAdd"
  op: "BiasAdd"
  input: "actor/FullyConnected/MatMul"
  input: "actor/FullyConnected/b/read"
  attr {
    key: "T"
    value {
      type: DT_FLOAT
    }
  }
  attr {
    key: "data_format"
    value {
      s: "NHWC"
    }
  }
}
node {
  name: "actor/FullyConnected/Relu"
  op: "Relu"
  input: "actor/FullyConnected/BiasAdd"
  attr {
    key: "T"
    value {
      type: DT_FLOAT
    }
  }
}
node {
  name: "actor/strided_slice_1/stack"
  op: "Const"
  attr {
    key: "dtype"
    value {
      type: DT_INT32
    }
  }
  attr {
    key: "value"
    value {
      tensor {
        dtype: DT_INT32
        tensor_shape {
          dim {
            size: 3
          }
        }
        tensor_content: "\000\000\000\000\001\000\000\000\377\377\377\377"
      }
    }
  }
}
node {
  name: "actor/strided_slice_1/stack_1"
  op: "Const"
  attr {
    key: "dtype"
    value {
      type: DT_INT32
    }
  }
  attr {
    key: "value"
    value {
      tensor {
        dtype: DT_INT32
        tensor_shape {
          dim {
            size: 3
          }
        }
        tensor_content: "\000\000\000\000\002\000\000\000\000\000\000\000"
      }
    }
  }
}
node {
  name: "actor/strided_slice_1/stack_2"
  op: "Const"
  attr {
    key: "dtype"
    value {
      type: DT_INT32
    }
  }
  attr {
    key: "value"
    value {
      tensor {
        dtype: DT_INT32
        tensor_shape {
          dim {
            size: 3
          }
        }
        tensor_content: "\001\000\000\000\001\000\000\000\001\000\000\000"
      }
    }
  }
}
node {
  name: "actor/strided_slice_1"
  op: "StridedSlice"
  input: "actor/InputData/X"
  input: "actor/strided_slice_1/stack"
  input: "actor/strided_slice_1/stack_1"
  input: "actor/strided_slice_1/stack_2"
  attr {
    key: "Index"
    value {
      type: DT_INT32
    }
  }
  attr {
    key: "T"
    value {
      type: DT_FLOAT
    }
  }
  attr {
    key: "begin_mask"
    value {
      i: 1
    }
  }
  attr {
    key: "ellipsis_mask"
    value {
      i: 0
    }
  }
  attr {
    key: "end_mask"
    value {
      i: 1
    }
  }
  attr {
    key: "new_axis_mask"
    value {
      i: 0
    }
  }
  attr {
    key: "shrink_axis_mask"
    value {
      i: 4
    }
  }
}
node {
  name: "actor/FullyConnected_1/W"
  op: "Const"
  attr {
    key: "dtype"
    value {
      type: DT_FLOAT
    }
  }
  attr {
    key: "value"
    value {
      tensor {
        dtype: DT_FLOAT
        tensor_shape {
          dim {
            size: 1
          }
          dim {
            size: 128
          }
        }
        tensor_content: "\367\212\267>GN\337>\353\201\000\2747K\023? D\\=\353\032R\274\324\206\234=\314/\0047\366uw?]\341w=\223\220\361\274\013a!\275\347r\220=\342~\207=\360\361\035?\231Oo\273\034\241\240\273\275\031\001> \271$\274^:A\273\033\357\200\274\242\204\345\274,\016\"?Dh\377>\330\347\375<\346a\224\273\344[,\274&*\234\274\265y~?\307\274\304\274\"\025\030\275\342#\245=\233o@\274\272\363\006\274;\355\256\273\007\306\235\274N\375V<4\361\304\273\246\307\364\274\331`\233=d\365\267\273\236\341\002?P\356\332=`\234\"?\\\351A=\340:h\274\345}\377\274#\004\014>g\305\212\274\033A\031\275*]\005?+\307@?\271\201s=\201b\312\274\006\3737\2747\345\315>\216\224*\273d7\253=\tCu\273\235j\355\274\211\200T\273\320\243*\274p\366\210:{\004\363\274\261\3442=\376\336\r?\243w\366\2744\275F\274\026\224\216\274\300\020\270\271\367aV?\\\331>\274\031\216\000<\002\376\250=\3169\342<s\276\305\274\344\374\252\274\245\311\315\273\374TL?\366q\r=\303\030\245\276\\\004,?\303\354\312>\270[\366>Dr%\274\340T_\274\242\004\034\274L\203H\272\252]\313\273O\025M\274\010\"\274\274F\226\034\275\305\253\264\274\372\236\363>26\233=\025\237S\276\211\215\230\274\223+\372\274\342\342\013\275\2118\311\273u#\217\272\310d\340>\271\225\353>\355?C\274\275NZ\2743\327\334\274\251k\352=\216\334)\274fX(\274\230\300\275;)W\023?\357>\337\273~\317\316\273\265\260K=i{\001=\313\360\242\274\202\313E\274\274\\i\274\025\266\3539<\"\265\274 E\035\275h\225\200=\031\222\347\274J,\233\274\241Lw\274\336@\353\273\032\033\344<b\\\230\273"
      }
    }
  }
}
node {
  name: "actor/FullyConnected_1/W/read"
  op: "Identity"
  input: "actor/FullyConnected_1/W"
  attr {
    key: "T"
    value {
      type: DT_FLOAT
    }
  }
  attr {
    key: "_class"
    value {
      list {
        s: "loc:@actor/FullyConnected_1/W"
      }
    }
  }
}
node {
  name: "actor/FullyConnected_1/b"
  op: "Const"
  attr {
    key: "dtype"
    value {
      type: DT_FLOAT
    }
  }
  attr {
    key: "value"
    value {
      tensor {
        dtype: DT_FLOAT
        tensor_shape {
          dim {
            size: 128
          }
        }
        tensor_content: "ph\'?>\323\373>\000\000\000\000\214\2072? %\035?\000\000\000\000U\3031?\321\021i\271\340U\032?\335\003\"?\000\000\000\000\000\000\000\000\354\013/?\225\3457?LxI?\000\000\000\000\000\000\000\000\205\3743?\000\000\000\000\000\000\000\000\000\000\000\000\000\000\000\000\245\300\031?,9/?Y\327\023?\000\000\000\000\000\000\000\000\000\000\000\000\236\304\030?\000\000\000\000\000\000\000\000\233B\021?\000\000\000\000\000\000\000\000\000\000\000\000\000\000\000\000\245\307\033?\000\000\000\000\000\000\000\000g\265\010?\000\000\000\000\031\013\007?\006\272\t?\267JO?#S\031?\000\000\000\000\000\000\000\000\222\3619?\000\000\000\000\000\000\000\000v*:?N\nZ?\347\017\"?\000\000\000\000\000\000\000\000\0337\375>\000\000\000\000\326\372\026?\000\000\000\000\000\000\000\000\000\000\000\000\000\000\000\000\372\301\335\273\000\000\000\000U]\033?\357\021\377>\000\000\000\000\000\000\000\000\000\000\000\000\000\000\000\000\004oJ?\000\000\000\000+b\034?\323\020#?3\n\034?\000\000\000\000\000\000\000\000\000\000\000\000\231\3664?71$?n\332\003>\277\002\013?\363Z.?\336\310\001?\000\000\000\000\000\000\000\000\000\000\000\000%\236$?\000\000\000\000\000\000\000\000,!\024?\000\000\000\000\000\000\000\000\031\010\004?\316\323/?\036\010%?\000\000\000\000\000\000\000\000\000\000\000\000\000\000\000\000\000\000\000\000\375\231\013?+\214*?\000\000\000\000\000\000\000\000\000\000\000\000z\311\025?\000\000\000\000\000\000\000\000\273\261\024?\211\014#?\000\000\000\000\000\000\000\000\234\302,?R\212%?\000\000\000\000\000\000\000\000\000\000\000\000\216_;\273\000\000\000\000\000\000\000\000-x.?\000\000\000\000\000\000\000\000\000\000\000\000\000\000\000\000\013O!?\000\000\000\000"
      }
    }
  }
}
node {
  name: "actor/FullyConnected_1/b/read"
  op: "Identity"
  input: "actor/FullyConnected_1/b"
  attr {
    key: "T"
    value {
      type: DT_FLOAT
    }
  }
  attr {
    key: "_class"
    value {
      list {
        s: "loc:@actor/FullyConnected_1/b"
      }
    }
  }
}
node {
  name: "actor/FullyConnected_1/MatMul"
  op: "MatMul"
  input: "actor/strided_slice_1"
  input: "actor/FullyConnected_1/W/read"
  attr {
    key: "T"
    value {
      type: DT_FLOAT
    }
  }
  attr {
    key: "transpose_a"
    value {
      b: false
    }
  }
  attr {
    key: "transpose_b"
    value {
      b: false
    }
  }
}
node {
  name: "actor/FullyConnected_1/BiasAdd"
  op: "BiasAdd"
  input: "actor/FullyConnected_1/MatMul"
  input: "actor/FullyConnected_1/b/read"
  attr {
    key: "T"
    value {
      type: DT_FLOAT
    }
  }
  attr {
    key: "data_format"
    value {
      s: "NHWC"
    }
  }
}
node {
  name: "actor/FullyConnected_1/Relu"
  op: "Relu"
  input: "actor/FullyConnected_1/BiasAdd"
  attr {
    key: "T"
    value {
      type: DT_FLOAT
    }
  }
}
node {
  name: "actor/strided_slice_2/stack"
  op: "Const"
  attr {
    key: "dtype"
    value {
      type: DT_INT32
    }
  }
  attr {
    key: "value"
    value {
      tensor {
        dtype: DT_INT32
        tensor_shape {
          dim {
            size: 3
          }
        }
        tensor_content: "\000\000\000\000\002\000\000\000\000\000\000\000"
      }
    }
  }
}
node {
  name: "actor/strided_slice_2/stack_1"
  op: "Const"
  attr {
    key: "dtype"
    value {
      type: DT_INT32
    }
  }
  attr {
    key: "value"
    value {
      tensor {
        dtype: DT_INT32
        tensor_shape {
          dim {
            size: 3
          }
        }
        tensor_content: "\000\000\000\000\003\000\000\000\000\000\000\000"
      }
    }
  }
}
node {
  name: "actor/strided_slice_2/stack_2"
  op: "Const"
  attr {
    key: "dtype"
    value {
      type: DT_INT32
    }
  }
  attr {
    key: "value"
    value {
      tensor {
        dtype: DT_INT32
        tensor_shape {
          dim {
            size: 3
          }
        }
        tensor_content: "\001\000\000\000\001\000\000\000\001\000\000\000"
      }
    }
  }
}
node {
  name: "actor/strided_slice_2"
  op: "StridedSlice"
  input: "actor/InputData/X"
  input: "actor/strided_slice_2/stack"
  input: "actor/strided_slice_2/stack_1"
  input: "actor/strided_slice_2/stack_2"
  attr {
    key: "Index"
    value {
      type: DT_INT32
    }
  }
  attr {
    key: "T"
    value {
      type: DT_FLOAT
    }
  }
  attr {
    key: "begin_mask"
    value {
      i: 5
    }
  }
  attr {
    key: "ellipsis_mask"
    value {
      i: 0
    }
  }
  attr {
    key: "end_mask"
    value {
      i: 5
    }
  }
  attr {
    key: "new_axis_mask"
    value {
      i: 0
    }
  }
  attr {
    key: "shrink_axis_mask"
    value {
      i: 0
    }
  }
}
node {
  name: "actor/Conv1D/W"
  op: "Const"
  attr {
    key: "dtype"
    value {
      type: DT_FLOAT
    }
  }
  attr {
    key: "value"
    value {
      tensor {
        dtype: DT_FLOAT
        tensor_shape {
          dim {
            size: 4
          }
          dim {
            size: 1
          }
          dim {
            size: 8
          }
          dim {
            size: 128
          }
        }
        tensor_content: "\266\006\206\276\360\"\241\274\230\303\t\2750\343c\275n`\226\276\000.3\275\nvX>\332|J>\262\255\246\275@\311H=L\271\210\275 \254\347\274\346\247\010>\245C\234>\235\356\020\276\003\247R\276*\344\006>d\3604>\372\013L>\r\217\233\276\204_\253=4f\363=8\027V\276x\214\007\275\2002\207\274\242\033W\276!\"\214>\246\212T>\320\032\t\2750{\331=\270\360\221\276\240\331\320\274\256\206\211\276\364\321\003\276\330\375\360=\010\247\206\276\340\257\352\274p\205\264\274BYn>\213\362g\2768g\332=\300\352\354=03\023\275\324\264p\275qm\210>D\234\264\275/\245\231>$\214L\276\tU`\276.d\360\275\030\355!\275\357\372\206>:\312m>j^I\276<\353\350=8W9=l\263\035>>(\014>\\\307\375\275\020\277\022\275\263+\220\276r\347?\276\"\3005>dd\222=\276\204u\276\323\364\215>\000\250W\273\306\375\001\276>\321\251\275\262\275\027\276\000~-\273\332WY>\212\216\226\276\250\002\010>\320,\371\275\262NN\276\236Jg>\246\205t>\026zQ\2767\316\n\276 \377\233<\020\263\372<f\275J>\026\362\275\275+\242\203\276\21145\276\240\215\035<\263l\222>TG\211=d\342\251=\034\312\213\276Z\232h\276\324\320\266=\240\317\313=\025\007\224\276pV\260\274\264\230K\276\245\322\216>;G\001\276\350\322\006=\322` >\350\247\003=\311\251\226>\356\366~>\2442a\276F\233\177>\230\004\035\275q\313/\276\300\3273\276xr\231=-6\232>\0006\217\272@;\213;\370<\214\276^,J>\336\365i>\250a\355=\306\277R\276\270IP\275%\321\222>\372\026S>4\226\355=@\237\025>\336G\000>\377%\231>\020\030\206\274 T~=\0000p\274\236g^>\310p\250=d\246\010\276Fkm>+\036\200>\226;\200\276\300\016\325\273 &\302<\310\360P\276\200?\r\273\311\305\r\276\230\262\n=r\254;\276te\356=D\032\246=\202\033z>\243\033\202\276\'\r\205\276r\004\013\276J\243\177\276D\002\275=\326\234W>r_\336\2751\372Y\276\266;\207\275\270\257\255=h\354\021>%z\220>\352\327l\276\262\335\344\275\032\\\354\275\245\335e\276\214\365\231=p\031\230\275\372\002\227\276\221\235\216>F\263O>V,\237\275z\010M>\306\252\022>`\016\356<\220\360\300<\252\377)\276\243\\\230>\240`G=\270~D\275\272\016\365\275OU\224>\026\200\207\276Hk\010\275[(h\276\320\020&\275j\231\331\275\350:\212=\252\330\241\275\254*%\276\365[\233>\314\217\337=(=\020>\340_\026\274&a\006>ZC\023>\344Z\323=\266\320N\276\212\301?>\360P\322=r\253]>\017\320\200>\360\r^=P\220\024>\214\226\016\276\n3\032>8^\000>\351\303*\276R\233\246\275p\253\331\274\210\245\313=\032\234Y>\032s\025>\334\360\251=\334$\203\275x\236E=>\023o>\262\372=>rV7>\250n\301\275\204\270\'\276\010?4>\\H\221=\010\017\225\276\350\255==\212-n>X\035\234\275\320\370l\276\n\353D>\346\330\205\276\324\220\217=\260\376S\276\303]\223>\324\216\351=P\022\237<\037\356g\276\332\035\024>\262H{>\020\023@>\300f\266<\214\350\346\275t&\345=\364tG\276<~\200\275\\\354\250=\200\340\"\273\220\224\374\275\000\032j\276\352-\205\276\334c \276X\237h\276\263D\224>B\177Y>h&\360=\242[\001>\006\235o\276\320\247b=\"wh>pD\343\275W\321\001\276\330\303-\276\226\210\213\276\002\245\301\275h\350S=\326\251p>\014\0300>\212Zg\276x\256\273=\351\"\227>\237\204\233>\376[\331\275\010\031~\275\237\376\221>\020&\211<\220\263\262<g\014\226\276\213\0277\276~\256|\276\302\022n>\210\215V\275F\031\354\275\235g\213\276`\024\331=]{\013\276DI\200=\340\323\243\274X\316\226\276(\021\203=\313\000\023\276\030\022O\275\260Ka=\244\304}\276k\301\205>\332\366s>\343\273~\276\"`\303\275\000\332\256\272\215\271\201>\260\360\016=\000\264g\272\000\001\365\2744J\027\276\202)<>\024il\275\314\233\351=\320\205=\2764\030l\276\014\300\000>|.\257\275\330J\023\27521\321\275\000\022\r\274\260TZ\276\010\242\230\276p\t\024=\322X\215\276\340h\'\275\254\222\311=K\tb\276Pk\254=\010d.=\245\014\006\276l\035?\276\010\321>>\213\355\226>\362\216\327\275\277t\205\276\230\027\031\275\356\355\013>\000B\020>=\017\200>$\t\002>X\177>=\317Qp\276@@\223\276V[\'>\266\234r\276\324\361\211=\200\207n=\207B\222>\310/\001\275\367\265M\276\356\304{>>\002l>\330\005\322\275x\200\006=\206\376\223\275\240\265\341=p\214\350=\2217\233>=\247|\276l\251\234\275\234\220\n>\367\330\231\276\316\340N>\024\323\372\275\260\247:>\362\363\336\275\033\222\216>\024\337g\276\330\371a\275\'z3\276hi\030\276,$\r>\302\rY>+p$\276\372_=>x\007\036=\240\205a\275\360\252\354=\034\371\235= J}=\374i7\276p\353\000=\364\231\237\275\010\021z\275X\0352=\336\373*>\333\310\213\276\230Ng=\220:\340<0?\231=$m\312\275\r\252\200>N\215\261\275b\247G\276\n\032o>\3110i\276\244\323\267=G\005\217>d\223\032>\214\300<>^RL\276\034\330\214=\r<\222>X\304~\276p\237\220\2744\243=\276\010n\317=l\3739>\"\2559\276g\373\005\276e\224\227>\246:q>\224\003\321=\222GP>\030\372\214=\300\202\200\275\020\332-\276\232H\212\276\205\347\007\276\204\230\216\2764I\322=\316\2515\276\007^\227>\030zU=&\332;>`\3069\275\200\313X\2739\347\200>\374\234\316=\t\037f\276\017\333\224\276\310()\276\004\214O\276\020.\304<\340\0169>PDb=6\302\205\276\324]\204=\016\250\177>D\274>>y\303\201\276\240\352)<|\256\014\276\366\222\027>\210_\032\276:N!>\225\221\215>\\\013\233\276~\351P\276\200\013\024;\316\352w>>\351^>\240\205\302=s\352$\276 }\201\274\252\0355>X\344\362=/\221\232\276\274\231\341=\214;\205\2762\262T>>\272->\267\023\214>M\234\226\276?\235D\276\010\r\370=\000\366y:y\214C\276\005/\204>h\207\035\276\273\240\205>\272\225S>\230\010B\275\300\215\215\274\254\231\271\275J\255\005>\000qy<\312\007>>B\031<\2762$\361\275\240\234\364\274F\253c\2769\317\227\276p\365\371=I\313\215\2762\3114\276\204q\362=\2107\342=#\234\220>h\373\336=NN\362\275B\272W>\\\214\262\275\252:\215\275\240B\355<z\310d>\0005N<\224~o\2768X\016=\030\261\232=\341\3243\276 \030g<\324C\350=\304\240\350=@ +<=\357\232\276n\272J\276\260~\212\274?\323\215\276Y\001\207>\200\022\007\274\222\277O\276\312\234i\276B\023(>{\323\223>\344| >\"g{>\000\202m=P2\300\274\\\201S\276\033\257\203\276`QU\275\3540\">\343\334\227>\266zF>\330y\240=L~\300\2750\035\374=\350\347Q\275\2561\222\275\020\014\036\276r\325!\276`\300\244<\274j\323=R\260s>\006\362g\276{\"\233>\204s$\276\232z\227\275\024o\252=\202\331o>8g\234\276\277\373\207>4\256\240=8\376\252\275\007\264\210>\344\013;>\330\215^\275l\t\210\276\220\311>\276\361!y\276\234z\201\276\360\3305\276\r\'\227\276\350\036v\276\034F\035\276\304)C>1\241\230\276\320\022\032\276B\2537>%Kh\276\373\204\223>S,\230>\014M\207=\036\004H>\004|E>(\037\032=V\377\031>\000P\2449>\006\005\276\246VD>\314\330\344=p\301\022\275\370!+\275\356V\017>[C\232\276\330\217\243=\350\361\030>R\314\223\276ZFw>\371\241]\276YF\217>&u\027\276R\375O>\240}\320\274\014\326\230\275\360\354?\276\376\251\225\276\030EC\276\267\201\216\276@\2072<\275\361\207\276\231P\223>6\334\215\275`\263P<+$\222\276?9\231>p\335\332=\223d\224\276\237\200c\276\026\324S\276:8\265\275n\256F\276\034b\315=0d\272\274\256\036\211\275\006\266\356\275\337\354\224>\364\300\315=\200\202\321<hu\226\276\364\361\234= G\231\274`\207*\274Z6P\276\214<\'\2766_\t>\333\2402\276\200\301\261\273@\240\341\273,\362\334=\024^\251=\210P\022=\032\244w>\260\027\317\274|/\214\276\320I\345=\010f\031>\262\355M>\275\246\200>G\266\227\276{\270\222>\020\326Q\275\250\274=\2762\303s>\367\322\203>y\n\225>\245\202\220\276\366K\025>o\023w\276n\276@\276\236\212\035>\030H^=n\342 >\314\366d\276\023-9\276\343\021\231\276\243\2178\276\326\353j\276\'\365y\276\375=\204>\232{\020\276\200\003\314\273\276\234o>\214\013V\276@\330\177\274\377\002\027\276Dlm\276n*L\276\030\363a\276\030\302;\275VWb>`\230L\275\261\203\230\276h\200\222=\356\311\022\2764\257\210\276v\332\212\276&0\265\275\226\n\204\276\240\3232\276\020\216\002\275\000\220\322\273\020\217\006>\376Gv\276\210\264w=\2350\007\276\0002f;g\377\214>\006\247@>T\254\220=\266T\201\276\010\311+\276\254\314\230=\2209\274\275y-\001\276\340\355Q\275\374l1>\330;\306\275\252\346\\>A\307\204\276`8\222\275\2103\344\275\357<\231\276\314~\317\275\342\365e>p9\031\275h\332\031\275\000\371$\273 UH\275\234\366\246=@\333\'\275D?\371=\024~\t>\354H\377= \321=\275\020\332(=\240\254\202\276\265/\231>\240\234\351<f\2553\276\0045\215\276\000\007\345<v\240\224\276T\304N\276\253/\223\276\020\317\360<\370v\201=\2457\177\2762\224m>\026\314\201\2760\342\333=\330\251\312\275\034\250\237\275X\354?>\260\211\374<\364\031\231\276k\245\001\276\351Y\204>D<\034>\264!\240=\326-\215\275\252\336\002>\336\212u\276\310\356b\2764\340\222\275:\303\375\275\2458\217> \201{<\356\2133>\224tB\276X\010\n>\200k\365\275\300\211d\274\272\243^\276P\2737\276\000,~;`\364\037\274(\307n=\027\233\204>De{\276\332#J>fb\327\275V\316a\276Tu\374\275\301\034\200>-`\212\276\034\263\212=\220Y\025=1\n\220>\2261\001>\000\270g\271\226%p>\367p\221>\3042\177\276\265\346\214\276H(:\276`\030e=\020\204O\275F\304_>\000\000l\266\t\323\221>@\035\010<\370\017\033=\264\036h\275\000\204e;M\006\007\276\254Y\365=\236P\340\275\342dy\276\314\334\225=\351m\215\276\016\216/\276!&\216\276\346\242\271\275P\321j=\016\235Y>\312\272\010\276\354\374\344=`\373\270\274\300-\207\274\277\374\224>,\031T\276\300\331\262=\364\362\035\276\200\346\377=\353\346\037\276\341d\213>\000f\022:B\351S>\000%\r\276\270n\227\276\2034\030\276p\330\277<\326+\177\276\200w2\275|\223\022\276\240 \275<\262\214\">\226hW>\202YP\2768\240\330=vjn>\0008q\276\333\276\201>\222\325H>\tx\\\276\004\247i\275%\343I\276\3207\305\2746\312x>\271e\025\276\030M*=^&\331\2758};>\227\246\217>-\264\214>Pe\357\274(\2342\275\313\267\205>-|\213>M\243\213\276\r\033\205>p\3566\276\216\356L>\224^\304=\316\370P>W{\224>&\355u\276\356V&>\240n\373\274\200\362\264=\362\266p\276p\314c\276[\211\222>\340L\013<\200\206X\273\350\363\017>4\032\247=\030=[=\020%\031\276\331q\030\276x\023$>D\277\205\276\372\200h>8^\270=\000h?:\375\324n\276\376\357p>\2541\225\275\370\\w=\327\362\231>\270\363\r\275j\320J><\375\020>VuU>\236\240g><&#>h\332]\275\256ac>i\375\226>$.a\276\311\340\"\276\344\257\r\276`\026L\274.\325\270\275\000E\025\274\"\203\\\276T\205F\2760\034\341=\"\270\026\276\274%\361=\305F-\276`}I<@4\351;\000\231\t\273\300\310\327\274\237\262t\276\010\227@=\024HZ\276l\007\317\275\310\311M\275\026x1>\000\221\312=p\250$\275x@\021=\223\357\026\276\212\032\020>h\336\013\275\204\257\346\275F\335j>f?\272\275\340\216f<zx,>^vv>\000\032\206:P* =7J\232>8:\036\275Xz\034>\306`\032>\314\246\200\276\014\273\343\275`\232\370=R\231\214\276\272\315\305\275\335[\221\276L\311t\276F$.>\022\263*>\352\266\213\2750\352\031=ZIo>\022\367a>,\301T\276\200t\331\274`\035z\276\210\376\000>\210\021\206=\004KF\276\312\343\205\276*}b\276\274\242\231\275H\370\005\276\220\3314\275\220t\327\274h\001\'=\324\033\232=\000Q\364=\274\002B\276\241\250\014\276\000\317\302\275\304\276\262=\3301d\276\322{\203\275H\226\036>\2122M>\235\252\027\276\320C\245=m\303\210>\204\253<>\034\240\025\276jbR>z)Z>\343c\226\276\273 \213>\"y\226\275\340\273\347<*\033k>\260\222\013\276\371\371\223\276\002\354J>\360\202D\275\211\323\014\276\330\272\205\276\230\340\211\276\360-\241<v\\d\276Z\373W>\362\347b>\336Hy>~\252\230\276\266p\260\275\376\376\016\276\026\333\t>(\342\001>9\023\225\276s\356\211>\000\344\270;9\311\214>\037\352\207>\366\357w>\235 \217>\212<A>\240\307\212=\030\223\210=<\005\017\276\022\271l>\252\231I>J\274\263\275\362\024\033>U\202{\276\376nY>\221>\211>\224b9\276@C\333\273Pa)>\370\2166=\023\274\221\276lS\214=\212\033\024>\364H\347\275\300x`\274\274P!>\330c\313=5\361\232>\334>\350\275\300\325\233<fD1\276\000\177\'=H\256\205\275Po\347<\200f\260<\"\201i>\370T\314=\242\365\264\275@\336\313=V#R>\344\227\336=\204yD\276\214\335p\275\211\222\205>\372|v>\354I\253=\336\362D>\334\177\303\275\024\341\317=\211\211\214> \217\263=F\376c> \3734>\236\301\037>\264O\350\275\3048\314\275\213z\031\276\362\250L>p\200v=\224\337\201\275\032\n.\276\244\225\271\275\330\376L?o\245\220\274.\276\262\276\004*_>\364\300\324>\352\260\231>\335p;\275S\356w\277\207\242\003\277\323y\207\276\276\t\256\275\303V\271;\036\220\275<\247*\331=\355\236%\276\327\223\177\276\315G\255>o\220\322=\300\340\367\276P\334=>i\247\240<\271L\017\276\310\306\032\2765\322\340=\"\230\216\276\242e\300\275w\234A>\253\355o\276P:B?A\326\345\276\200\017P>1\372\304>\232\r\032>\201(\006?\263\317\017?$\017\344>GH\363=\212\274\002\275\277\267\216=\324\220>>\215\227\357\275\251s9\276\200\275F\274\363k\365=(6J\276\003_^\277\007\224\t\276\310\204\247>-\177\266>\016\210\014> \333\337\276\004\032\027?+\226\226\275*D\341>,\357|>\271\305\205\277\352\034V>nu\337=b\317\276\273q\341\000?k\r\265\275}\227\324\276\342\363\274\275\242:}\276o;\274=\331\300\247\276\364\006\342=\313(\277=\033\316T>h\343{>jJ\317=X\n\333=\326\234\335=;\241B\277\\M\376\274\203o5>\351\003\266=\260s\3778\222|A\276\260\342h\2763\366\250>8\223\221;\253\251\213<iA\372\275\270\237\211\275n]e>\003\333\177\276sv\267>2e\307\275G!\267>\332F\255=iMv>\255?\026\276Y\366\375>5z\321>\242L7\276C`\347\275\220\360\342=x\304^\276U\360\223=\3365\025\276\2642\022\277im\321=):/\276Z\005\213>\301\234\177\277D\200\356\276\013\250k>\221\346$\276\264\233]>w\371Y>\273\350\332>q\027/\276\245\276\332=RJ\020>\236\326\316\276\267v\332=8:\005\276PMA=\221\341\256=a\021\232>\030\200\017=f\261\261=[\235M=ZwF>*\256\263=YU\215<\260\222n>\324H\340>\021\227K>g\223\311\276f\225\026>\263D\276>\027\262\"\276\245\324!=\263j\177\277\r\2013\277\243\361p\276\332[\372>\221\332\214\275s\005\026\275\260M\263>\245d\340=i\326\235>Dl7\275\203\217\001?Wv\331\275\r!\255\274\004\262J\276aG\254\273\223U:\277}/M>\327\324\262\276\257\367\016>\302z\013>\212v\201\276M\006\021?\333p\250\275\234\257&>}\335\276>\303\177\224>v\337\262>\001\014\002\276&\346+>[\002\227<\025\003\033\276\270\3410>A\002\375=7i\234=\225\276\215>h]H>`\017\310=d\247\243\275\034bV\277\325\264\010>\207NM\275\332\255\343\275\220>\212\275\233\356\356=\024\346\341>\337\265\005\277\216\304\017?\001\0069>\376\365\210\277\273\340\210>\242oZ=R\232\240>S1\362>\277@N\275\277I\216\276#\003\373\275\215\377\245=\244\000\206\275\276i\032\277\320HK\275\274\341\'\276^\003\344=U\027]=`\325\010>~\3172> \021\003><\004%\277\377\277\212>\242%o=\2450\335\274\340(7\276\331\242\232>\010\022=\276\242\327y\276S\376\233\275\336h\211\275:t\337\275H\'\237=\370u >}\225\311\275\244\217-\275\261C\002>R\232V>\273\014\301>\'\350>>p\2210\276\303\265.>P\306\232>\235\215F\276\350ZY\275F\200\000\275\376\376\036\276\3040\252>;&T\276\256K\236\276i\307\235>*\327\307=U\031#>\302_)\277\321\243r\276\373<\005\275P\351\355\275\340\311\370>\372\272\274<\363\3310>}wx>\257\362\201=\030\252\275>\276\026;\276\345\3029>\243\361R\276\r\373\020?\"\353\333\276\241U\207\275\212\316\336>\2039\307\276Z,->K\226\276>\214\001E>ZW\\=\366K\261>\232\330\313>\361#e\276\\\322\010>R.r>\323\222\211>*\0209\276\023\tA>V\222\230\277\332\364\207=\205o\004>\337\275\222>\341\004\025>\225\335\235>j\2467>\356L\020\276\007\0311>\350\021N>\361\354\t?\267\337e=|\337D>\021\205I=\216\341\263\276\272\354\221>\277\2257>\203\006\027<E\326\260>\343r#=\364\300\332=\354\326_?\177\205\301\273\001\2173>/e\027\276\014\244(<[/\362>y\0140>\251J\360>\300!\324\275l\0132<&\n\246=\355\325\271>\007\340\203>h\340\260>\306:\030?r)E>l\252)\276&\220{\277\277\263\034>\001\272(>\253\225C\276M\024h>n4b\276jZ\274=.9\231>\260\361\243>}\314\252>\340~\201\277\t!\370>m=\263>\221\3557\275\211\310\222<\000\t\234=\n\240->E9\226\276\273\320\002\275\213\315\227>\201\310\n\277\227\261B>\321\347\241=gc\230>\001\345\275\275\361\r\331\274\340\274\314>\251\022\334<\377Tn\277\325\321\r>\253\376\207=u@Q\276\370\215]=\206#\004?\374\356\305=C\021\242>\251:E>(o\"\276 \273i>wr\254\276\305\037&>te[=\223\324\003>>\002\243>\316\030\234\275\276\352g>\211(\220>\367^\211\274ka\004\276\370M\016>S\351\331\276\010I\326=\204\000\350>\223\253#\276\331\232\204>\221Cq=\210\006\330\276\225\317\201>\013\005r\276\364|\335\275q]F\277\321\230\\>\230X\331>\237\214 \276\321\210 ?\327\274\002>\347\220\341>\255\206&\274|\247\235>&\341\205=\250\330\242\275\232]\310\275j\367\255\276[++>U\006\315\276*A\242>\321\224\007?ka\312\276\202\233\236>_\356v=j\3111>\276.\231>\305\206\014?\331\222\005?m\231\202>\265w\013>\356%\033?\2403s>h\220K>)\206v\276/\307G=\265q\234>\245\327\024\276\203\020\027>1@#>\375k3\275\'J\375<1\364\243\276\325p\016\276\250\310\221=eL9?m\311F\276\272\212I>\213\025\311>N\n\001\277\211\032\215\274\010(Q>\277Sp\276\354U\021>|r\351=\324\224\034=GKR?J\236\021\27763\214>\tD\262>\311Z\323\275\310\206\030?kN\214>\371\265\241>\211pu>+\347\006\276\242\352\311=5\261\337>\253\332h>\002*\310<\202\216\035?\300\303\353>a\307\252>C\265\007>\225\270\342>\0310#>\232\310\206>p\310\320>\347l7\276\237\246\301>H\232c>\020\341\010?z\306\232>\342\375\226\276\351\320\214>\365\005\270>\260L|\275\260\336\\>\3331&=\334\0211=U\035\215\276T\366\303>\373Z\367=X\226\020>\006 E\275\351H\316\273\252\033\003?\231\024\241>\2260w>\254\'\310=\302O\311>\310\354u\276!s\353>,r\203>\377?\352>3\342\341=\317\364\236>R\242\340=&\254\251>7$4>\004\234\211>#e\264=z\377Q\275\014z\006?\322\024\370\275\321\237\315>\223\234\247>,\316\212=y1\235=\006_\220\275;h\371=7\335\231>W\356Y\275\322\356\243\271\312y$>Y\343\246>\367\244\337\276\272p\213>\220\211\236\276,\274\343\276\262U\032?\326\247D>nq\350\2740@6\277\330\377>>{h\004>J\313\304<G\320\026?\221\302\003=\375\305\247=\347\264\345\275\351\022\212=\302\335\204=\313b\347=\033\031\006>\341M[>w\031\031?x\013\243=\261\251\'\276\236K\306>_7[=\017\352\n>\325\035f=M\376\303>\032:D>\031\313\236>\225\364\231>\366\324\336\274\273\2410>i\243\014?\010\277\330\273\r\326x>\331*=>`\334\326\276zE\240\276\327\231\010<~\276\210>HUd<\226\265\227>\200\030H>n\253\033\276\333\366\263\275>!\223=Y0\'?\013d\310\276\037\367R\275\032\210I\275\027G&\274\200\004\n=nu\357>\252\035K\276\256d@>\376\006\332>\017\n\300\276\232w}?\214\r\r\276L\271\005?\'\314\216>6\247\n>\323]b?B\225\253>_Nl>>\243x>~\343\306\276\231r@=\220\337\003?6\3401\276\234\002\004=\027\367\310>l\255H\274\371\231o>T\331\261\275\210\233\230>$\210\037\276\'\336Q>\037\224\243>\004\006\002\276c\235\332<\231\204\t\2769B\301>9_B\276=\365\373\276\344\337\033?\263\346\236<RQ!\276z\204\311>\000\204N<\202\342\024=\017\256\327\275\036\353\204\275\014\001\236\275\357O\242\276a\234$\276b\232h\275U\312\224=\320\324!\275R\037\262>\255<\211>|\010\275>\356\322\260\274\245\022\002?\327\000\331=3\237S>\003\2151\274\245o\033?\246\351\260>\320\310\020=\023\201\231\275\262\t\206>1\340\346\274\315\354\270\276\\\324\316>\327\270j\276bm#?.\'\210>G+\270\274\010\235\026>\034\"\333\274H\013\243>\361\221\343=L\360\307\275Tx\312=\326\0361>\231$\201>\350t5\275%\260\313>_\230u\275\371\003Z\276\223=\250>\337>n\276\335V8>(\022_\276\014\351&\276/\254\325\274_:\365\276\362\256D?H\277z>\243z\372<\305\342g\276G\221D=`\273\345>\365\232\001=\366\333E>\304\001G>\337\214\246=4\243 \276\363\341\020=\266\250\022?!3>>\216(\257>~g\226;\367\0219>\232\326\025<6P\016?v\014\031?\306\350\204>\266\001p\276\232\333\267>\330\232\005?\327\016\026=\2768|=\370RX\276\rU\360=\013\226\370\276\236\335\333>\257\017\r>\311\201\205>\272\313^>\235\003\252\276\315\\\226\272\243\222X>\007\036h?1\351L\276\014O\203>8\223\327>AYv\276\2349#;S7s>\023\330\323\276j/&\2760\276N>\2438B\276x{\034?\314uX\275\017P\221>\"X\277=s\036\027\275\'ct?\002\323\271>\226\356\304>\322B\020=\271\261\271\275\\\022\231>\355b\024?}8\206>\351\242\200\276\256\254W>\234\252\365>\212`\324>j\256\316\276\222\025\025?\372!\007=\034\314\014=|\344\217>\364\223W\276\264\333\362>\261&F\276\034\251\240>P\276\364>2\267\241\276\305\030\262>\210\313\306>9\272\212\274\236\023\245>\272\241X>x\305\323\274W]\343\275\034\344\260>\240\002\026>\226\346\022\274Q\367\216>}LA\275@\316\311>Hex\275\037\010\235>\340\235\326>\023\357\307>\272]R\275U\265\321>\275z\236>k\325\345>\236\005\301=A\001k>\275Gb> \030u>\266T\330>\000\257d=t\345\234>|\004\231\276\261\3012?R\270\010<\304\r>>\035\177\225>\264\340\221\275\276\210\356>\374\014p>\265\364\201\2752\365\256>D\025\234>RL\263=\351Y\310>\035F\235=\336\332f=\313\326\356>\355\220\311\276\237\3002>\316.-?)10\275\352\037\225\275\025]\\\276\001\271\217>\367\007\375\274\231h4>(\277\263>\310\211\242>y\353\226=\025\364\215>\272a\202\276\364\352\317>\225ft\276\222Ti\276\324g\225>>\364\311<\234\317\313\275\343qM>\343\367U?c\223\231>&}\002\276\005\277(\276\355o\023>\274\265%?\344\227v?\316\332\323>\324WQ>\307\233\002\276\010\227\r?F!E?Ga\033>4\335\236>4I\333\276Q\024\016\276\010\300\241\276\021\026R\2766C\023\276\340\'\257=8\020\010?\365\024\370\276\0100\014>\202\224\332\275\317\205o?e\027\014\277*|\000?\n\345\261>\270n\366\275\2763n\276\3343\303>\314x\013\277L:\274\276\302\313u\274\300\247\262\276\336\223t?\240e\000\277\270\345\242>_n\\?n\352\315\276\240\274,?7\304F?J\327\366=i\020\301>V\267\206\276\271\267\t>G 6<\2014\333\276\363\267\217\276\344\330\221\275/Z\031?\242\325\366>[y\202\275\000\307\016?P\261\006?\347UC>\210\265\344>\333m\020\277\346&\375>\267\310Y>Ac\t>,\222\235>k\262\240\276?&\263>\3710\216>gB\213\273\242\325\271>Z\264\245>k\354\010\276\343_\245\276\020\3764?^q\310=\n\245\006>W\005\252>GU\225\275\204\002V?\033\006_=!\203\254>\310\3165?\344,-?\314*\226\275\017\'+?\361c9>e6H?\200@)?@R\325=\226\336\016\276\330\032\367>Vh\240>D$\236>\326 8\275*\304\013\277a\330\031?\322\325\256\276\233\257`?\343\351\254>\017Kg>\260\227\031?\314~\332>\\\332\252=\270\276>?|\307\242>\337\331\206\276\rZ\023?\266\330\003\275\353\216\303\276\324\025\001>\320Xz\276\325r\326>\326m>?\232\201\014\277G\243\252>\375h\230\275p1\246\276\nu\005>\033\236\347\2764\267\200?\311Q0??\263.>f\002\353\275\350\202\260\273\303\323q>\343n\361\275\206\306;\276\341\331H>\215~\230\275\256 I>\335\263*=\300\324\215?\370If>EV!?VK\303>\177\232\363>\210\314\206?\031\377^?\222\2651?\227\017\227?F\316+\277\024\023r?!#\314?\367\260R?\027\243q?D\361C\275E\235<\276\177\312\021\277\027\276#\277\274s\200\277\177\325\236?\366h\347>\032\325\216\277<\313\364\275\335\005\n?\356dl?#a\254\277\220\261\034?\257\304\200?Z\211\002\277\274\206*>\3376\211?\370\272\277\277\333V\232\277\005\246\004?i\336\003\277\346\331a?v\245e\277\niN\277\036\376\321?\335q\246\277\2730b?W\377\305?\321\217\265>\016\306\231?\317 \223\276\372O\370>\354\232\276\276\251\317\227\277\322\367\255\277\250\327\362\276\000E\225?\203/\222?\214B\220>\253\016\236?\271D\205?\025z\243?9\334\215?\271x(\277o\332\225?\253\322z;M\365\307>\372\247\312?Yy\336\275H\212\314\276DRs?\013\331V=J\341\344?\007\021\251??\027)\276\033`\023\277\330\312V?\371\021\212\277\237e\343\274\035\246\244?%\362\030\277\251N\313?r\030\220>i\275w?\301\216\264?\202\206\257?Hc\311=\326#N?+[\204?@\214\222?\347\314\230?\223\014\324\276\305\264\203\277\222\256\252?\306\363\222?\221\001\220?\367cb>M\360\274\277\013\221y?t\300\002\277r\235H?P\317\215?\260\316x?\0063\225?\210Q\017?\001\335\216\277\210Q\333?\232\227\235?tg\337\276\016\024\200?*\340/?.\334\262\277\246\314\013\277L\034.\277<n ?\237\241\310?.V\270\277\246\256\265?h\252\243=\201\235\207\2772\312??\325\312\305\276\262:p?D\312\315?g}t\2779\217\340\276\315\014\244\277V\200\371>>?.\277\257\340\223\277\353go?\265\354h\277Bqv=A\236U?f\'f?\314\360\006?\"P\217?\241\362r=c\201\231?\364\236\242=\216\226m>\340\302-=F\rG>f\324r\276\270\317_=(6l\276 0\261\274\3748O\276!Pz\276\320\223\366<$v\375\275\030\331H=\273\031\000\276\214A\240\275\244\350\224=\352\223P\276\250s\202=(\255c=\326\357\215\276\340\313x=\032\257}>\320X\227\274\312\250r>lS\250=d\210\240\275\247\003\014\276\374\375g\276\230\337\270=6\201p>\326\006e\276\230\306\024=0\033h=\000\262\343;\260(\376=E\366\026\276`\347R<\325\014\226\2764\250?>\210\2143=\241>\216>\204}D>\30045\274\262~\230\276\320\364:=\2507\n=\270\276O=\257\tv\276\264\344\377=D\2100>E\334\215>\370\347\031\2752WT\276@\032h\276\344D\225=\274\325\211\276@\177\341\273\200I7\274\356\272n>s\030\231\276 r\035\276\276\277f\276\354\356Y\276Z\325Q\276\236\347u>\214\254\223=b\014\221\276\306\nU\276^\256^>\000\370\371=r\365j>\234\343\212=\000S5>a\267\221>\341\331\214\276\301R\r\276`\236\025=\240\304\205<\010W\375=\333\206t\276\314\231\237\275\246G\245\275x\002\024>\023\3728\276\000rJ=\004M\272=\030`\016=Tf/>\265m\014\276\240\002\355\275\300\320(\276H\014<>9\263\227>\3067s\276\335\371h\276}>\223>\343\312\214>4\365\276=\350\323\260=\250r\n\275X\310a\276g\374s\276T\226\225=\344\177D>9\002/\276\354\316Q\276\254\373 >R\034i>D\210\231\276t\326?\276vxV>\320\254o\275\300\266\232\276[\356\220>\200m\266<\250X\213\276\310c\241=2\264\206\276\264U\031>\t\321\232>\300\206\231;\230^a\276p\256\307=D\357\224\276B\245\230\276\016w\234\275,9?>L\301\037>Wq\035\276\276\221\n>\240\256\210\274\323\025\220>\030#\265=V\351\036\276\'\030\026\2764W\370=p^\312=s\3630\276\374Y\300=\320?I=\257\312\207>\270\365\340=\201\201\203>b\254i>\302n\016>\356DK>y:\224>(/\226=\243~\215>\251\276\232\276\341\0260\276\234\211\354\275|\310\025>\200{\324\274\206M)>\274\017\356=\344\300\270\275\210\220\232\276\036\233\035\2760\377\026>\000\327\374\274\214\236h\275\220\\\007=\010+e\275\256\263M>\216_\221\275iI\226\276\251z\177\276\220\220\247\274:\262\"\276I.\226\276\000\351\240\273\232m\013>\346\023h\276\316\206\261\275s\004C\276\324\323;>n/\246\275x\242\034\275K\230\213>hxQ\276\n\014B\276\036\323\026\276\214\035\213=\261L\025\276\310f)>P\343}=\200\377\247;\200\030P;H\307\222=b\263\027>\036\373_>` \352=\340f\005\275f\2242\276\276\214{>\224\313\376=xJ\021>l[\355=e\370_\276\010\326\226=o\000\200\276\2404[<\257)\005\276\304\331\277\275\000\\\346\271k\246\034\276~\203\212\276\300\001\211= JA<\334\212\265\275\320w\212\274\2508\247=\240j\332=\322\266\223\27606\323<0\342%\275\360\354]\275\340s\310<\265\266\233>\356\"L\276X\252.>\260\025\331=\000\273\n;\300\003\236=\352\246\001\276HD0=\264\024\317\275\264\320\372\275\231\351\215\276\350\347)\275\2672\220>~i\363\275v/\222\275&\n\204\276{\027\221\2760\370\351\275\034\327\224=}u\212>\250\226\022\275\204\230\031>\356wn>\023^r\276\3107\276\275\210\036\351=s\303\204>@\255\341\275\355\374Q\276_\226\004\276\202eX>\245n\214\276\346\256L>x\253]\275\332B\307\275\337\364\020\276\220;%=\003\207\234\276\374\352\201=\327V\214\276\2323\223\276\202\215C\2762&\221\276?)\013\276}Q\207>\334\301J\276Z\"\022>\342\220l>\340\021J<\250\330\263=f\335?\276\240\242#<\336\240\007\276F\022]>\000\215\346;\322\270\245\275`\242\364\275\237\326\232\276\221=\232\276`\rZ<@>}=4\330->\322S\200\276\362\3329\276\360\216R=0\375\367\275\200\374\302\274F\223v>\332\300\204\276F\353X\276@\013\220\276\022*\220\276\320x\206<\032A\300\275,+\300\275\250V=\276&\021m>\03248>\304g\226=r\364^\276\026\177:>\330\234f=\220\375\300=@`\221\275\352\233R\276\034\224\006>\360H\237<\037\235\203>\300\277H\276\t\001\225>R8z>\004\\m\276Dm\371=\326Z\223\275\270#\200\276\342D\021>\221\315-\276\037{\231>x\235\024=Q\335\222>`\255S\276\343T\205>~\214\375\275\256\315\255\275\376,\222\276tr\266=\232\232{>\016\001->\324\335:\276\270\221\363\275p\257\365=\301\250\017\276(\3133>&{g\276\nX?>/\027\202>\351n\230>o(\224>\020P\016>\000\014\235;``Z\274\341\252\206>\032\306\333\275U\363\025\276\377\225\036\2767\225\r\276~\337\272\275\307\361\217>xk\207=\310\'h\276\256m\017\276\220\266\307=\307z\216>\345\211\010\276t\231\035\276\200\030\r\274H\346\002>o@\227>\210\320=\275\301\0337\276%\0329\276\205\266\231>\252\253V>\260\333\307=\210\221\315\275%\315\200>\237\020\231\276^\266\210\276\246Ck>\223\275\233>.\177\375\275\335S\210\276\031\013\227>\007+\222\276\230;\376\275\036\375<>@\355\212=\372\244#>\255\3565\276T#\323=\000M\373:\331D\004\276Z\302\222\275\206\321%\276\224\007!>\255\324*\276\322\026m\276&\037R>\332\336X\276\335\307\230>\300\300c\276/\272e\276\300\314\261\274*x\206\276\211{\226>Z\343\271\275\232\344\037\276\t\377\030\276S\022\031\276\331\327\007\276\000D\234\275\006\316Y\276\215b\220>p\020\327<\312<2\276\211\237\232>\010B\003\275\206D\206\276B\306F\276TRa\276N\216i>\374\242\370=2\'F\276L\354\274\275[\261\221>\214\243\017>\217\305\226>\21051\275n\241\332\275\220\372\264\274L\221b\276\200\3179\275T\327k\275\356\332Y>\020\246\031=\004B:>pRE\275\305\356\231>\322\254\315\275\013\020k\276\240H\374\275\000\013\251\274N\361\277\275\310\352\037\2752\233\274\275L/\225\276\210\324\251=\353Z\221\276\240\\\024<`T\362\274\214|7\276\340\206\246=\302\235\037>\236n?\2760\356\202\274\320s\252\274\2472\215\276\204C\213=\336\tZ\276*\367h>\240\016\357=\224j?>H\331O\275<[\221\276\270\234M=\364\254\016>\356w\257\275A\361\n\276J\006S>O\355\204>tQ\324\275\035\032\216>V/Q>\234\321 >\220\000\217\274\3246\226\276\237\250\225>\214Z\202=2\"p>\013+\203\276\364\354\030\276\231f$\276\212\275\013>X\370\234\275<9\006>\200\014U\275\350\362\201\275Roa\276r\232\340\275\275:\222>Z\210N>\274(\201\276\352xo>R\304\215\276\344\207\230\275\230af=) \221\276\300\264\037\275\030[N\276\266\330P\276\230\330\021\275B\344}\276\347[\217\276H\307\221\275\2468$>\200\235E;\306\244\\>\303\245\213>x\246\276=\203T\210\276\305H\231>\214\245\243=\r~\213>]g\217>h\215\031=N\374P>\000\003O\276\260\200\037\275X\234d\275^\2666>(\372-\276\346\325\215\275\322\226\005>\236\367C>\354Qx\275\257<\222\276\016\017\037\276B{\212\276K\0275\276Fn\256\275\002M\032\276x\202,=\325\227\227\276\030K0=p\014\343=H\304\263=\027\226\216>\225\016\234>\364\224.\276\000\270\243\273\000@<\270\000\014*<\223>U\276\207C\177\276^\020\207\276`\214 \275\222(\024> }&\275\264m\360=\034?\206\276 \275\017<\300\353\264\274\365\022K\276\376\355\r\276\242\317B\276\202\000M>\003?\231>8\030\002>\214\255\214=\016aK\276\204\235\247\275X\244\231=\200\014\321\273\2041I\276Q\026\200>*\337\002\276\000(\357=\340v\212<\020\370\306=\360\313\t=\302\304]>\320*\230\276\202\277\240\275X\303\002>(<^\275>\203\233\276)\330b\276\237.\001\276\240\305@\276\3629\216\275hj=\276\244\322\374=\026D>>\352n\356\275\200\347\355\273?\033\232>\222\253k>mK\211>H\253\220\276\000\2049;::\350\275\234\207q\276p\362\017=XE\023>\300\364\265;\300\204\344=\024\252\254\275\236p%>H\277\240=\211\\\025\276\312\256\202\275@bF<]k$\276\275\016\212>8\330&\275f_\223\2760\007\372\274\2466j\276\234\242\211\275\211\351\223>\326\271\306\2754\223L\276\"T,\276\321`\201>\2368\r>\240\337v\274\300q~\274\316\036[>\357De\276\331d\213>\313\366\221>8o\r=\330\346\204=<$\345=\272\0241>R{\232\275\000\024\273\2718MF>0\257r=\207o\217\276l\265\216\276\270\003o=\006\272\n>\246\340a>R\343O>p\224\004=0\374\346<5F}\276\272\254D\276\022\274\214\276\224K\215\276B\221k>^m\001>\322\366\313\275\354\020\340=<(z\275\006o\365\275\0163[>\022\nc\276\202\244\357\275D\205\303=0\251k=@j\317;\022d\277\275\000\2571<\340\260\007\274\242w\033>\213L\201>\006\247\215\276E\230\202>\200[\267\275\332\210b>\214\331\001>\220\021\310=\0005#\273\031u\226\276\246\325\r>\220\271`=\210bl\276\341S7\276\207\276\211>\203\227\225>\372\004S>h\260z\276t\322\215=\200^\322;\001\226\225\276B\336\275\275\220\221\025\276\236o#>\256\344X>Z!\364\275\240\207\203\276\006\"H>\240\257\021\275\026T\270\275\254\247\251=X\365\014\275\020\270=\276\224\251\212=\270\351\004\275\"\316I>\242\235x\276H\214|=\032\'\277\275\220W\346\275\010\254O\275\036\322\206\275F\337}>\220\272\302\275\332?m>[\232\224\276\373\022\234>\200\217\252\273<\251 >\334\'\247\275\\N\377\275\324\344y\276\226Q\211\276\3609\206=c\375\216>\032\377k>Z\262\337\2752\231J>\267\\\234>N;\224\275\030\305F\275\306\007[>\314~\317=\254@y\276\0004\211\274\254\320\034>\306\363,\276\200\273\321\273\226\322v>\355\2610\276,\025\025>BJ(>(\355\247=J\310c>\255^&\276d\327\220\276\300E\231\273\350t/\275\230\025\221\276\265(\230>\344o\230\275pN(=\370\343\017\275\030^F\276\200\376.;\302\207\001\276\372/\214\275/\214\216>63\030>\270\247\314\275H\336\030\275\326\037`\276\034\321\307=\016Zy>\263H\200>\034\262\307=\274\314^\276\226\203l>\333v\213>\221zl\276d\214\007>\230`Z\276*\005_>\210\006k\2768e\342=\016\250Y\276\300;!=\260}\303\274\361\023-\276\363W\204>\330\317)\276\203\327\202>q\010|\276\334c\304=\257!\221>5\353\213\276\301\2060\276\360\353\244=\324(\371\275\334\211W\276\226\023\226\276q\316\203\276 \341\t\274x\211\230\276\222\252N>\317\217\213\276\026y\217\276\030\331{\275\002\337m\276\345+\n\276\234\214\206\276\310\210\342=\017t\231>n\213\'\276?<\215>\206j\r\276v\"\373\275\300\326\333\273\226J*>\002\023 >\034\254\355=D7y\275\3566\324\275\270\022l=Ru8>\243\2220\276\370\232\255=H\240X\275B\225\222\276\340\034\237\2747\026\211\276\375\206\214>\241\371\021\276\311\024\233>@:\221\276\n\356\n\276\341\234\202> \'Y\274\315\023\215>\275\245\213\276\017\356\211>*\323\000\276$\241\200\276\300\235+=:rb>\327\246\232>~\025\234\275\220\335\314<\205:@\276\014\324Q\2764u\221\276\204D\207=\022\2348>@\205\214=\306YD>\016\244r>\340\337\347\274\310\232\022\2758B\357\275v\305T>P\226\270\274@7\035<E\2760\276\004\367\030>\215\024!\276\337\026\032\276\214\332\266=\004\265\266=\300\0100\274\272\336S>\220{\234\274\2609\276<f\r7>\374Fq\276&\271S>\262\346\202\276\342\375\177>P)\010>F\200\'>vP`\276\006\036D\276<k,\276\300\311\262=\320\206\237\274^\363?>d`p\275\014I)>\321Z0\276$\206G\2767)4\276?V\214\276\210\027}\275S_~\276\220\014\027=\227\216\205>V\253y>\310e\213=tu\365=\277\2067\276\006\266\016>h\211\017\275tOO\276\025\350\031\276S\262\227>\037\305\000\276\233\215\204\276\216,=>)\261\002\276\370nQ=\232\364\037>}\233\200>P\371\273<\220\021\263\274\300\037f<\225\202\207>\376\354\036>\232\221\222\276\313\354\232>\244\373\216=\300\"\223\274W \223>@\231\327\273\200\360\271\274\275\243\226>\262@\315\275\300\351\331<Pd\212=\000\241\363\272\343\243)\276LX]\276ld\375=\2161\226\276\220\233\253\275F\3016\276\177\274\225\276\377T.\276\026*m\276\315HP\276O\020\230>\300|S\274\202[h> \036`<O\266\027\276\316Rb>\250\032\312=\310\367q=\226\307\202\275H\216+\275\376\025\267\275\0358\t\276\2373\222>}a\212\276D=\263=\253q\233>\020\';\276s\022\222>\372]\006>~\342z>\347Q\016\276\0065\315\275\264\254\266\275\334d\223\276`\242\"=.OI>(\0007\276\020\337s\275\206\007P\276\000\307\315=\026\327\">\300\250\023\275\000\256\277;$O\365=\002(\177>\204\303\311=\2207\306=H^\262=JY\346\275\"RL>\033A3\276`Q\341\274\n\333U>\306\224_>\270q\000=|\305\333=z\356%>\213\237\213>\225\370#\276H\241:\276\3248\277=I.\037\276\033t\030\276\3335\204>\300_\307=\214-\337=n\230o>P\317\335=8dP=\300\370\244\274x\223\362=\234wN\276\000\276\342<\026?b\276*\322w>ZY\302\275\350E!\275)_\224>\334\240\241\275\360k\335\274[\352\213\276\r\346\222\276MK\212\276#E\200>\370\230\316=\2302-=\320\220\211\276\330R\332=x\006\327=\350\210\343=\212\204<\276`7Z\275\\\273}\276R\236V>\200\025\330;\372qj>2\361b>\026\201E\276\\<\203\276\000 (=\260\000\353\274\350\224\306\275\233\335z\276\030\344J\276\367\357\221>p\307\235=F;(\276 \007\004\275\275\302\230\276hHQ\276\300\\\202\2768\265\337=X\207f=\020\323z\2760\275\352<\230yD\275\234\021\251=\346\3076>Dt\025\276\374\204\374\275P\330\346=\240\201\241=\242\317b>O3\007\276\332e\232\275r\203d>\356/\000\276\346S\022>\224\302W\276^\375P>Q\315\230>~\371\017\276H`\203\276\374@\376=\230\t\322=\305\377A\276uR\220>\232`n>\0307\253=n\364)\276f\273*>d\251\002>\220\3026=\241\352\232\276\234\305\363=`\224\336=\026\013A>\362\2264\276v\366D>\270\265\300=P\226\337\274\366\354k>\220\372\365=\000R?=\300\372\n=\244\331<>:\005|>\014\303\363=:eI\276\300q\235<4\024\002>\210/\033>\200\363\203\276\260\2276\275\nZ\227\276\000C\220\272\271\310>\276\266J7>\274\345\030>\010\376|=^\'c\276\024\242\352=\200j\215\275&\020x>C\317\201\276\342\263R>\372\311u>C\032\210>0\rW=(\200Q\2768\366r\275X\032M\276\277\t\215>\343\022\221\276~\301\030>xH3=x\266x\276\220\377\254<\376D\t>\000$5\276X`1=x\nS\275s9\220>X\323\304=@/E=_\374\214>@\274\376\273\364\254\n\276\272\244\\>h\2355>\016\300\300\275h\256\\\275\271\372\033\276\251(O\276\332v\203\276\232=L\276\021\321\016\276\324\237D>\256\002W>\313N=\276\200\364H\274i\357\227\276\004\033O\276\020\336\277<\002\002l\276F;.>\230\020I=\200\344\357\275\322\321X\276,\361\177\2763\216\217>H\nR\275\030\250\005\275\370\360\'>\224\331\366=jN\303\275\352\002]>\000\244}\275\030\222&\275\340\224\371\275.:\271\275\320\005\302\274\343\317\205\276\307\224\214>z\"G\276\224\317\263\275\366-<>\t\336\027\276\002\006\300\275\270\350W\276+\327\214>A-\212\276\364\317\035\276\000\006\313=\240\261K<`\002n\275\033\231\200\276Nq\302\275\002\235\334\275\026\244;\276\211\235\221>\340\316\\\275\200\033`=\253\241\225>\254\250\372\275\243\346\034\276$\265\n>\364=9>\235\031\222>~\203z>f\305 \276\264\366\231=\324SA\276\300\214\003<:!~>\300\324_=f\177o\276\206\007]\276$+\232\275lv\203\275Dw\330=\373\202\210>\211\276\000\276D\212\335=\370M\310=\262\363&>\3401\023=\310\3430=\300u\032>\336\215Q>\260\237B=\266\376L>8\272g=\244\360\201=k\005\233\276\270\026S\275z\257M\276N\234u> \241?<\326^m>\200\345r<\356\210\">9\301B\276|\031\241\275e\331\231\276\007T\225>\204\177\371=0v\352\275\236\242M\276\246\332\200\276_K\200>\300\004\226\275~\002\\>*C\014>\313\203+\276\213k\204\276\360 \200<\000\"\022\275@\032\333<\n\016\234\276\204\037\004>&CY\276\226>|>\374\243\001>Q|\210>\004+\n>o\3317\276\234\375\200=82\037=V\021!>\000\326\230\272C\361\210>\253O\207>\371\364\207>\376\037\027>\334\227\352=\330\016v\275\370;Z\275Z\235Q>\240\270\214<\200m\026>\354\230\273=\225\010\224\276Y\275\027\276\220\253J\275\034\334@\276ND \276X\205P\275\035\227\027\276\275\305\213>\260M\305\274\312Dd>\304\206\034\276\214\240y\2764+\326=\260\215-=\177V\210>b5\230\276\352[z\276\200]*<bcP>H\201\211=J\024\233\276\234\301\267=\030W\230=\3419\212>\334\365\342=\2441\226\276\342\303\323\275\374\201\256=P\360\035\276P\301`\276\274YF\276~3^>\023\361\025\276\254\004\007>\242;e\276\022\242\302\275\000\024\306;p\001\326\274\226~q>\000\256\326;\362g\037>@\"\023=\3005s\275\000\334\3669d\251\201\276\264\227\361\275J\230y>\002\267\205\276\334&t\275<\352\347=j^\270\275\226C\006\276x\302[\276\350r\223\276\'\035\203>`\343\023>P\2616>\316M\307\275\272:\n\276\224|\232=\265\334\226>HQ-\275\000\353\336\2740\034\302\275~\350\224\276\230\316[=lr\332=\022\277\334\275\246q]>\310\242\236=\231\350\206>Q]\214\276\320\'P=\362\355\022>\300\230Y\274b\255V>\246y\344\275R\333`>\240zS\276.\327.>\332\242@>v\331\224\276 \217\240=\253G\215>\200=\216\275\212\212u\276I\023\232>\347Va\276v\374{\276\300\254\257\273(\364z=\306\365o>h\373\345=H\t/\275Wl\221\276@\033\004<\204\303\247=t)e\276\333\027\210>\252\033\033>\016\262?\276h\330=\276\327\277\n\276\236mg>\206\304\202\275T\365W\276\240\037\010>\233de\276\260h`\276\271<\223>W\323\214>\021\230(\276\260\236\343=\350\0131\275\t\277{\276\202P\306\275\323E\202\276\356\223->\264+\327=\352\204X>\354\360\327=\266\246{\276\223\347\226>\026\335\020\276\nkI>\300\211\224\274\"F^>L!\202=\222\2358>\206\252\004>\243c\222>P\263|\276h\221z=\250\312\241\275Hu\305=@\264G\274\220\226^\275X<\313=\300\202\016<U\037\211\276$\220i\276R\000\214\275}\t\231>\251\330\037\276\3507$\276\334\313\340=\360\022\345<%\035\223\276\236\210+\276\274\0200>\243\265\230>F\247\354\275\373\363\211\276\274\007\206\276\3227_\276\010\013\n=@C\227<\350\335X=\316\260\026>\200\253b\275\324\377$>\32617>\316@\023\276\370\241`=6\366k>\350\204v\276E\253\206>\254\274\276=\276\243&>\3745\341=\320\256\275<ZO\021>\"\204{>\220\233\330\274|\367\324\275N\320)>@\356\006=n\247\005\276\250\313&>\264\341\">\321i(\276\031?5\276\316Mt>\022\377\n> j\274=\210kz\276\232\353g>\313\215\223>\032\247\300\275\273_\214>Xt[=\303C\223\2760~\317=\014%\241\275\350\317[=\0226.\276\324\267D>(\263W\275\264\223\372=\302\333A>\214F\353=zf\276\275\336D\177\276\212\311\231\276x\2554>8\344\023=\200M\016\276Vxp>\024\267!\276\206 i>xY?>\034\003Z\276\344\037\246\275\234n\212\275 \352\213=&`\301\275\345[\200>\200\353\246\275\203[F\276\177\305R\276XG\265\275x\312\226\275gP\230>\240\216\014=\t+\203>\220\301b\276\002Gq>\274]\007>0\013\355<\316fO>N\266C>\000\321\376<8\231\005=\031\352-\276@\260\232\276\343%S\276H\207\036\276<\340\267=\356\366J>\000U\177<\357\212v\276tP\362=\254\365\212\276\236\324\177>\306gS>8\023;>\226D\265\275XQ\354=`\303\226\276zf{>H\033d\276\020\276\356\275\277\230\211>\000\275\200=\177\"\002\276\020\242\252\274:\3053>P\t2>D\361\225\276\336\375J>\2208q\275\240\303\223\274\250\277\210=\320\214\257\274|C\367\2750\265\035=\200\342\230\273\342\273\226\275\336No>2\345a>+i\202\276\020\034\013=XE =\000@\331<\227M\217\276\036H\330\275\345\027\232>\030\305\t>\212\\E>L8\033>\205\320(\276\0049\t>,\243,>[\342\212\276 \2124\275\362(i>\244o\356=\036p\210\275\322\002\034>>4\'>F\254\252\275\2509]\275W\224\233\276a\226\210>r\330\023>\213\314\223\276s~K\276fw\277\275\216\036m>>\335L>\326]k\276\256\232[>\260\342\233\2760\350\217<\025\322\217>\270\315&=\357@\233\276\333\275\205> \036D=\316\251R\276\310\271f=\322\233\330\275`{\277=\203O\016\276\322/S>`D/=\230#\025\275\357\342\233>\246,\\>\202\344\215\276\242\000r\276D[\026>\210\032\372=2\246{>\2569\255\275\361\367\210\276\356/\225\276\2607\222\275\363\207\201>0\343r\276\274\003\345\275\360]b\276\000\264\3569\236+\351\275V\031w>\246PG>Kk\211>h\300\034>{r\232>\200\225\333\274v\003f>\257\257C\276\370\255p\276}\010\231>\032\326D\276\347 \213\276p\020\036\275\004xE>pT\036>#Z\231\276\026ce>\260\002\024\275\004\0067>\327\374\203>^ZR>\030\361\223\275F\037\005>n\242>>\314\217\265=X\337\035\275\022\374j>>\341N\276\322\307W\276\360VN=\350\265w\276\330eJ\275sO\227>\230\340%=\214\2068>\320I\367\274\332{\261\275\242\'S>\242\255\036>\210\375:=\000P\334:\324\221\">f\274)\276$\317\013>o\241\215\276X,:=\030\304i\275N\373\024\276\036\033%>9k\225>\264J\002\276\227\375\230\276\272\3159\276\306\006\356\275\2336X\2764\205\302=\366k\025>\204\n\267=m\325\035\276\366\313\030\276\314\027b\276\2609\006=\224Y\306=,\002X\276`\274V=\030\246\303\275\352>\303\275P\344\025\276`\222\345=\300\374\207;:\316q\276b(N>\312Q\224\276\262D,>R\260\233\276\342\302d\276T\372\230\276\230&\031>\326\"^>\335\377\t\276n\2658\276\230\016,\2760v\370\274\334\331\340=\300\361\005<\004_\003>\210@q=\2152`\276\300\273\037<\250\305%=\210k\000\275\213\251\201>\366UU>\022\372\025></\226\275q\221e\276\214[\260=\3603g\275,\323\331=\232s>>\340\251$\275\240\027>\275>\240{>\220\260<\275\201\346/\276,\005\017>\206\227[>\305\223\215>\330\263&\275\336\300*\276\362}R>\302\276k>^\333e\276\370_\224\275\354r\332=\001\326%\276\300\336\377\274\300N\261\274\0035\222>\340_\353=9\276\231>\362\027\005\276jL\022\276@\265\232\273T\\h\276L\266\225\276\020\264\231=a+\213\276\272w\025>\230P%=\\\213\205\276n\375Q>\014\'\023\2760\355\252\275\304\345\266\275\025\207Q\276\240\231\352\275\320\371\235<\240\223\226\274\333\317\025\276\340\t\200\276X\245P=\364\201\312=\274\265\253=\306\274\334\275/\323\231\276\232\361\364\275\3279\023\276\302.i\276\360\"\371\275\263/\021\276\226q\002>\220\223K=6\rN>D\335\213\275H_+=D\035\212\276\235L\201>e\2171\276b\037\216\275\000\236\334=\350\366\256=\234\306\373=\252\335\206\276\212Dh>\220\200\206=\233~\215>i\361\222\276\352\344l>Jq|>^\222\226\276@\001a\274\236<\231\275h\031\205\276\"\241\223\276\000c\265\273p\021\013>9U\221>\r\260\031\276\256\211\031>LE\240\275@~\332=\367N\214\276^\021\035>T\001\">\244\227\030>\355\212{\276\034\316 >\224N\036\276\340\3055\276\267\312\212>\267T\217>q\013\221\276T\214\205=\326\036b>D%\313=n\260*>\017\321\021\276\0206\031==;\202>6FU>\332\375W>\342\266}\276\240mz\274\202\355F\276\355F\204>G\200\212>\310\207\313=\264H\201=h\341\014>\315L\234>\215k\001\276\277\256\222\276\310G\013\275 \312\334=0B\347<{\010\210>x\316e=?\367\203>P\2533>\341\022\216>\330K\234\276\372DH>\000\201>>\250M\366=d\373\204\276:\037\006\276\320.\211\274\220\203\211= \217\204=\232bf>2\333?>\350Q>>\215\002\013\276l\326\256=pLb=\221)\232\276\213q~\276\270\025\233=\"#\024>\267\346N\276\317*[\276\200s\361<\1776\210>\270i\035=\266TO>v3u>pIw\276@\317\370;;\036\035\276\260[I=\000\027\340\273\020\342R=\314\206\376=n\256n\276\200U\364;\020zG\2760\017\330<\200 D\275p\242k\275\304>\317=<\255\222\276\2669_>\321\\ \276d\213\026>\304`X\276@\3541\275B\r\016>\255Ji\276@1y\276\300*\337=P\3630>\226Yo\276\270Iz\276\335s\220>@\023\220\273@\035\010\274\312q\236\275]\205r\276\242\340$>@\367a\276\005Uh\276\320\263(>\367\214\201\276(\265a=\326\225y>\366\001O>\227\236N\276^xs>\202\232n>\262\202I\276\322\373\007>\032\014o>\346o\244\2758\247\\=,\023Q\276B\025e>\020\016\214\276`2\033<\313\233\226>\220D>\275\205A\231>*\322|>d}P\276`.\361=\200A\260\273*\260\277\275\372a\006\276\231\005\225\276Ke\003\276.\307$>\274J\374\275\033B\210>\252\230\202\276s=\224\276\240\2526\274\224\211\325=\032/\036>\340T\253<S\236\217\276\274q\263=Xv\223=[*\"\276\312\033\036\276p\235\301\274 \303`=\026\001\004>I\344\231>\300\027}\274\004\256&>\351\310\031\276\026d\022\276\240\316\316\275\354C\360= 9\\<@<E\276F\234u>\324E\354\275\324\345\016\276\242\334e>\034\367\262=\210\017\002=\340\"\212\276\274>\t\276 \364e\275m\231\220>\252= \276\200\232\365\275@\317\266\273\004\324Y\276\254<C>P\243>>\014\351B\276\000\215{\273\026]Y>Hc\n=m\322%\276P\351\030>@?\341\275:\225\323\275V\361 >\333\314\222>\220(\271\274~\016X\276\225\007\234\276\361\367\222>\206\356\036\276@\001\365\275\340^\006>v\377\332\275\350\253\200\276\031\005m\276\331\255\233>\300\\b\276\267\214a\276&b\014>\330\223/=\000\036\356= 5g<\246Yj\2768QL\276_h\016\276\000\316[\275`?\216\275\327\330\232\276\235E\207>\312>\203\276Jh>>\374\212\350=6k\217\275\306\265T>/\010\225>\201XS\276\256\347s>:K)>X\001&\275\310\356o=i\312\001\276\340\367$=\321F\204>*\242i>\032\272Y><s\366=\237\334\231\276\274\221\023\276.\341\331\275\000z5\274a\004\207>\312\342R>A\366\211>\n\264\226\275\200\377`\274C<\202>\255\302\221\276\20065=\216\334 \276P\025?=z\034/>?h\223>\262\226b>\216\273J>/\320h\276\222\202Y>\013\206\223>\251E\226> \215z\2741\333\224\276\360L\r\276\024\215\343=`<\312\275\372\n\177>\322\350\233\276LQ\357\275\000.\245:\000(\020:\010\367:>\000\220<>(6\226\276\231i\231\276|\032\214\276\324\275n\275\024\372\222\276TQU\276@w\255\274\252\005\214\276h\360)=F\037;>\252\312G>\324\370\177\275`\001\216\275@\241t<\242EO\276\330~8=6{X\276\274\266+\276 T1>p@\215\274\000 \210\270\017\233\177\276B\023v>\030\036\227\276w\265\233\276\t\203\"\276\264\366\346= J`<h\365\372=\312E\217\276k\333\221>\264\316 >\200\004\241<\021v\234\276(\3704\276.C\\>\244iA>\010@\\=\275\342\021\276\000\264&\272\014V\207=(\223\204\276\276\250#\276\374\004*\276\002\344\262\275\334R\342=\370\005\211\276\0021\321\275\314\2237\276\313\355)\2765?\216>\374A1>"
      }
    }
  }
}
node {
  name: "actor/Conv1D/W/read"
  op: "Identity"
  input: "actor/Conv1D/W"
  attr {
    key: "T"
    value {
      type: DT_FLOAT
    }
  }
  attr {
    key: "_class"
    value {
      list {
        s: "loc:@actor/Conv1D/W"
      }
    }
  }
}
node {
  name: "actor/Conv1D/b"
  op: "Const"
  attr {
    key: "dtype"
    value {
      type: DT_FLOAT
    }
  }
  attr {
    key: "value"
    value {
      tensor {
        dtype: DT_FLOAT
        tensor_shape {
          dim {
            size: 128
          }
        }
        tensor_content: "\305a\263>\361\236\371>^\204~?\243\016\021\276\333R\030>.\202x\276\370\323%?\303\304\360\275\322j\307\275\333\266v>\034\343\313<\\\207\034?\323&.?g\2022?\202\030Q\276\323[\004\276-\204k?W\261\227;R\035\232\275\254\027*?\354\005D?\310\020\014\276CI\233>M=\030?u\326r<\3474H\2768f\035?\346\232B?ym\331\2758\032 ?\212\241U?\216\364i?qb8?\250\021\037?IXE?=\372\036?\313\010\t?\303\274\231?`5\305>]\343\024;O\035\316\275\250\247\n?e\3030?W\204F?#1=?\007\336h\276^\355\325>$p\014>\233\227\037?\203\322\301=E\304\033\276\3458\321>[tE?n#\210\276_\313U<#-\013>B$\370>\201\002\212>8\263T?\373A=\276\242\210\235=\354V\r?,\366r>\333\312#\275\243F(?\245\372#>\370\372C?F@\235=.\t\216=\273-,?\016\034\024?\035c\'\275Q\0078\276\223\371\263>\370\007\261>\263,\373=1\270\005?\201\345 \276\023b\037?\316\022\205>\267\245-?r\306)?\321A$?\240\361\311>\365\274\244>9c\037\275!\024+?F\377\375>,C<;l\005k>\2633\324>?v\261\275\355\330d\276}l\r\276\t\3561?\306\022\013?\236\206Z\276\341\325\266=\250h\235>^\352\t\276k\331\027?\207\0251?\207D2?I\0021<\351tS?\202\3274?91+>:s\032>/a\030?\024\333\346\275s\205\016?\263\251\025?T1\n?7\213V?\232\336\323=\377\266/?!9>?\317\307O>T\344Z?\r\246B>\224\232S?=3_\275\366\031\253\275\374\311\025?\3449Q\276\235sQ\276\273F7\275<\236n\276"
      }
    }
  }
}
node {
  name: "actor/Conv1D/b/read"
  op: "Identity"
  input: "actor/Conv1D/b"
  attr {
    key: "T"
    value {
      type: DT_FLOAT
    }
  }
  attr {
    key: "_class"
    value {
      list {
        s: "loc:@actor/Conv1D/b"
      }
    }
  }
}
node {
  name: "actor/Conv1D/ExpandDims/dim"
  op: "Const"
  attr {
    key: "dtype"
    value {
      type: DT_INT32
    }
  }
  attr {
    key: "value"
    value {
      tensor {
        dtype: DT_INT32
        tensor_shape {
        }
        int_val: 2
      }
    }
  }
}
node {
  name: "actor/Conv1D/ExpandDims"
  op: "ExpandDims"
  input: "actor/strided_slice_2"
  input: "actor/Conv1D/ExpandDims/dim"
  attr {
    key: "T"
    value {
      type: DT_FLOAT
    }
  }
  attr {
    key: "Tdim"
    value {
      type: DT_INT32
    }
  }
}
node {
  name: "actor/Conv1D/Conv2D"
  op: "Conv2D"
  input: "actor/Conv1D/ExpandDims"
  input: "actor/Conv1D/W/read"
  attr {
    key: "T"
    value {
      type: DT_FLOAT
    }
  }
  attr {
    key: "data_format"
    value {
      s: "NHWC"
    }
  }
  attr {
    key: "dilations"
    value {
      list {
        i: 1
        i: 1
        i: 1
        i: 1
      }
    }
  }
  attr {
    key: "explicit_paddings"
    value {
      list {
      }
    }
  }
  attr {
    key: "padding"
    value {
      s: "SAME"
    }
  }
  attr {
    key: "strides"
    value {
      list {
        i: 1
        i: 1
        i: 1
        i: 1
      }
    }
  }
  attr {
    key: "use_cudnn_on_gpu"
    value {
      b: true
    }
  }
}
node {
  name: "actor/Conv1D/BiasAdd"
  op: "BiasAdd"
  input: "actor/Conv1D/Conv2D"
  input: "actor/Conv1D/b/read"
  attr {
    key: "T"
    value {
      type: DT_FLOAT
    }
  }
  attr {
    key: "data_format"
    value {
      s: "NHWC"
    }
  }
}
node {
  name: "actor/Conv1D/Squeeze"
  op: "Squeeze"
  input: "actor/Conv1D/BiasAdd"
  attr {
    key: "T"
    value {
      type: DT_FLOAT
    }
  }
  attr {
    key: "squeeze_dims"
    value {
      list {
        i: 2
      }
    }
  }
}
node {
  name: "actor/Conv1D/Relu"
  op: "Relu"
  input: "actor/Conv1D/Squeeze"
  attr {
    key: "T"
    value {
      type: DT_FLOAT
    }
  }
}
node {
  name: "actor/strided_slice_3/stack"
  op: "Const"
  attr {
    key: "dtype"
    value {
      type: DT_INT32
    }
  }
  attr {
    key: "value"
    value {
      tensor {
        dtype: DT_INT32
        tensor_shape {
          dim {
            size: 3
          }
        }
        tensor_content: "\000\000\000\000\003\000\000\000\000\000\000\000"
      }
    }
  }
}
node {
  name: "actor/strided_slice_3/stack_1"
  op: "Const"
  attr {
    key: "dtype"
    value {
      type: DT_INT32
    }
  }
  attr {
    key: "value"
    value {
      tensor {
        dtype: DT_INT32
        tensor_shape {
          dim {
            size: 3
          }
        }
        tensor_content: "\000\000\000\000\004\000\000\000\000\000\000\000"
      }
    }
  }
}
node {
  name: "actor/strided_slice_3/stack_2"
  op: "Const"
  attr {
    key: "dtype"
    value {
      type: DT_INT32
    }
  }
  attr {
    key: "value"
    value {
      tensor {
        dtype: DT_INT32
        tensor_shape {
          dim {
            size: 3
          }
        }
        tensor_content: "\001\000\000\000\001\000\000\000\001\000\000\000"
      }
    }
  }
}
node {
  name: "actor/strided_slice_3"
  op: "StridedSlice"
  input: "actor/InputData/X"
  input: "actor/strided_slice_3/stack"
  input: "actor/strided_slice_3/stack_1"
  input: "actor/strided_slice_3/stack_2"
  attr {
    key: "Index"
    value {
      type: DT_INT32
    }
  }
  attr {
    key: "T"
    value {
      type: DT_FLOAT
    }
  }
  attr {
    key: "begin_mask"
    value {
      i: 5
    }
  }
  attr {
    key: "ellipsis_mask"
    value {
      i: 0
    }
  }
  attr {
    key: "end_mask"
    value {
      i: 5
    }
  }
  attr {
    key: "new_axis_mask"
    value {
      i: 0
    }
  }
  attr {
    key: "shrink_axis_mask"
    value {
      i: 0
    }
  }
}
node {
  name: "actor/Conv1D_1/W"
  op: "Const"
  attr {
    key: "dtype"
    value {
      type: DT_FLOAT
    }
  }
  attr {
    key: "value"
    value {
      tensor {
        dtype: DT_FLOAT
        tensor_shape {
          dim {
            size: 4
          }
          dim {
            size: 1
          }
          dim {
            size: 8
          }
          dim {
            size: 128
          }
        }
        tensor_content: "x\020R\275\265\253\201\276\204\2372\276\017\302\231>\270\317_=\naY\276a|\226>\210\013\017>@\r\213\275\230F#\276\3002\020<\356\030\033\276\260h\363=T=\370=\020\207\235=\252\204x>\242)\365\275Ch\232>\244@j\276\316P\177>A\037\202\276\"\310J>\200\032\350\274\240\244t=.\271\311\275 \270\210\274\221\004\226>\324H4>\345\244\232\276I\241\234>\010\330M\275\360\244\260<\374\277\036>_\320G\276\031|\212>\364@\376=~-\355\275u\234\201>\211\323\214>\307X\224\276X\210\253=\270\031\304\275\343i\201\276\000\246l<\000\214}\2761&M\276\250U\327\275J\270_\276\026\221\202\276k\252\211\2768L\364\275\216Pk>@\275\364=\363\240\223\276\310\375\245=\021\251\200\276\222]q>\022-\206\276=0\212>\377\237\205>\320E\376=\030\014\337\275\031e\226>;\312\202\276~\231]>\347\321\224\276\noR\276\251\n\231>\032\215\207\276^\207{\2763>\204>0\224\240=\240\347@\275\010P\246=D[\005> \r\311<\006d~>\300\3447<\212\351U>F\213\304\275\036\010\030>\325\2512\276`3.\276\214R\323= \241\030=\032\027P\276\364\311\302=.\344!>\324\366/>l\214\016>\266\031\206\275FTz>\250Q\262=0x\353\275@\241\201\274t\0067>\214\304\025>\242\324\316\275p\251\352=\224bq\275\346\"R>\311\035\206>\000\203}\273p\247\224<\200\247J\275K\034\211>\023~\200\276\334O\205\276pO\230\276,|{\276\026\245\227\275\202qb>@)\260\275\346\350/>\260\037\366=`F\230\274\375qu\276\357\027\221>\2007{=N\030\222\276Z\022|>@(\267\273\362\265\n>\260\005\226\274\220\324\341\274\242\256\\>\2721I\276\366N\236\275\376\'\251\275 \260[\275jP~\2766\273}>\n\177`\276\0266~>\\\220\037>\332Ta>\343&\032\276`\315y=\022\266\024>\374\347\272=\027`\233\276 \017\262=Jki>=^\214>$a\213=\332:\234\275\320a\"\276\366Py>\310YS=N\344;>h\231*=\034H\301=\377\036\206\276\350\t\021=\366\245\207\275\177\331\221\276:!\">r\3527>,\334?>\342Sk\276`H\300\275\360U\300<-\240\003\276\314m\234=<\023\t><+\r>\200\273\200;Z\226\'>\3009\327<\033pz\276\0047\227=Q\242\231>\372\374\326\275\243\244~\276\00005\275\256\243\273\275\177\215+\276!\275\203>\332\366\223\276\224\204\343=\277\004\213>\030\326\240=\320\004\000>\021S\225>`\304\201\276\320 \226\276\354d\310=\013\277\232>\236U%>q\236\202>\263\347\201\276P\334\351<a\214\232\276?b\n\276\332_\266\275\254\365\362\275\000\226\237<\200R\226\276\346\035V\276\361\204\230>hv(>0\215\273<\220\300A=\003c#\276\325Jm\276D _\276\200gn\274\220h\225\276xL\035\275}>(\276\023\027Q\276x\253\376\275\377\230n\276\267\300\221>\241\221\215>\316\224\333\275H\021C\275\226$\006\276L\372?\276\024\271\244\275r\230~\276\220\n\323\274V\307N>Pv\036\275\200_\230<\000\350q\273\177\'\211>^\000z>\035\251\233\276\211\375\225>\334(D\276\266lI>\022L|>\204\252\021\276.\225.\276XR\243\275\371y!\276\010-F\276\262\022#>\233$\211>\014\377\274=R\233\213\275h,\233=\345\013.\276\236qS>i.g\276V\342=\276|\032\236=\200Sg\276:\030\'\276\327\363\227>\3605\347\274a\333\217>(\217p=5\031\202\276\274\263\207=\310h\206=\327\345\211>\264\340\030>\\\270\307=\260%:=\3665\234\276\303&\217\276\0346q\276p\230D=\330\373k\275\010\322[=\006\370l>04\216<j\301Y\276\360\355)=<\366\321=\300L2<\376\253\221\275I\330/\276\310\016=>\300,\367=z\300}>T\020\220=\230\332\223=YG\200>5\\\221> \255\243<\371\024\222\276\312g\250\275\350)p\276|&\302\275?/%\276\252\001K>lU!\276\370K8\276\210\263}\275\235\251\007\276\324\207\231=\024\242\240=(+\020=7\263\231>G\333Z\276<\022\257=\340p\314<\352\300p\276\202N\r>\364C\341=\210`\357\275@B\251\275b\325s>tS\233=$\367.\276\303\321\003\276\264\252\305=0\261\221=\220\370$=\226\271t>\346U2\276\271J\206\276\240\256\306\275\245\205\201\276\360d.>o\337\031\276^\350M> \251\002\276\213\262\210>dK0>\300\326\332<I\177?\276\3755\223>,P\013\276@\353l\274\261\037\221\276p\314\362\274j\027.>\240\253\002=\350\246l\276\237)\230>\000\020\26790$\211=\372\343\016>\374\002\037><qB>\014\250\316\275\320S\030\275\340\255\371<\re\025\276\0005q\273\024\334;>,\n?>$\210\001\276\350\354:\276\006+l>\013l\215>\250\200\273=x\3640\275$\234|\276\"\2438>\376\342l>\377\023\211>$\374+>\272|b>\311\000\220\276[:\220\276\027\001\223\276;c\222>\"jm>R1(>jPx>~\005x>\235\240p\276\000\333\025<h\004\242=\200\205^=od\224>\2602\262\274\2369|>\243\243-\276\267|\225>&\262$>\350\371\002\275\356\246n>0\305\242=\030\237I\276\352\325\007\276\326GU>\200[\021\275\320j\024\275\205\374\200\276z\251\255\275Fwl\276\276||>\342\234-\276\220\020\036=)+\223>\000\324\177\273<&p\276di\276=\272\373k>\002\"r>0r\002=\240\013 \275\314,\006>\024\177\237=A\231\212>\200\r\233<\334\300\217\276\361B\215>\277\321\021\276\366\231\303\275\020\036\272\275\260s1=\231\216\000\276\230\257\235=\000\340\"\270-f\005\276\255\307\204\276\366\234J\276\200t\301\273K:|\276\220\375\016\275T\302\016>\310\025u=\310\233\242\275\256\254\375\275\177\355\231>\204\347z\276\252\374 >\2343\335=\365\357\200>\214\237\032\276\206y]>T\257\245=\243\317\007\2762{i>T\352\331=C9\204\276\206um>\212BO>p<\211\276\010\207\357=\262\305:>l\213\371=\200V\314=\254p\264\275\326\001F\276\361\225&\276\204\354\273\2750\331u=3\247\231\276H\340\375=\013\346\222\276\004\372\205\276\354a\226\276\274a\253=\006\330\216\276vQ4>|\205\r>\030*~=\271\013\234>\210\231l\275\350\t}=\252\263\357\275n\321g>\030=\377=V\357\210\276\005 \226>t1\334=\300`\325;I`\215\276*\210\326\275\300\211.=MG\014\276\037\361\222\276\244V\355\275n:y>~\250\210\275z\322\031>\327\331\207>gI6\276\340\351\204\276\222\010W\2768-\364==\207\222\276\233G\207>\256\260\217\276|N\032>\366\253\304\275\000\370\005\271\030\331\032\275\0003\270:>\232\022\276\226\377W\276\0310o\276\317\260\216>H\334_\276\244\267\007>PR_=\340\346\263<\354\213`\276\366\tJ>|\315\337=.\374u>\234\232\001\2768\264\332\275+\021\200\276z\346d\2766\271\357\275`\021+\276 ,y\274z\244g>\300w\220<\300\264_\274\320F(>b\367T>zxs>\235S\203>h\366H\276H\350\255=b#\217\276\030\277!>\240\006T\275\364@\366=\362\207\n>0\370\027\2752J\341\275Pm\252=:r[\276q\235\227>~\\\361\275 8j\274\000\r \275E\345M\276`\332\204\274Ha^\276\300\351\360\275\335\376\222\276\020\334a\275\300K\030=\212\363\301\275\327\310\214>\326\2110>\324\370#> \252\255=\007\310\232>\310\220\232\276\252\"^>\350\023\035\275\242\217\250\2752\364V>\320\345\355<\024\251\263=\214\257\211\275\352\"\221\276\244\256]\276\312\221X\276\220\332\014=\\\242\372=/\220q\276\202\256x\276j95\276@:\230;\300ji\276H\261\035\275N\365m>\310\375\267=P)9\275]\350\005\276\202\024\035>\252\021\306\275\3026.>\014Yz\276\000\213\030\274\026,\216\275\021P\206>v\ra>\247\244\030\276\020\222\201<\002lY\276\000\037\364;FC|>\032\036U>\246\243\371\275XoA\275\026.\r>\272\245P>\376\200`\276~\267\246\275\210\033\246=}\211\023\276*\257z>\345w\210>\234\000\304\275g{\225><\024\017\276H\341\271\275\240o\262<CI\t\276j\353\212\275\230\205{\275\362\314\223\276\034\236\227\276\360\325\252<~|\267\275\377I\201>\340\264}<\360\256R\275\226\276D>\010\270\373=\000\021\342<\312\201\261\275\240\245d\274x\2463\275\3469.>\3001\223\274\334\236\247=\330)\026=\\\374\201=B\022X>Fa)>#\276\211\276\261k\215>0\321\005\275\345H\211>\276\230\225\275\3745\374\275\246\325z>\025b\013\276\262\226\031>\360\306\267=\300$\324\275\243\223\207>3X\220>;RD\276x=k=\270\262\020>\276p;>\000\201\260<^\003/>H\271\261\275\222{\341\275\220u\331<\204\2703>\306\tG\276\002\334\237\275\214\263E>\254h\177\276\370\210M\275\340|f<\370\235\266\275\0041\253=\354\352\226\275&\306\320\275\214`\">Xz\253=\342\322\010\276X\243Q\276dL\323\275\014=]\276\340(\025\275NW\036\276\030}?=JF\024\276$C\357=\202\202V>\000\251\224;g}\226>\210\371\035=*qd>H\240y=I\034\226>\333\334\217\276\007\255\211>WR\231\276\220\256\315\274\336e_\276\n\354\334\275\307U\210>fnw>\370Ge=h\372;>!;\210\276\360\242O\275\312\252d\276\200\237\271;E\030\204>X`$>|\016\227=6(a\276[^`\276y\271\230>\235L\201> e\362=\010H1>\366\376\233\276 \000\337<pM\030=\263g\010\276\0201\264=\034ho\276\230b\337\275\010K\301=l\223\222=\030!\322=;\347/\276\376%\211\275n\377^\276 &\005\276\020\342\211\274S\314\205>)(\201>\340\271y<M\366\205>H\361\320\275\253\022\216>8{n\276n\254\311\275^\231x>0\372\306\274l\220\243\275\004]\037>\350\023k\276\000\310\314\274\234\350R\276P\206\256\275`A\200\276Dt\235\275p\204\206\274g\264\200\276\362G\375\275\240-\022>oeu\276\027*\227>\334\325\007>p\t\031= ;\352=\352\201O>\344\313\367=\3744\311\275R\201<>\277F\216>\300\003Y\276I[\213>\350c%\275(\016n\275(\237\220\275\200\366\373;P\266\010>\004\264\'\276 ]g\275\225\315%\276\355\353\225>\000C3;\223\372\220>\330\270\010\275\246\354\236\275\024E8\276\314!\324=\200g\"=@>\215\273M\367\014\276v\226\367\275\334\306\361\275\240v6>\024}\005>\201\354\233>X\272\031=\3622\205\276\004\"\223\276\202\275#>\363\314\203>Z\251&>\360\3168>r\020$> \374\262=\347Q\210>:`R>\242\321\225\276\334H\001>\230Cn=a\013\231>\200\275\020;\336\024\r\276\321\306\232>\336\301\226\276\350,\004>\306\371\223\276\326oN>\255\202,\276\331\362\231>m\036\207>\305\207\210>\016!`>R\352K>\220O\344\274EG\234\276\2340\333\275\024.[\276f\206\345\275\374\027\273\275\020q+>fp&\276p\334\303<.S\227\275\034&\264=\263~\233>524\276\276\317\241\275\226\377:>n\325g>\300\027\351=^\261^\276\336Wk>\364<\316=*\371\034>\372\335*\276(nP=\254\232o\275\037\266\217\276\202\002[\276t\346z\275.+A>\201\241\231>\314\242t\2750p\026=\000\010\204;\2213\201>\270\000\006=\300\000\364\275\2532\200\276$!\016>@k\355\273\036PL>\nj\227\276R\236n>\014r\027\276  ,\274\370\325J\275\346\270\225\276\014\022J\2764;\254\275\000\361\214\274\241\316\217>\346\305\326\275\000*\202\276\376\372#\2766\007]>\274\325\364\2756\\n>\034\010\371=\326\373\217\276n%\216\275X6\231=\277\327\223>| \235=J\010\302\275X\327\272\275\027\303\021\276L\352\215\275\317\247\221\276\020\320\221<\245f:\276\330\221\364\275t\334!>\352\261\360\275\224(\246=\272\375*>\251\207\022\276@\331\363\275\357\222\220>fEV>\000\271\203\273(\365I\275\227\310\026\276\300\263\367;(+Y=02\216<\330\357&>N\242\250\275\312\005\315\275\206\375\333\275\326\330\'\276\323\317\201>j\330S\276\274Me\276\000\313\215\274,o\211=\220\000\254=p1\267\275\216\235\034\276\000\376B>\211\304\204>\374\247\255\2752\254\353\275\2362_>\340\234\232\276@%\227=:\1779>\312\302\020>\272Uo>\255&\020\276a\314\222>N\234\241\275\327\231\225>\225n\226>X\224c\275+E&\276e\367%\276\312\217|>\270u\025\276\357\267\225>\032b\021\276\364\002\242=~\265n>\362\234o\276\300\014\003\276(s!\275\210\014i=\326\305Y\276\\\316y\275\257|\223\276\264\343>\276\206yA>f\310Y>\204\372t\275\242\347q>\362\200\036>^8w\276\211\342\201>\000\024\264;\270az\275\010x-=\260kq\275:kW>\277l\227\276\222/D>\300J\n\274\337V\226>\341\267\211>\036\310\213\276\264\003*>\250F\207\275w\006\014\276\276B\371\275\314W\212\2760\026*>`}>\275\254Z\236\275\300\244\220=\320\034\221\274\214\262\204\276\0002R\275\317p\221>xC\'\275\332\023C\276dZ\025>\260(\245=\366\2059\276\230\343z\276\275\005\217\276\370}b\276\240\305i\274\300\007@<(e\212=\037q\232>hu\034>\006\306\177>\010\372=>)\2756\276\014\203\372\275\020\257{=\000U\343:\252\306P>\304Z\326=\260\304\252\274\372\226\303\275\200\3147;(\361\274=\220\304\273=\022j:>\345\242\204>8\364W=8\016\177\275\000&V\273\032\241X>0\256b=\312\375>>\363\306\204\276\362\230w>\370\251\251=\256\2456>\224\013\354\275\264\222\255=#4\211>\320\2576\275\002\345}>`Z\177\275pn\335=I\264\221\276\366Fz\276/@\225\276X\005Y\275\224\234\001\276u\324\201>v\330&\276[\235\210>D\033Q\276\031\000\200\276v\017\216\276\007\344h\276\234u\037\276@>F>\267\212\206>\000\333K<\233\0046\276^U\276\275\276\005\030\276\300O\210\2760\356\302=\200\375\010=u\222\234\276p\342\271=R\315z>\30091\275\230b\232=-\035\223>\300\017\264<\300\005Z\276\032i\n>z*\000=\345\037\300=\333\240\004\276\252\326\321\276\003\270\334=#^<=\243\326\242>p\254\207>gGJ>\315\317\010>\341M\032<\302\265\343\275|d\366=\037\230\356>\356R\237>\277\\\377=\033\241k>Zm\263\275I\027\207\276\342\243<>\032\276\224=\331\301U>\306o\212</\037\265={%\241>1\310\357>\364\323\264\274^\222\037\274\347o\026=\234L&>s\204k>\301\372,\275\275\243\272>\246\216f>mD-=|V=>\323\307\r>[\0047>\304\242}\276\261\374\227>\222S\205=$^\263=7W\014=#\"\321>,on\276/\263\234\276zvL\275`\000\260\275\030\255\237\275\233HL=\335<(>\302\330)>\363\034!\2768\244_>*\333\354=db\322=\017Jv\276t=X=\202\3254>\355E\201>,\027\216>\257\0143>\303\336>>\337\000\365>\223f/>\211\353\370\273A\345\217>\230\271\221\275\266j\367\275\344XG>]\214\326=\034\rC>8\310\275;X}\200>\252\374\365>\276u\343=rl{>\263\326\376\274\20762=\020\306\345>E\204\350>xhE=*.\r>\265\020\035\276c\311\322=\272\302\247>\212\260\036>8\247\362\276\313\244\203\277/\035\254=\027\\\031?\336#\365=Z\354\365=\350P\230>UyC\276\311<E<\267\341q\276s\220&>J\275\371\275P$\230=HW\241>\312\257\335<\311\010\237\2746\260\223>\341!3?\203O(> \356\300>P\231\341\276%o\220>pl\267\2765kp>\324\206p\275\216\013)>\323\372->\003\034\221>\007 \027=\314\342i\277\225<\032>S\3554\275w\300\230=\370b\206>;\232\177=^>\215\276\022\336\302\276\340\333\333<]\245\262=\316\352\005?\203!\224>*\006\213\275\231\027\276\275\227\266\211\276\272\024\271>\257\327\334\275U\332(\275\220\022\252\275\002\355\225\275\3565\271=\377\362r>\267q\272>\355\370\355>w*\306\274\362\202\372>\350`\255\275{\335\203>\263@_>\361rL\276\236\352\320>h\354a=h\307\217<k\351\210\274\300\351\036\276=\222\223=\304\"\213>:\350\315>\3340\335=\024\3318\275Ot\274>\247\233\004<\\\222\346\275\366_\211\275B\363\301>\252\204\001>\252\322\206\274wS}>\254{\216=\013\'\236>\377\300\251>\335}x\276u4=\275\026\331\205>Pz\304\275\200\014J>\021XA>\216\315\201>\361\207\214\276\223\337\004\276\330\222\306\276M3r\273\267`\253\275\006\223\243\276\r\0136>\027\236\005?)\373\312;\315\351N\276;\300\362\276\002\331\366>#\223\r\276\241S<>.8Y>\251\226z>\371q\366>\220\r\306>wn\031>\212-t=\027\350\321>\366\004\200>l\r\345>Mv_=4\022@\275\231D\366\273\017\3752>\217\033\207=R.+>\212\326C>`-u<$\373[>}\323\032>\003\263\331>\340\261$>\301,v>\025~\251=\313\005$\276\275\363\023\275M\210\226>n:\257>f\306\247>\303\361e\277\225\215/>\251R\302>\313d\231<\264\003\335\273\224\270~>BU\231=\313\266\022>\'\265\'>\025\262x<\034\0332\276Y\004\210<_F\251\275{% \275\331)\311\275b\217\275>\337\035\344>\177\364\321=\005\2379>lr\005>\202e\t>\227\365\214>_\rs=\000\016\220>+\245W\275-\n\215> W\357\275?\276\246=\331\270\\\277/\344B>;\202}>\351\002\235\275\006\374\225\274_\211\245\275\302\364\257>\254J\r\277\340N\n\276g\223O>\303\224\272>\244jz\275\345\266\037\272\322$\366=\326cn\276\020\263\343>&\236\206</;\224\276\177{!>\352\'&:\t/\330>v\317\273\274\267\363\260=}\374\243>a\206\350=\200\327\244={\231\331>\321`\346\270X\036\264=pi:\276M\014\347=rF\340\275\333\025\244\275z\255[\276\301L0;_\245\347<\233Y\034>\225\315D>\355\277;;O\321\254=\270;\307>?\000P\276\360\243\305=\2437d\276\211p\267>\312<\224\276v\253\237:\235\241\302=d\023\014\276u\320M\274\360\211y>Q\325\310>\030z\013>A\266\206\274\242~\304<\022\362\246<\322\257\031>L\355\202\275\353\336\334=\235\340\005=\222R\271>\376:\021=\327\337\227>Z\264\021\276\317[\340>f\000\t?L6\252<\266\334\216=\343=\020\277\307V\017>\324\020\306>\307m\r\275\236\366\224>.\303p>O\371\326>f\273\246>\246i\203=\213\252\271\275\237\224\265>u\004\361=\223%\270>\351c\006>\320\346\222\276;H\004=\221\016\211>\325\356\200=\215\274\220>Y<\010\276(\333~\275\356h\353<\277\216f\276.:\230>kO\235>\006V*\276\3227\256=\246\024\355\276\355+==\354\303\264>^e?>\256\006\204>n1\014?B\016\014>\336\020\n?\222\312\t\276\020T\202\275\341\340\300\274\235n\304\275\262kW\275\272zu>e-!\276\375\215\200\276\374`\036>\324)\200>c\203\251>\ny\277\274\277\207\201>\214\0269?\325\251Q>\313\271Q>PY1>\360\3723>>\301\307=YN\234>\202\340c>U\303\220=\3662\356\275\2241H>\017\316W\275Z\226\276>tA\320\275\336\n\006>\240\234S\275\021\351R=#%\212<y\310p>\303\322\374>\024\367\271>\300:\316=\233\367\007\276xs\361;\t\"\203=\213_\217\276\346\233C\276\264\345\364=`\035\376\274\325\347\371=\000DE\275S\024\247>PI\n\275\3635\014>Y2\354\275b\223P>\237\3172\276R\360\213><XL\276\333N\243<c\232d\2764\305\330>\214\215\302\276c*\267={\275\304>\3403C>YLb\274\352\324\305>\344\244.\276\204+\326=K\036\007\275\320Nu\274\351\223b>\215\216\303>\0243\344\273i\235(>\341f\370\274\231\333h>\346b\036=\353,p>\177\300v>\034K\311=c \255>B\013\320\274\027u\216=\245\2321=\367 E<\2039K>\235Y\342=Y\206\205\276`X=\276,\337@=\263\376\317\274\306\330\207>ew\236>\212\336\331\2758\'6\276@\2515>\327H\203\273y\020i\275\275\"\220>\033gT>X\206\220>gXC>6\364\327>\374\347:>\027l\004?i\235}>?\204\222>\014\337\202=]\375\221=\374\341*>\246*\375>\207\226`\276g\031d>\005\001\246\274\032\0303\275`m\330>El\370>\353\225|>\371\025;=\0136\205\275\315\331\014=\027\032\274=\021\211\365=\364o\211>u_b\276\335\"\236>\021B\177>dA\024?~\254A>i\375\023>\001\031\243>\312\231\216=\251\254^>\021F?\275\014\324\332\2751\272d\276\321\253>\275w\322*>^UY\276\002\250\242\276\240o\261\274\250\257\272\275\303\263\211>c\330\222>Z\257\025\275]\305b=k\245\236>\360b\206>\272\337\226>\345A\225>\236!\340=\327\177K\276\350\327\256=}\224\014\276gK\357:Rw\031\276\213\347 >\343@\322\272T+\277>\241%@=\2732:> b\272=\013r\r\276\267%\024>\275tz=\277\3523>\253\335\200=\230P\214>\325\202\243=~\201\274>\224\245 \276\305\233\221>\200H\345;C R\276\214`\352\274\262Nt<\374Wm>s\200\213>B`\303>pl#;\022\t\220>\237\024\225\276u\301n>\220\331\016>X\230[>\266\315\224>\204t\204\275X\rj\275\234\245H>>\236I\276\203\2158\276\214\n\267=k\310f>\337P\277<\231&\263>\244\004\265>\320\366\246=\331X\227\275\205\360\226>-\372^>ov\277\275\325\233?\276\017\363\034\274JE\016>\361\2378\275\177\031\301>YM\263>>\027;:V\361\352=y\331\310=p\357g>\253\224S\276\241\210\341\275\370\320\221\276<?\245>$\3119\274\371d\201<\377\250\030>\323\347 \276_\t\242>Y\341\032>\332J\034=\363\335\016=\177\273\234>F\363\304\275q\216N>\304N\220> \\X>\001\211a=\2151\007\275\254\375\201>\016\207\001\277\233\365Q=\326u\250>\352\230a>\344\221\250<\362\023\355>\216\316\315\275\372_\240>\361\265~>B\273X>\036\177C=\227\216\030\275\277\367\205\2761\356C>Al\202>7Q\027>$\306\024>\323\021o>\207\234\277<\204\364\364=\235\234p\275GR\212>4\326\312=\255\343\016>\221\000\027?\253\357\256>\322=\364=\203h\262>j\027[\274\262\345\225>h\334d=6\330>>\030\316\272\275vc$>#\351(>ES\305=\r\377\201=\370FH\275V\237\211>\332|\235>`h\213>\233\322\272\274\246\201\306>D\303\200>\n\376\203>\315p\372=\r?\353\275\215[\014\276\342\202\356=\272t\240>\005n\325=\"\376\366<H\210\177>\250\261\370<1\033}\275\024\025J>\320Y\330=\245\215\273\276\246\321\014=\333Kp>T\022\022\276O\323[=\311\261\304>\360\340\n=\317\252t>+\334W>\2551\370>\347\010{\275h4\226\275#_o\276\263g?>i\374C>\262st>\227\266T>\341\275`\275F\355\010?L\233\275<\351\2063\276$\2113>\204k\233>s\007\200>lt\364\274\321\304\237>\025yl\275\374H\211>k\377\226\275\376\367T>\244VS>Qv\313\273\\\330\334;\256e\276\2757\252\345>\203\254\n?d\355\263\275\241\017\352=\310\324\016?M\240%> ?Z=\034\0077\275\333S\016\275\r:\007=\234>\240>\t\375\374>\261\322\241>DJ\376\274:\207P>\244z\252=\316\315-\273\321-\221>\337\363w>\200T\222\275t\245O\276W\236\223>?uH>B-\300<\320\377\272>\002\222\227>Ry\243>w\177\210>\001@\237>\377\217\005?PL\372\273\212\203;\276\343]\220>G\027\023?{u\256=[\231\270\275\303\274\221>W\014\336\276\032\245\244>s\023\013?9\371\033\276\247\330#\275.\"\271>\246\340/\275\022\035\001?\357q\005\275\366\277\030\276D\266J\275\303qQ>|$!>;\321\241>1\306_>\256\205(>\003\\\246\275\004\\5=\353\372q\275c\3024?\344\266\356=\032\016\251\274\205\220\321=\0354\315>\355i\217>^\234\243>\225\\\203=\265\323\'>v\037a=\304*\225>z\035\201\275H\255\325=\330]\251>\357\030^>\024\025\261=O\306\377\274:\324M>F\356\370\275z\307\016\275|\353\201>\366\230\203\276\277\322\227=Q$(?\244\213\005?i-a\275\"\352\260>\026\022\273\275\215hm>\226-V>\231\271A>V\036\352\273\321a\354:\353Q`>\203\213\353\274\205\234\230>:$8>\206\365\013\276\255\316\364=O\311\021\275(\365\000=\300\001\261=\263u\026=\024\033\r=\322\3502\275\016Gr;T_\014\275i\307\321>d\371#>\345\333\244>^\365\220\276K\034\213\276\210\215r>\312B\014\276G\372\232\275\364\235p=\036\3030?=s\227\273-\234\345=C\003\375\275\\\367\361\275\232\265\232>\221\344$>\250\005d=\323\303\330\275\371\2340>pQN>\024\272c>\003\334\201>\010\2655=\252\035\267>\000U\335\275d\266\'?!]y>\350\377\301=\237\343:\274?\323u>\245(\200\275\271g\206=I\341\331=\276\224\"\276\241\356\017\276=\225\232>\306\337Z=\373/\362\275\330\305\265\275+\364\211>$hl>\037\220\273=s\240\273\275\th\313=\345\275\374=\212\253e>v\360b>Q`\230=\'\257C=\022\231\251\275D=\252>\315 \273>\270\373p>zk=\276\240\3345?X\272\304=\361j\216\275a\307\032\274\265k&?\274\204B\276\262\266\373=\320b\"?\036\300F\276\324\014\005?\323b\212>\306^a\275?\3406=\234G\324>w\3362\275)=y>\211\373\264=6\002\233>v\207<>s\006\265>\303\310S=\004\3647?\372\374\244=\320T\332\275\244&\023=\213\317\220=@F\n\276`LD?3\216\026>.\215#\275\252R\226=\334,\177=\242\313*?\244\326!?\313\271%\275K}\325=2j\241>=k\234>\237\222\"=E\240\267>\'\240\005>q\266\225<\034\243\234\275Q\316K\276\253\004\215<\032\016\377\275C\357\004\275\210\265\234>\304\025&=yHa>h\035\030?\250\3174?Tt\345<\\-\376>\270\366\224=\'\205\315>vw*\276\013N ?\366\363c;\177r\005\276:\315\327>\331\363\007\275\201\227\205\274\031\315%>M\214\027\275\206\216\037=\303\tg>o\371\216=\301\246!>\244\326\246>P\026\253\275\375\"\256>$|G=F\027\353=\216\265\341>\212\006\202>7e\000>\267A%\276\340\212\260;\002\332\333=f\377\260>\032J2?\005\r|\276\271[1?\206%\013\276\335\\\311\273\336\253\033\276\3208\306\275$!2?\3130^\275Dd\006?\002\3157\275\365vE>R\201\341\275^b\201\275\217\343\317\276\014\224(\275%\320E>)\035\262\275\336\"l?\231\337\310>\215\014\244\273\232\305O>=\223j?X\257G\276\316U\207\274x\352\251>n^Q\276k\242\235\275\035nG>\244@\002?V\327\326\276\004H\364\275rDj>}\367\256\276rl\004>Q\232\273\275\241c\024:J\301\355=7h\267\276\323\364\367=Q\000\331>\337\326\207>\3048\222>\303\346\037?\\\016\360\275\344\355\340>\225\300?\275\322ls?\244*2>\226\345\214>\0335\261>X\255;?8O\t=\367\013\234>\241VU?`y\256=rWk?\362\313\034?Jg\022\276\373\346X=\315K[?\237DE\276\272m\377>\217\333\036\276;\2323>>\256\026\274\025\312\236>\005\375\216\276Z\346)?5\340\016>p#\021\267\227}\305>p\221\017>\363\336\r\276\177\017}?1G\003\276=\343\223\275\335`\317=yI!?K\371=?L-0?<\204\315\276V:\235\275\006\351\202>Uv`?#\'\366>ax\307>,]Z\276%\245\354\273\300\344\256\275\202~\354>\375V\005>\362\275\342\275`a[\274o\255$?rp\372=\377^?>b\322,?.P\221?\000\177\365>VB\265>\022p\322=N\014=?T\232\367=1\213*?\250i\021?=z\275>G\3059?H\216\262\275;~\256<\024\216k\276`,\224>VY\331>\035)\217<Qd&<\323\033\246\272,\351+\277;Q\033>a\226]\275[F,?\260\231\001?\246]V>@\234\272\274\264\310\304=\212\332\274\275\214y\224\276J\207I>\006fC>\270\376>=\326eM>\216\222`>h\324\201=\030Q\375=\272\364\217\275\204a#>\017\205\234>x\2122>m\356\223>\360&\220=@\360\362\274\267\277\007\276\217\376\204\276\240\310\301<\352\327\204\275\230\226\244\275tf\356\275\376\023\266\275\256\371R\276hX\n\276p\001H\276 \303\211\276nZ\221\275\026\341Y>\364\242z\276\230\031?=\310I[\275H?|\275rb\003>\212\221\322\275\322\031\\>m\372\205\276\227_\206>\200)\004\276@\252o\274f\205#\276<g.\276)-\016\276Vd\005>Fw<>@\312\037\276\370Ra\275\010\226\022\276\250\300\316= &=\274\320H\332<\002\034\035>b\363\231\276\376Ei>\332\0316>\200N\002\273r\342\016>\253\231\213>\244\305\372=\240m \274\363[U\276\240\370q=0\237<=\301\257\233\276\\W\215=\0322j>ON\201>`\270\241\274\240p=>\274\235\227\275\265F\224>[\256\223\276\233 6\276\311\263\215>\250\324\311=\036\013\224\275`z\177=\010\251\360\275\330\230\'\2768\322)>\364\367\244=Fw\037>\300\341_\274L\2128\276\200\342n=L\221C>\036\205~\276\021{r\276,\233b\276\020\3641\275\227E.\276\002]^>\241\236g\276\001\240\034\276\300\333\202;\340\315\251<\034!->\016\304h>\250\026-\275\214a\021\276h\341_=\300e\230;\345\337\213>\266\232`\276e=\232>\210\017\202\275h9<>\374\272\263=%\213\225>\200\204\220\276\217\305\201>E\322\004\276\320\202\037>F\020u>\300>Y\275kp\222\276\263\262\203>\323\300\204\276\326\273z>f\275\234\275\370q%\275\206i9>\2139\212>\371:\225>\000\365\223;\030\236L\276\336Y\225\2760\364P\275\372\351\230\276\010*\237=|\014\242=\200\267S<\344a*>t\225\010\276\030\367F\276\r\236\227>\200\272\273<n\341g>\036\3316>B\361\230\276\270\205\017>\240\371\222=\305\310T\276/<\207>\202N\023\276\351\237N\276\370\325\202\276\316\302n>\363d\223>\364Z\262=\300\213L\275,\336n\276\264\224\217\275&\313\371\275\013Pd\276\030\341\310=\304\335\207=\3760\227\276@\256\036\275\002\301d> &m\276`\335\355\274\352HB>w\007\200\276\200W\224\274\335\331w\276\200nP;l3\250=\222@c\276\"E(>\350_\235=\030\206\205\276\240\377F<\276\023f\276\030v\276\275\300\313&\275\316\t >\202\206h>Xdw\276H3{\276!5\207>\210\223\257=\306\313N>\2603B\275\005\202\007\276\264G\022\276\236\013H>\272T*\276%D\223>\204\240\323\275n\006|>\350\365z=q\310\225>\322Dv>pm\206\276*\006)>h\344\022\275\332\023\007>\253\204\226>h\334b\275V<[>\030=e=i\333\231>\036\265\t>Zb]>\325\234m\276\226d\207\276\256\214 \276<\335\004>\310jV=\031\252\220>\000\327_\276\262\006W\276\317\325\207\276\212e+\276\364\037\355=\001|\221>\262\334\227\275\230\220\017\275J\377\001>\27467\276\225\225\223>\263v\227>\216Qm>0g\372\275\304\350$>\247\2253\2763\\\220>b\270S>n\322r>\270\260\226\276P\234\265\275Znq>S\267#\276\211-\213>\000.\347:\274\277\360=\306\256\335\275\320\361\366=0\010\273<\314\317\350\275\306\005H>J\032!>d\316\257\275\212\244~\276\000\'\327:t{\214=-v\211\276\312\332\302\275v\036\233\276\220\237\224\276|\201\203\275\204\271\226\275\242LG>\340}\024=\350\352\020\275]\237\221>\320\270\361\275p\336\230\2740YE\276\364\301\345=\274\025\207\276\260(_=\271\"C\276\223\211\030\276\372\211\226\276.\344\212\275z\033O>(\256$\275\016\312Q>\234&\244\275\000\207\264\2720a\002\276@\261{<\320\277\230\275\326\270\237\275P}\265=\300K\236=\030\342\302=\254\356\242=\200\321L\274\210\273>\275\264\363\220\275-\3725\276\314,\237\275/\277\223\276%\343\220>\377\205\232\276\240\005J<\200\202\234=\322\032|>[\005\205>4k\022\276F\227\215\276.\327\275\275\222\333@>\020\227\300=\304 \200\276u\017\210>\317~\222>eiA\276`/#<@\361\000=\026Hn>:\275\232\275n\312t\276\254q\327\275\274a\013>*\2047\276\360\355\266\274\320\351g=\252\017R>\224\220B\276&#\000\276p\332\210<\332\215\033>~O~>\340\372\026=\220\003\372\275\237\3227\276ej\211>\033\275\010\276R\227o>\346\330W>\340M\337<-\0147\276\343\212\202>7\311}\276\013\243\216\276\246]\204\276\t\211\016\276\016e\014>\314$S\276\330bh=\024P\233\275A\207j\276 X\"\275\340/U\274`\223<=n\247\003\276lIS\276`\250\016=\330U6\2768\027_= \330\235=\226\356\336\275b\356Y\276\374A\032>\250\356z\276pk\"\276\210Z1=\266\003c>d\223\226\276\244\023e\276\360p\014\275\256\343P>d\240\244\275\006HE>\353d\205>k\264\220\276w\236\004\276@\364V=\320\035\212\275`\212V=\000\306\020\273FB3>\374\003\271\275\025\216\224\276NK\201\275b\207\027\276`\277c\275\016\303\177\276\200\365u=P\3216\2764L\251=\324-\234\276.\364\327\275<\001\004>TF\373=\300\016B<\354\n\354=\353\201\210>r\"M>a\226\231>\200\242\243;\000\366\033\275*g\253\275`ea<>\343\201\276 +\026\275V\315n>\200\324C>\256,[>*Ms>\311l\224>\250s(=\003J,\276a\001+\276n\000^\276\350\036\374=pb\207\274\3501\261=\300\332\251\273\010\372]\275\212\3137>s\315p\276\200\312B\273\300\027\377=\211\231\227\2762\200->\320\022\266=\202fQ>\200\t\374;\300\326\t\274|\313\230=W\'\207>8\357\024=\206rw\276&kD>\310m\242=r^1>\000\020V\273\345\000\002\276af\212>\016\366\205\276\264\214p\275\240\377d=\000\016F\2758\371A\275^\023/>2\rT>\345\356\225>\320`+=\252\024W\276\016\005~\276\2211\212>\272\020\036>e\311D\276\006-h>\000\345z=\340\273\277\275\036\255=>h\353\365=\037\\\224>\340|\317<02\030=\021*g\276\270\351\016\275}<\203>\240\262t\274\320@\227=J\232\027\276\344\230\027>\370\3129\276\220\337\025>x\245\315\275H\323?=\373d6\276\336\010k>\257\223\217>\307~\221>\202j\021>\260\236\027\275\200f\252\274\203\271F\276<9\010>\230\200\303=Hv\266=\242\243f\276\215-\212>\300\004u\274\236k\017>&yl\276\310v\030>\335\373\211>\024\223\006>\200\322;\275A\317\036\276\0340\212\275\345\203\013\276\260<\033\275\010q0>pTB= e\264\274kF\201>@0u=\300\322l\276\000M\031>\220\256D>\026\244&\276\010\361\211\276\334(\034\276\021m\224>J\247D>\253,\202>\212\277\030>X\276\036\275`\\n=.\024\017\276\030\317\361=b&t>0\366\002\276\230k\334\275(#E\275P4\027>\016\243n>\313\276\217>m:\226>\316\343 >\256\343p>\013-\205>\022LL\276\24051\276@SV\276\240\263\367=\210\230\000>\312Ep\276\006\236\264\275\306\003\335\275\034\201\214=\032q\242\275\356\252e>\351<@\276\376t\025>\303&\000\276r\241\340\275>\006W>Hl\366=\2163]\276 i\252\274\240zR\2741\311\215>\254\237\245\275\243B\205>\330D\260\275\250\241Q=N?c\276\225\354O\276B\361\205\275\225\215\200>fT\005\276M\265\224\276$8Q\276\360\320\357\274\266\250T>F\253\024>\007\014\225> \005\204<\000\256I:.j`>\264\376j\276B,.>\020\265\277\274\302Z\200\275\300\306\243\273L`\001>(\014i\275\323\343\026\276\346\230f\2766\265k\276\004\363>> \013\025<\361K\220>P$,\276\200\205\227<p\254\212\274\201\335%\276\260\000\n\275\240\276\226<\215\003`\276\025\305\210>\2721{>D|\316=\305K\224>@\216\032\274 \3118<\220\247:\275\330{M\276\"\r\212\276 \255#\276\000v\324=\276\017\272\275\270\314M\276\250|\t\275-\300\212\276\212F@\276:AQ>.*L\276*\252\016>`\231Z<\301\250\017\276x\312\223=8\324G=\366n3>`_\242\274\032\r\223\275\360\202\034\276<\334\301=\262\363\220\276\326c:>(7\255=\2503\302=h5O\276\310\215\315=\036\353\210\276\270\225\035>|2\346=\"\322\237\275\347\224\214>\"\177`>+\234\037\276\204\266\365=\260`T\276\232\270c>\376\335\023>\251\"g\276\332\r#>\353?1\276\030H\277\275\360\024\222=r\2528>p\221q=d\325\345=\261\274\213>\t^\'\2768\271\360=\266\315\342\275@\203h<\330\335\347=C\020\206>\000\237/\273\257\301\227\276\264\023\260=\334f\'>\3730\232>\254\021=\2766\314\370\275ZA\230\275@T\021\276$\003\003>\024bD\276\0364E>\320f\353=\262#\205\275\206~\307\275p\013\232<\250\372Q=>\017C>\014\231\017>\002F\207\275\306F\003>\000\024/:%p\203\276T\267\300=n\027t>\276\330\020>d\374B>`\275x\276\206\016\364\275$\247\242=\036\360\365\275\3656\213\276\230w\375=@\267\320=\320LI\275\300L/\274\371@\204>@r#=4\031\215=\274&\255=\207\305\225>\022ft>\2163\226\275\245\337\010\276`\316\314\275\020\363\252\274\340\250\002\276\023\213$\276G\302\221>\352,\331\275\\s\265\275s\013;\276\357\230\201\276\322_q>\236\"H\276\271\017\206>\307\340\211>\315\251\204>S\347\202>\240\313\202<\200\314\007;\346|h>\017\376\020\276\231q\217>bZ)\276b\301}>3O\210>~3\020>\022\013Z\276\200\272\254=\366ou\276\2527\213\276\036c\223\276\213G\226\276\032~\215\275\346\0322>\232\207\261\275\022\314\n\276\340+\021=\322\243P>\246k\257\275\360\330\"=\320\235Z\276\246\304\177>\354\365\247=0I\307<\204k\310=jF\025>A\261\231>H\312=\276\215(\212>\362\005\203\276v\037]>\342\223:\276`{X<f3j>\210\037P=\000\205\024>\017\322\206>rHl>\370+\264=X\333R\275\215\353\020\276\"\373\030>\340\037\234\274e\035\213>\260\273\343<\374\r\363=\300\327\242=\220\357T\275\2008\320=\006Uw>2\240c\276\304\n4>\350a\007=d\010\210=\356<\362\275R\"j>7\214\205>\0147=>\300\325D\275\312\204<\276r0\031>\000j\303:\200\035\260\275H.F=\323\031\232>:\302f>8\336H=\264J\307=i\211\222\276P\321}=\262\312v>l\210\325\275h\264\034\276\310v-\276\274\246\334=\002f^>Z\215\222\276\362m\034>\336|\201\276?{\213\276\332\023Z\276\240\364\247=\016\025\202\276R\030B>\200\305t\273@\327z\276\\%\330\275\205\004\232>H\346\014\275SA\224>\373p\212>L\341\005>\"\255\001>\270\'\342\275\206 C\276\000|\244\273\346\254S\276\002Dl\276H\340C\275,\2726>\317;\202>\311\'\221>M_\221>\204\207\313\275\262Z\206\276\202\377I>\036k4>J^->\304\216\344=\020b\223=\331-\035\276\314\274\202\275\200\205\350<\031\376\221>t^v\275\314o\310\275]\231\203>8a%=\021\303\217\276T\347\007\276\360i\024>\026\312\003\276\324\264q\276m\202\227\276|\360\207\276v\2174\276I5\021\276\2765~>\3325v>\221*&\276RE;>\324dt\276$\214\364=,\370\203=\274\025y\276AB\201>&\036\017\276\375]\213\276_\214\210>\320P\311=([?>}\341z\276\204\327U\276\300\216\314<\326\304\010\276\020\3163=l\'\241=@\343\201\276$\342\227\276K\347\210>\334\2451\276\222\037`\276@\367;>h\214z\276\000\024n\272c\343\204>\320B\220\274\372\030\005\276\324 \221\276\\\032\345=\350\231\223=\237\177\223\276\000\204\254=\260\270\327<\020\025\024\275\006\307\203\276\270\341\240\275`\333U<\216\304-\276\230\026\306=Z5#>\004\307\365= 6\333=\023\251\200\276\214\245\211\276\216b\347\275I!\217\276\017\213\230>\200.~\2734\326\351\275\266>H>h\032(\275@\275o\276\236\243\n>$J \276\021\305\211>\352Y^\276\316\353\203\275\221\217\201\276tH\320=\227P\231>D>2>p\270\304<\022Z\266\275DU\215=y\312\225>\200\312Z=\371#\037\276\320\304\251<\034\017\235=\312\022Y>\373\313\032\276\260 