node {
  name: "actor/InputData/X"
  op: "Placeholder"
  attr {
    key: "dtype"
    value {
      type: DT_FLOAT
    }
  }
  attr {
    key: "shape"
    value {
      shape {
        dim {
          size: -1
        }
        dim {
          size: 6
        }
        dim {
          size: 8
        }
      }
    }
  }
}
node {
  name: "actor/strided_slice/stack"
  op: "Const"
  attr {
    key: "dtype"
    value {
      type: DT_INT32
    }
  }
  attr {
    key: "value"
    value {
      tensor {
        dtype: DT_INT32
        tensor_shape {
          dim {
            size: 3
          }
        }
        tensor_content: "\000\000\000\000\000\000\000\000\377\377\377\377"
      }
    }
  }
}
node {
  name: "actor/strided_slice/stack_1"
  op: "Const"
  attr {
    key: "dtype"
    value {
      type: DT_INT32
    }
  }
  attr {
    key: "value"
    value {
      tensor {
        dtype: DT_INT32
        tensor_shape {
          dim {
            size: 3
          }
        }
        tensor_content: "\000\000\000\000\001\000\000\000\000\000\000\000"
      }
    }
  }
}
node {
  name: "actor/strided_slice/stack_2"
  op: "Const"
  attr {
    key: "dtype"
    value {
      type: DT_INT32
    }
  }
  attr {
    key: "value"
    value {
      tensor {
        dtype: DT_INT32
        tensor_shape {
          dim {
            size: 3
          }
        }
        tensor_content: "\001\000\000\000\001\000\000\000\001\000\000\000"
      }
    }
  }
}
node {
  name: "actor/strided_slice"
  op: "StridedSlice"
  input: "actor/InputData/X"
  input: "actor/strided_slice/stack"
  input: "actor/strided_slice/stack_1"
  input: "actor/strided_slice/stack_2"
  attr {
    key: "Index"
    value {
      type: DT_INT32
    }
  }
  attr {
    key: "T"
    value {
      type: DT_FLOAT
    }
  }
  attr {
    key: "begin_mask"
    value {
      i: 1
    }
  }
  attr {
    key: "ellipsis_mask"
    value {
      i: 0
    }
  }
  attr {
    key: "end_mask"
    value {
      i: 1
    }
  }
  attr {
    key: "new_axis_mask"
    value {
      i: 0
    }
  }
  attr {
    key: "shrink_axis_mask"
    value {
      i: 4
    }
  }
}
node {
  name: "actor/FullyConnected/W"
  op: "Const"
  attr {
    key: "dtype"
    value {
      type: DT_FLOAT
    }
  }
  attr {
    key: "value"
    value {
      tensor {
        dtype: DT_FLOAT
        tensor_shape {
          dim {
            size: 1
          }
          dim {
            size: 128
          }
        }
        tensor_content: "\340d\270\276\035\205\031\273}\016\032\277\210U\333\276ajC\273q\212\024;O\017d\274\264\023~\276\030\326U\276\204\324\260\274(S\254\276\221i\002\277ms\273\274\363\335Y\274\177~\006\277&\330\023\275\320\017s\276\366a\203\274\\\326\320\276\370\231\312\273\033\316\310\274\214\034\177\274g&\201\276\336k\322\274\211\357\343\276\025\264W\273~\202\227\276\377#\r\273\307\264\253\274\342\307\336\276\236%\224\274\370oy\273\021V\272:\351\032\t\277\207\341\272\274\234(\275\276\275\306\020\277\226_\335\276k\017\361\276\313I\374\273\316\226k\274\313\202\362\276l\265(;\005\220\220;X\\K\273\251\213\237\274\320\200n\2762\376\270\274\023\212\360\276:n\321\276\225\245\310\274z\025\235\276\220|\267\276\307dS\274\362H<\274\327\351\215\273O\340\320\276\027L\236\273\000x\277\276m\035\230\272\022#\300\274X \025\277\264M\370\274\025a\267\276)z\270\276=y|\2745,\014\277FF\205\276v\232\245\276K\323\217\274\022\002\020\277\013l\367\273\367\250.;\315\331\244\274\302\316O\274\224\214\255\276\266y\205\273I\224\370\276j1\311\272#\374s\273\363P}\271\262\205\303\274k~t\276\357e\342\2768\036\337\274\256\372J\274\'\200\000\277\303Ur\274-\256\343\276\0246\243\272L\250\353\274\033>\025\277\322\245\260\274\376R\230\270\246d\337\273\204\247\231\276\257\244\211\274\333pR\273V@,;\347- \277W\314\033\275\273\270\242\276\207\365J;\005\037\301\274\271\303\255\274\336\217\t\277ec\'\272\003\370\377\272$\023\016\277T(\323\274\037/\331\276\215\235\025\274\377-\235\2760\305\264\273\351\333\357\274B\204\207\273\371O\277\276\327c\020\277\026\304\354\276\363\202\247\276@\313\035\277\364\023\275\273\271\002\265\276\031\307\346\274IA\375\274\323\016f\276\246\020\354\273\'\357\256\274"
      }
    }
  }
}
node {
  name: "actor/FullyConnected/W/read"
  op: "Identity"
  input: "actor/FullyConnected/W"
  attr {
    key: "T"
    value {
      type: DT_FLOAT
    }
  }
  attr {
    key: "_class"
    value {
      list {
        s: "loc:@actor/FullyConnected/W"
      }
    }
  }
}
node {
  name: "actor/FullyConnected/b"
  op: "Const"
  attr {
    key: "dtype"
    value {
      type: DT_FLOAT
    }
  }
  attr {
    key: "value"
    value {
      tensor {
        dtype: DT_FLOAT
        tensor_shape {
          dim {
            size: 128
          }
        }
        tensor_content: "\023\222J=\000\000\000\000\377\212+=}\303}>\000\000\000\000M\363\"\273\000\000\000\000\371\255#>Qz\257=\000\000\000\000\336\236\277<v\336\017=\000\000\000\000\000\000\000\000\230\000\246>\000\000\000\000\243\301\033>\000\000\000\000\274\274L=\000\000\000\000\000\000\000\000\000\000\000\000\254\277&>\000\000\000\000Fv\375<\000\000\000\000\243\321G>\000\000\000\000\000\000\000\000\007\340r>\000\000\000\000\000\000\000\000\216\210\277\272\267\211\261>\000\000\000\000(\374/=\344u!=}\010\364<z\245\005=\000\000\000\000\000\000\000\000\356L\005=\035E5\273\220\263\230\273\000\000\000\000\000\000\000\000v\335\030>\000\000\000\000\254B\005=v\346g=\000\000\000\000\200Q\257</`\034=\000\000\000\000\000\000\000\000\000\000\000\000@\272+=\000\000\000\000\226\376\323<\000\000\000\000\000\000\000\000\253\320%=\000\000\000\000\321X\007=\261Q\036=\000\000\000\000w\013\267>)\230\016>\204\030W>\000\000\000\000\343a =\000\000\000\000\275 @\273\000\000\000\000\000\000\000\000t!\267=\000\000\000\000\273+\t=\000\000\000\000\000\000\000\000\000\000\000\000\000\000\000\000\355k\305=pw\213>\000\000\000\000\000\000\000\000M\321\245>\000\000\000\000\323\257\225=\000\000\000\000\000\000\000\000|l$=\000\000\000\000\000\000\000\000\000\000\000\000\304\324F>\000\000\000\000\000\000\000\000I\3417\273\304\2551=\000\000\000\000\2323\262<\030\210L\273\000\000\000\000\000\000\000\000\317\002\031=\000\000\000\000\000\000\000\000X\303\035=\000\000\000\000\343\314|>\000\000\000\000\331\3133>\000\000\000\000\000\000\000\000\000\000\000\000\235\234D=8-!=\230*\003=\n\250\007=G\0130=\000\000\000\000\313\320l>\000\000\000\000\000\000\000\000\243!\023>\000\000\000\000\000\000\000\000"
      }
    }
  }
}
node {
  name: "actor/FullyConnected/b/read"
  op: "Identity"
  input: "actor/FullyConnected/b"
  attr {
    key: "T"
    value {
      type: DT_FLOAT
    }
  }
  attr {
    key: "_class"
    value {
      list {
        s: "loc:@actor/FullyConnected/b"
      }
    }
  }
}
node {
  name: "actor/FullyConnected/MatMul"
  op: "MatMul"
  input: "actor/strided_slice"
  input: "actor/FullyConnected/W/read"
  attr {
    key: "T"
    value {
      type: DT_FLOAT
    }
  }
  attr {
    key: "transpose_a"
    value {
      b: false
    }
  }
  attr {
    key: "transpose_b"
    value {
      b: false
    }
  }
}
node {
  name: "actor/FullyConnected/BiasAdd"
  op: "BiasAdd"
  input: "actor/FullyConnected/MatMul"
  input: "actor/FullyConnected/b/read"
  attr {
    key: "T"
    value {
      type: DT_FLOAT
    }
  }
  attr {
    key: "data_format"
    value {
      s: "NHWC"
    }
  }
}
node {
  name: "actor/FullyConnected/Relu"
  op: "Relu"
  input: "actor/FullyConnected/BiasAdd"
  attr {
    key: "T"
    value {
      type: DT_FLOAT
    }
  }
}
node {
  name: "actor/strided_slice_1/stack"
  op: "Const"
  attr {
    key: "dtype"
    value {
      type: DT_INT32
    }
  }
  attr {
    key: "value"
    value {
      tensor {
        dtype: DT_INT32
        tensor_shape {
          dim {
            size: 3
          }
        }
        tensor_content: "\000\000\000\000\001\000\000\000\377\377\377\377"
      }
    }
  }
}
node {
  name: "actor/strided_slice_1/stack_1"
  op: "Const"
  attr {
    key: "dtype"
    value {
      type: DT_INT32
    }
  }
  attr {
    key: "value"
    value {
      tensor {
        dtype: DT_INT32
        tensor_shape {
          dim {
            size: 3
          }
        }
        tensor_content: "\000\000\000\000\002\000\000\000\000\000\000\000"
      }
    }
  }
}
node {
  name: "actor/strided_slice_1/stack_2"
  op: "Const"
  attr {
    key: "dtype"
    value {
      type: DT_INT32
    }
  }
  attr {
    key: "value"
    value {
      tensor {
        dtype: DT_INT32
        tensor_shape {
          dim {
            size: 3
          }
        }
        tensor_content: "\001\000\000\000\001\000\000\000\001\000\000\000"
      }
    }
  }
}
node {
  name: "actor/strided_slice_1"
  op: "StridedSlice"
  input: "actor/InputData/X"
  input: "actor/strided_slice_1/stack"
  input: "actor/strided_slice_1/stack_1"
  input: "actor/strided_slice_1/stack_2"
  attr {
    key: "Index"
    value {
      type: DT_INT32
    }
  }
  attr {
    key: "T"
    value {
      type: DT_FLOAT
    }
  }
  attr {
    key: "begin_mask"
    value {
      i: 1
    }
  }
  attr {
    key: "ellipsis_mask"
    value {
      i: 0
    }
  }
  attr {
    key: "end_mask"
    value {
      i: 1
    }
  }
  attr {
    key: "new_axis_mask"
    value {
      i: 0
    }
  }
  attr {
    key: "shrink_axis_mask"
    value {
      i: 4
    }
  }
}
node {
  name: "actor/FullyConnected_1/W"
  op: "Const"
  attr {
    key: "dtype"
    value {
      type: DT_FLOAT
    }
  }
  attr {
    key: "value"
    value {
      tensor {
        dtype: DT_FLOAT
        tensor_shape {
          dim {
            size: 1
          }
          dim {
            size: 128
          }
        }
        tensor_content: "N\316p\273q\211\207\274K!|\273\325\223\351\273\246\327\304?i\311\177>\346\035\001\275\365\375)>=F\t\274\361\n\321\274-\347\266\274\327\253\003\275^h \275\360k\027\275\"cT\275r\225.>\246\315\337\274\241A\256\274\331\243|\273\226\357\274=\211\255\r?]\2005\274\225v\305\274\275\367\266\274P\254\204>40\026\275\037\200\212\274\213\034M>\317,\303\274\375\305\340> *\214\274\000\255\236\275C@\315?\2052\367\273\004\254\270\272\003~\206\274n\2029\275\276\367\3349\177\264_>\376\251\273>>\261R\274\004k\225\273\000mx\275>\201{\274\237\200\220\2732)\300\270x\204-\274\204\230i\275]1\276\271k<\252\274==\362\273t\214E\274\216\375\311\274x\"0\275\336$\305\274\355}\237\275\205\306\203\274\374\020\263?\nn%\275\216\370,\274\342-\034\275\026\n\216\274\371O\210\271b\026/\275a\241\271\274\027\245\212>\347\375\355>\177\t\233>J\315\370\274\262\025\270=\205W-\274\342\376$\275\003\231n>`k\252>\026\300\035\275,\333x\271\202\203c\273\345y\313\274dd\201\274\242\2330\274_U\305?\275\255)\273\315\325\'\271\326\312\260\274]\304\316\272{\312k\274\331z\030\275\203\177-\275\373\260\"\275FT/;\365G0\275\022\263\211>\201\324\271\274\307\266\010\274\035\266\233\273V;\245\274\234\247\252\273\225_Z\274;\362;\274\215\022\257\273\331c@\274\031\017-\274\333\277-\2748\233q\275\030\256\260\272\304\212\272\274\272H1\275\335\r\366>]\004\213\274J\274\370\274\316\305\021\275`\273g\273[\210\371\274\371\232\247\274f\342\347\274\363.\271>\333\365p\275\005\"\231\274\034P\240\273\310X\272>/&\206>\000\246\t\2757=s=\356\020\363\274\227!\332?&\300M\273\rz\024\274,\200\304?"
      }
    }
  }
}
node {
  name: "actor/FullyConnected_1/W/read"
  op: "Identity"
  input: "actor/FullyConnected_1/W"
  attr {
    key: "T"
    value {
      type: DT_FLOAT
    }
  }
  attr {
    key: "_class"
    value {
      list {
        s: "loc:@actor/FullyConnected_1/W"
      }
    }
  }
}
node {
  name: "actor/FullyConnected_1/b"
  op: "Const"
  attr {
    key: "dtype"
    value {
      type: DT_FLOAT
    }
  }
  attr {
    key: "value"
    value {
      tensor {
        dtype: DT_FLOAT
        tensor_shape {
          dim {
            size: 128
          }
        }
        tensor_content: "\000\000\000\000\000\000\000\000\000\000\000\000\000\000\000\000l\225\257?\370b3?\000\000\000\0002\0238?\000\000\000\000\367rw=\000\000\000\000\000\000\000\000\000\000\000\000\000\000\000\000\306\017o=\254]J?\000\000\000\000v\210r=\000\000\000\0008X\010?\306>\210?\000\000\000\000\000\000\000\000\000\000\000\000\343\234\020?\000\000\000\000\000\000\000\000\177\350#?\000\000\000\000\252\201\'?\000\000\000\000\226.\231>L\275\242?\000\000\000\000\000\000\000\000\000\000\000\0004K\241=\026\214K\273,\025.?\022e^?\000\000\000\000\000\000\000\000\334\212\225=\000\000\000\000\000\000\000\000\000\000\000\000\000\000\000\000\266\251\323=\000\000\000\000\000\000\000\000\000\000\000\000\000\000\000\000<\321P=w>\244=\000\000\000\000S\032\302=\000\000\000\000\037\243\234?h]\266=\000\000\000\000\000\000\000\000\000\000\000\000\000\000\000\00019\301=^\302?=\276\023%?\345\024Z?\2633*?\000\000\000\000\002\363&?\000\000\000\000%\026\262=\336];?\346\344U?\000\000\000\000\000\000\000\000\000\000\000\000\000\000\000\000\000\000\000\000\000\000\000\000/\255\235?\000\000\000\000\000\000\000\000\220\2148=\000\000\000\000\000\000\000\000$\000q<y\240\235=\000\000\000\000c\337\216\274Z-\232=\327\332N?\000\000\000\000\000\000\000\000\000\000\000\000\214\020a=\000\000\000\000\000\000\000\000\000\000\000\000\000\000\000\000\000\000\000\000\000\000\000\000\000\000\000\0002\311\223=\000\000\000\000\360\316\202=\310\320\303=\271\374D?\000\000\000\000\006e\034>\000\000\000\000\000\000\000\000mZl=\3350\n=\000\000\000\000z\032M?X\023}>\000\000\000\000\000\000\000\000yBT?\321\310M?\000\000\000\0006\374\t?\000\000\000\000R[\305?\000\000\000\000\000\000\000\000z1\265?"
      }
    }
  }
}
node {
  name: "actor/FullyConnected_1/b/read"
  op: "Identity"
  input: "actor/FullyConnected_1/b"
  attr {
    key: "T"
    value {
      type: DT_FLOAT
    }
  }
  attr {
    key: "_class"
    value {
      list {
        s: "loc:@actor/FullyConnected_1/b"
      }
    }
  }
}
node {
  name: "actor/FullyConnected_1/MatMul"
  op: "MatMul"
  input: "actor/strided_slice_1"
  input: "actor/FullyConnected_1/W/read"
  attr {
    key: "T"
    value {
      type: DT_FLOAT
    }
  }
  attr {
    key: "transpose_a"
    value {
      b: false
    }
  }
  attr {
    key: "transpose_b"
    value {
      b: false
    }
  }
}
node {
  name: "actor/FullyConnected_1/BiasAdd"
  op: "BiasAdd"
  input: "actor/FullyConnected_1/MatMul"
  input: "actor/FullyConnected_1/b/read"
  attr {
    key: "T"
    value {
      type: DT_FLOAT
    }
  }
  attr {
    key: "data_format"
    value {
      s: "NHWC"
    }
  }
}
node {
  name: "actor/FullyConnected_1/Relu"
  op: "Relu"
  input: "actor/FullyConnected_1/BiasAdd"
  attr {
    key: "T"
    value {
      type: DT_FLOAT
    }
  }
}
node {
  name: "actor/strided_slice_2/stack"
  op: "Const"
  attr {
    key: "dtype"
    value {
      type: DT_INT32
    }
  }
  attr {
    key: "value"
    value {
      tensor {
        dtype: DT_INT32
        tensor_shape {
          dim {
            size: 3
          }
        }
        tensor_content: "\000\000\000\000\002\000\000\000\000\000\000\000"
      }
    }
  }
}
node {
  name: "actor/strided_slice_2/stack_1"
  op: "Const"
  attr {
    key: "dtype"
    value {
      type: DT_INT32
    }
  }
  attr {
    key: "value"
    value {
      tensor {
        dtype: DT_INT32
        tensor_shape {
          dim {
            size: 3
          }
        }
        tensor_content: "\000\000\000\000\003\000\000\000\000\000\000\000"
      }
    }
  }
}
node {
  name: "actor/strided_slice_2/stack_2"
  op: "Const"
  attr {
    key: "dtype"
    value {
      type: DT_INT32
    }
  }
  attr {
    key: "value"
    value {
      tensor {
        dtype: DT_INT32
        tensor_shape {
          dim {
            size: 3
          }
        }
        tensor_content: "\001\000\000\000\001\000\000\000\001\000\000\000"
      }
    }
  }
}
node {
  name: "actor/strided_slice_2"
  op: "StridedSlice"
  input: "actor/InputData/X"
  input: "actor/strided_slice_2/stack"
  input: "actor/strided_slice_2/stack_1"
  input: "actor/strided_slice_2/stack_2"
  attr {
    key: "Index"
    value {
      type: DT_INT32
    }
  }
  attr {
    key: "T"
    value {
      type: DT_FLOAT
    }
  }
  attr {
    key: "begin_mask"
    value {
      i: 5
    }
  }
  attr {
    key: "ellipsis_mask"
    value {
      i: 0
    }
  }
  attr {
    key: "end_mask"
    value {
      i: 5
    }
  }
  attr {
    key: "new_axis_mask"
    value {
      i: 0
    }
  }
  attr {
    key: "shrink_axis_mask"
    value {
      i: 0
    }
  }
}
node {
  name: "actor/Conv1D/W"
  op: "Const"
  attr {
    key: "dtype"
    value {
      type: DT_FLOAT
    }
  }
  attr {
    key: "value"
    value {
      tensor {
        dtype: DT_FLOAT
        tensor_shape {
          dim {
            size: 4
          }
          dim {
            size: 1
          }
          dim {
            size: 8
          }
          dim {
            size: 128
          }
        }
        tensor_content: "\"\260\225\276\361\226G\276&\236\226\275\305u\203>\316\215p>\230\234\306=mT4\276>\260*>\245\241\203>\266Ws>8\215\212=;\272\206>8\206\231\276`\n\251\275h\013\372=\000y\342\272\026\310\231\275@\356\377;4\347E>\202\t\014\276\214\320W\276\036\301M>p\251L\276u\373\216>\224\201->$\306g\275L\324\362=\202\014\365\275|B\357=d\2550\276\273\320\203> \030y\276\320\260\257=\350\020f\275\320\305\250<\332\257H>xFI=\332\344\014\276\334\027n\276\340\361+=\344\362\007>\031#\222>/\336\215\276\000\242\366\272\032\350\000>x\260\355\275\310\024\333\275\271wc\276P\351\222<X\362\264=\006\\\004>`n_<\244S\256\275\322\022U>~TF\276r\363y>D\215x\276\016\007\204\275\204\252\337=0\261 \275\205rP\276Hs2\275W-\203>\360\\\375\274ts\224\276@{\376<\276\367F>\0218\211\276\352_\177>\260\320{=\200\223\334;\332\351P>\212U\352\275\006\2347>\000`p=\350\252&=7\203\204\276K\315\004\276!\277\203>\t\3505\276\"Ew>\020Y\031\275n9\247\275\000q\316;l\014\205\275\304\324i\276\3608v=fFI\2760\2169>\302\255%\2764\231\033\276\320\266,\275\014C\241=i\310\221>\212.p>z4\205\276@u\376<ZAi>\241\315P\276h\274\351=D\304F\276a\005\201>D\307\204\276g\024\034\276D\274\n>2A\016\276\200\251\034\273R\345o>\240\\[=\344!\257\275J\020\003>\232\020d>\200_\027\274t\347>\276\256\375\265\275\340\215S<\320\357\213\274`P^=\224y\034\276pZ[\276\357_\022\276\303S\233>b\220\237\275\316\032K\276\200\177T\275Hk\270=P\340\343<\000\t\333=fG\024\276\270*\217\275\346q\014\276\360\343\263<H\232T\275NN%\2760\005\352<\007@\220>O\263#\276Y\035\227\276\276\2406>\206vK>\224\032\256=`\261\300\274\004\312\347=\334\355$>\326\026\007>\2360\334\275\036\260\030>h\376\333=\333\335\213>@v\273\274\300\024\034<\020\334\322=&\2269>V9\227\276xT\375=\372\331J>\200\356\365<>X\030>\310\316\277\275\2017\226>\210\263e=@%\007<\350\326\026\276\272{\r\276\346\231c\276\244_\371=\000\025\247\274\020\302`=\245\362\000\276\241n\231>@\346D\276|\t\317=H\2425\276 \341\333\275\332~T>t\301\253=\300Q \275\030\263i=@B\031=R#X>\202\227\312\275`\2103<\301\376\207>\320\361\341<\335\025\201>\\\253\r>V\3329>\247\306\206\276\031jL\276\263^\202\276\267\320\217>#\246b\276ti\272=\"\253}\276\"\320\310\275F\310j>\2307B>V,n>\312\ru\276\370\231,=\210\313\270=[\036\"\276w@d\276\3653\222>@\377\372\275\240\347\216\275\270\377O\276\026O[>\270\343\205\276D\275\207=\310\2363>K\322\223>\212\233M>\340y7=\276\206\020>f\236c>\242\343n>\344\000\225\276\314\274\033\276\377\250\214>\036\311{\276\n\004\177>#\303/\276\200q\017;\0318&\276[\350\216>\260\276\244\274\300\204\367\273,\2645>\0004\'\275\205\331.\276\025\201P\276\200\330\220<\335\336\225>\344\035)>8\340\000\276\270\232\306=\212\214\362\275\2267\037> \275\331\275\210\263\264=\0005\361:~l\"\276\255\330\227>\220\337\200=97\202\276\240~\222\274\204R%>i[\227>\272,\211\276:\347{>t\314B>\340!A\275\200\207\t=p\361=\275\272af>\354 \314=q`I\276\026\253\017>\024\335\344=\2409\000<:\327\276\2756\300S>\200\001\372< \242|\274\260\035\010=\000\034\002:\264|\347=\320]#=\262\215?\276_t\221>$~\202\2762\016\037>\342\356\225\276\350\377-\275\340\227\226=\362\367.>`0B>~\267\340\275\177\215\220\276\375\321\202>\250N|\276lS\030>u,\224>W=\202>\036\203\232\276\300\242\024=\310aR\275\250K\036=\24690>\210Ac\275x\022r\276,Q\270=\356F&\276\016\212Q>\302\037~>\272\276\201\276\300\374\004\276sT\215\276\302\003\210\276\256~\206\276\366G\236\275\214O\321\275W\240\227>\340\027\315\274\235\246\217\276\200\2558\273\360\336\212=\232<6> \221\315\274\363\\\224>\320\312\376\275|K\200\275\256\177#>\000\2666>\336\tt>\246\222/>zdA>\030\247\365\275h\211y=\300A\005\275\274R\322\275R\027w\276K\316\216\276\210I;> U\007=\242\326j>\277\217\000\276\030\262\036=\310\235\306=\215Z#\276\236\260\"\276\226S\327\275\322\340\347\275NS\026>\331U\216>\340\242\337\274\200l+<@i\336=\255a\221>\033\266\030\276jFL>\214\2769\276\362\022\203\275Y\243\016\276\270\024\000>\214\206\237\275\000\323\271\273\373u\026\276\3746\233\276 \2433>.\033\212\276\306\353`\276*\3519\276\333\335i\276\354\002\205\2760\207\342<\334A\277=@\256\211=`]R\276\376K@>\305}\007\276\241\311\213\276\370\004\035=\246ZN>\263S\006\276pI\307\275\360\225\024\276\372~J>\207p \276\230N\253=\356\226\214\276\n\364\225\276\206f\231\275nY\030>\230\316\002\275\260\352\005=\230\216N\275\310\304\020>\316L\025>\234\016A\2769`\030\276\200\035\236\274\330 \t\276\376\316\222\276\372\205\316\275\260\324,\275N\272\177>\307\035F\276\020\t\255\274y\307\226>\272\230x> |\371\274@=\353;\252\303\027>nb.>\342\227u>\326\337\350\275\030\005\265\275\240d\234\274h\247<\276\024y\240=\266\320\214\276\320f`=\242\277\317\275\340\260\265\274\220v\346<\251y\206>z\333@\276\206k\037\276\230\351\005\275~\351T\276Z\266\257\275\200d\317\275\007\3467\276\000\362\360<\3505\253\275H\262\300=*\272_\276!\374\222>d\364\215\276\237J\225>\346G~>\242_o>v\337N>\014/\324=\262vs>\000\007\017\274\374\020\221\275m`\211\276\304\352\307=E|\n\276\257\347\206\276\340\033\305\275\325\216!\276\256\020f\276\256\264q\276\230\022v=\240\324\251<\234\241\022>\263\001\037\276\037\202\223\276zIb\276\260\276h\275\022(U\276\273\347\206>\340\032(\276\206o\006>`G\327\274\014s\346\275X6\214\276\233\247=\276(\034\312\275`\314\331<m\010\221>kI\201>\tR\205>T\206\206=,\004\001>\270\373\003=x\'4\275`@C\275j\340\020>\351\342(\276Z\356\032\276\254j1>l\262\037>Y\303\226\276\220\213]=\nCe>\332g2>\332\245\305\275\370\377-\275\313\325>\276\204\237\200\276\345m\211>`\250\235<\310\365\270=\316\307~>\217\347\217>\020\333\264<\022\007,>\0374b\276e\016\213>fG\221\276\210\252\005>\034\247\363\275\"\210o>|\204\355=\233[\225>\355z\205>\340U\306=\230\340\222=\364\265D>3#\213>\267\021\227>`\366\006<2a\200\276\247\232\222>`\315z\276\260\203\014\275\344\2245>\360\321\340=|\226\264=d\270\303\275\254D\301=\202M\275\275B\004e>+j\215\276\240\327F\275\250\273\026>\300\240\362=f\367\223\276T}F\276\000\211\312=,\266\267=\200\033\226\273_H\217>\252NK>\230Q\006>\216\316\204\276\260\334\376\275\300\223H\275p\205\360\274\024\\\216=@\272d\276\200W\353\274H\201^\276\250\234\274=m\333\036\276\250:\022>B\201\017>L\213\325\275\000\323\264;\030\020M=X\310\027=Z\256J>\306\005\035\276\004\014\371=\230\326\004\2762\013p\276\320\2318>\276_|\276\300\343\234;\220\301\023\275\3124\031>*\342u\276&\231U>\3363v>N\237C>\362,\210\275\221\275%\276c\364\233\276UR\"\276\003\256\201\276\365c=\276\312KR>\304\037\217\276\300\026\325;\250\023C=\246j\374\275\326\007*>x\030r=`\324\346=v\364G\276\000\264\201\273D\326\200\276\367^\226>`N#\274\363\353O\276\200\303\376\273\354\027\255\2759\003\216\276~y\n>\352\247V>\037\001\025\276f\2106>E\260\003\2768fq\276\0002\344=\324R\275=\302\241\213\276HE\275=\tW\232>\215\r\224\276`\272\302\275!\236\203>\373d\215\276\262\232}>VV\202\276Xc\316\275\220\017s=\017H\221\276l\004t\276\3600\247=`\315\027\275\310\255P=\312\207l\276@\201\335<\237\301\211>@\324\351=\007\333\200>jlz>\000\267\201;X\267\311\275\220\030\177=\2224\205\275\016#6\276^\207Q>\210z&=\363\230\222>\254n\034>\216\'\364\275X\204\317=\220\223v\276\265M\211>\305\362\202\276\23049\276`\225\371=@\255\003<v*X>x\"\316\275\010\035\014>\210\031\021\275\352,\312\275\006\370<>\265(J\276\200\007\316\274\017\375\204\276xu*> \026{=\2003\302=\"\345\225\276\026\004^\276\020\231\351<d\363\373=A\212\202>\001j\221>\330<[\275\025\343R\276\274\004=>\350\354@\2750\312G\275\031\270\213>X\333j=\330W>=\306\362\372\275\020 \260\275\276\021\024\276\276\207\204\276\330\223\006\275d\342R\276M\304\210>\343x\223>\224\325\344=\220I\277\274V\0353>\270\2046=\272\215U>z$\034>\034\245D>6\306\006\276p\247X\276\003&\213\276#\306\213\276\224\330\215\276\2203_\275@\340\261=@TE\276\204\273B>\304\323\216\275\246\332y\2762j\332\275\364^\211\276P-4>\240\354D<\340A\236\275\222\240\'>|\304&>\034$\316=\226\233\026>\256\000\264\275\370\2327=H9\335=l\237\201\276\232\366\206\276r\317\304\275\207\033\215\276\200C\036\276\312~;\276\244\351\030\276\000OF\273V\353\332\275\310a\222=\276C\024>(\343?\2750\024\025=~\231D>p\202\376\274\204W\355\275\360\243\223<c\242\204>\026:\250\275\3520f>r\243\224\275\340\271\255<O\240\233>P\347\022\275R`\205\276\202\002x>\177\003}\276g\033\200>\230Y.\275F\342x\276&\014O>\363q\017\276\374V\322=\247c\212\276`\206\010\276\375\031\202>\\\177\254=\000\321\310\274 \336\">\302\225w\276u\356\002\276\022~U>\334\365\240=\325\216\222>\210\177\017>\000\207R\273\204\256\322=\302\354l\276\330\321\202\275\204\352\207\276\256h\'>\350E\331=u:{\276LS\350=&\262?\276\320$\234\276\337D>\276\350\340\200\276\220\350%>\200\027-;\326~D\276\221\266\231\276\032\"\020>\252\233\213\276\216\203\000>0\255\232\275\243\025\230>\020\342\201\275\222R\321\275\000\324[\273\266\236f>n^\363\275\334.4\276\301\204\233\276w\333 \276`\232\314<\026\204\372\275H\311\202\276\325\316\212>pF\006\276\364\206\251\275\000\346\323:\274\317\267=*\266\020>R\027[>\220:=>\'\360\217\276\237\215.\276\370J$>\207\332\210>\316\001u>\200\032\314<\276pV>\342\302\233\276\016\230\031\276].\202\276DQ\305= \251\226=vl\210\276\350\031\001\275\252\253K>h8\220\276R\024u>\234\310\257\275\n\365\367\275\210q]=\214\226\306\275\\c\362=\340\223\001<\017]:\276\320N\314=\2208\202=PP\217=\240r!\275F\271E\276t?\270=\336\360]>\232@h\276\330\250\272=b\031&>&\337\325\275Lh3\276\364\367\350=Q\177\030\276,\352\341=\350K1\275\270\250\025\276\223\006\021\276\222\226J\276\272\242`>,\343\030\276\336\311\201\276H\371\242\275e\243\204>\260\352\361=\246\3649>\250OY=(r\247=\230\250\016\276\236\2728\276\233R\023\276\033\316\202>\272\357s>P\267\260\274\216\273\360\275\256\004$>\334\356\304=\220-\266\275\022\367%\276\270\353\221\275\247b\026\2768\031O\276\332j\000\276p%\253\274`A@=\250\345\315\275\256CE>\347\361\206\276\311;J\276\246t\\\2769n\212>H\273d=\300\314\034<gE2\276\232!:\276\260\314\343\274\"\250\212\275xd\023\275pB\342\275_ \224\276p\200\250=\006\004\\>1\327)\276\000T\332\274\236\265~>\216\312n>@I\337=\200\311\030;d\371\203\276h\277\227\276)\260\205>\360\317\372\275\322=\262\275`Uf\274\262\037\032>\3308_=Ho/\276\316XG\276\226\211\205\276<\257\224\275\226S\014\276\364\242\201\276\000@\2738\366\022p>|\345\264\275\205\302\010\276@\305\245<x\372\'\275d\353\223\276\0260<>P3b\275\274M\356=\020FH\276\025\224\230\276T\273\220\275\266\353i>\210s`=\350X+>\014 \230\276X\363\204\2763\320\200\276\314\237\003>Kp)\276b\274\001>\000\340\025\271P\277\316\275\220\237D=@\224\273\274\254\016\200\275\344\376\336\275\350\222=\275\204\366p\276\200\326\316; \336g\274h\214?=0\tV=|}\202=\350\201E\275\276\237`>*I\211\275\241Qy\276p\265\263\275Q\010\231>&N\033>\270U\326=\020\255\241=(\026\213\276\365\351\203\276\020|N\275@\226\306=\325\325\213>\246\337\n>\020\274Q=\356f!>\236xi>QR\220>\336\342\201\276;3\226\276\000\355\371:!:\225>($\277\275\262\304\017\276\000\346\270\273T\007\256=\010\250\227\275`\272\342\274\000\242\250\275^\363\273\275\261T,\276U\325\220>X\266\007=\340\3379=@\000\223\274d\274\023>\360\351w\276\230$B\275\236\250Y>4\014\375=\254\262E\276\33144\276v\257<>\004\367)>B\223v\276\005s\217\276$E\205=h?r=\361g\227\276\344\246\024\276\000\210\232<\320v6\276\240\023\354\274|\231C\2766\321T\2760\244\367<\362\371\030\276\372\246q>(\306T=\352\031v><!\272\275\264\264\211\276\214L\317=\341\236\207>\276kv>LG\212=\340&b\274\212\t*\276\232\203\001>JT\204\275\332\372\223\2766~\232\276 \245p\275\254\362\360\275+r\024\276M\177\003\276\300W\003=Pg\004\276_\371-\276\374\3508>H\317\035=\003\000\002\276\222;\004>\360/\310<K}\034\276DPk\276P\313\274\274\3022;\276\212xW>\352\231Y>|\271\305\275\264P\312\275\2661\033\276\353\307\225>\327\332\233>\200N\300\275h\232H\275\200p\023=\355,{\276N\301R\276j\326\324\275\202 2\276\266\204\212\276x\202\021\275\322\016\025>LAi\276\336\264$>\364k\030\276\000&\343\274\224\237l\275L-)>\372\361Z>\215-\334=\302P9\274\366W\256>\320\352^\276\310\366{\274\222\327\360=\th^\277d\257\037\275\005\010\177\275\202f\200<\n\342\244\276\312z\217=\344\206\325\275\325F-\2763\220f\275\237\351\177=\240\024\207>>\"\324>\332\252$>\227\330\224\277Nz\230\276$t\334=i\177n<9\251\237\276\201\312\214\2770\303\033\276\233\213x>\255\337\366=V\334h\277\224\211\336\276\211hJ\276\330\220\234\275\243\233\207\276\026\375K\275\304\374)>|\354\303\275)I\227\276^\032\014=O\202\234>\212\211\300\275\023\346g?2\026?\276x\370\267\277A\'\266\275\3112\205<\321\376\221\277\"\270\201?\031\246\004\277RpP?\205\017\360\2767\262\202\276\313\300\203\276\324\351R?\026d\252\275\260!\024\276\307\206I\2773i2>h\253f\276|\333\366=o,\224>\243m\273\277\257\nA>y\306\311\276\342\222\037?\256\301\201\277\r\354\353\275\234o\243=\261\301#>\277\347u\276\273\305E>\274\360\216\277vL\224\276:i\325\275\235^$\275\000r\017\276\\L\026?\374\024f>\271\300-\277\214\336\031\277\260.\360\276p\222\001>\025\264\327>xE?\276\026L\276=\372\216\205>\'\026\240=!\200-\277\326\037\310?l\267\345=<0\313\275!\010\036\276x\022\r?\001\013\256?W7\222>\254\363S\276\222#\320\275&H\306=ia\362\275\313\207\226>[\341S\276<8\376=\010\244D>\024\036\210?[~\r>\307\251$<\376\253\t\274\\k\220>\237P\020>i\320L\275`\340\376=\303\251\204<\341\017\177\275\215\333\233?\206QO\276\242\327\007?\376D\272?y \371>#b2\276cr\264=ff\214\277\373\231\377=\250C\312\275\n\332Q?wq\005\276\327\357\265\274fJ\314=.\232\222>@jW>mkO>y\274J\276\316g\n\276\353\"\202=%\252i\275\010\224\235\276\253\025\037\277\217\316,\276<<\365=\010?$>K\006w>\\\353{\275\250\r\257=* l=\016\360\315\276\205\010\250\275=\013\245\275\262\362a?\031\331\270<4_b\276\260\343!\276\007m\343\275\207 \306>\315\265 =\313\351\274\276\202\223j=@_\224;p\320\203\275\233J\367=\227\236<>\2468\227\2760);\275&\320\r\275\236\304\267>`\022\312>\341a]>\367\201]\276\024\323\307=\315\274\270>k\024\205\276owQ?\222_\007\277$\3706\277\256\235\204=\231\337\367\275\217\316G\277R[\363>\210\333T\277\301\000o?\365\033\017\276\r;\305\276\323\245\234\276B\372\001?\233\315d>\031 \027\2765\365\234\277\350\331\263\2720\322\206\276\223\217\304=\013\n\331>\251|\304\276\277&Z=#\271\217;\207\241B?\365,M\277\037\255\253\276\021\200-\275cE\302\274\026\213j\276\002I\252\273G\322J\277P\374\211\276\3136\231\275\0305\372\274K@\317=\223I\205?\373\375\300\275\367b=\276\340EV\277\313\321 \275/\247\005\277^>x>\312(\237<%f>>h\224\372>\236\274w\275j\244|\277[\214\200?\310\t4\275\377~\210=\302\333\027\276K\264\'?\017\252\205?Mt\013\276\207\226\366\276m\030C>\352\315\376=\270\253\265\276$\230\257>)\367\'\277\023\321c=\226\301\321=31s?\327@m>U\351\367>\260\302\024>>\364\216>\232\263\237\276!\255\342=\274\224l\276`\321\220<\rM\343\276\265\004r?\214r\006\276\247\345\020?.\001\273?\346:\036? {\364=\002\274x\276\342\266\216\277\034 \230=\257\230\261\276;\327]?\230Wx>D\026\273<qn\263\275\312V!;\331\377\317>\206\364r=Y18>vP\263\275\300\007\013>\321\233\347=\366\211\345=\366\322\336\276i\004\217>1\2559>P\026\311\276\306\324\206=#)\313>\215/\260<\370\t.>\273\255\233\276\354;\360<\241^\025=\203\276,?\277\000\220>\246b\000?\276 \355\275j\373\002\275]V!\275\2065\353\275mH<\276<>T>\205Y\016;\215\266t\276\236\264\212=\373T5\276\266\312\242>\233@t=\025=r\275\026\374=<\341\357\350<|\234\251=\250\371k=\322\024\202\276\333\263\235>pHd>\341\024\207?\246\360\234\273\314\031Z\275g>\275\276G=u>\231\307k\276\"\030\013?\0015\216=\322\002!?7\301\232\276P\301C>\331\340\010\2767\362D?\272:+\2761\301t\276\036%\035\277n\n/>>\024\257=^\244)=\214I\241>\256Xg\276\031H\'\276\301gI>\212m\313>\035\274\233\276D\0334>\257\207o\275\324k/\276\352\261\273\276\204\353\221=?\362:\276\261\006\250>\254\\4>\204q\212>\235\325$\276}\013\037?^\216\004\276-\353;<:\332c\277\351\227\244\275C\263i\277\304\306t>\365\370\253=\tq\306\275\263\371*?L\031\304<A\336\245;\365\032\223?\320\254\343\275\267\231\353>\353\020T=bR\323>\240\275\212?\031\243\002?\277\317C\276\033\240x=\2349P\276\201\204\217>d_s>\373\256\264\276\004\215\241>\343V(>?\315\210?\215\317\271<WG\333>\230D!\276\274,\276>Q\306:=\253;a\276q !>=5\r?\001L\210;\212\tO?\220\333\317=\025\366\013?\007N\264?\306\200\247>\233\346\025>\351\276\216=\271\204\010\274$\232x\276G\242\305\276l6W?j\217\254\2756\361k>#\177\025\276\376U\004?pAS>\312\th\276\241C\250\274\3051\273\275g?\321\274\027\013\251\276\213B\363=N\325><\026PX>\024\277\321>\331$r\276\222p\244\273n#\312>\365\017.\276\353C\215\276\240n\317\274\210\202\r\276\276\373\216<\3272\313>N[*\276\202q\362>\260\343Z>\000V\202\276\272\242T\276\256}\212>w1\010\274E\257\230\275{\022>\276\031W\250\276^\317\262=\031\274b\275QK\272\275\033\311^:\"\252\364\275r\214\217\275\3609\242>S\036\222\276\001\244,>\231\343\254=\251Z\r?\007\244\227=\254MD?\260^\003\276\tL\242\275\221\313\342\276\337t\212>\"\300\020\277\374\n;?/U\026\277i\232\t?O!\034>\217\347\375\275Y\211\322\276v8V?\264\236&\273\324\r\240>u\2375\277 \255\210\276\347\270\344=\2353\241\276\207\340\007?\024YQ>\362Y\241\276,\3464<Sf\356>\177e.\276\203\3015>u\244\271>\263\372\207\275\333\027\353;#B\272>\362PS\276\221\356\001>\003*\306\275dH\243>r\3065>\016\265V?|\"\312=\260\362N;v/\266\276[\274\307>\020\tl\277\n\223\307>\367\372\326>\314<5\275\217\3277?\305\245,>\315\227\005\277?\021\277?\276t\352\275\313\244\021>\033cz\274\207\206\236>\332\r\260?\376\233\017>\317\352\266\274\312\350\032>\360\033\t\275\264\006 \276\271\225|=\273\223\224>a\342\233\271\213\016\277\275E)\211?xm\363\275\264\353\343>\273\022\310\275^\n\224>K4\303\275s\336\334<\376wq\2750K\036?\267\242$=\242\371\222?\007@\206\275\002h\326>\311\035\303?\240\2512?SC!\274\237i\202>%\300\330\276\302\326R>v1\002=m\234;?\354\000l>\225\002{\2764\\O\276!\267\244>~\340\206>#\324\252=fS\037\276\224\327C=\217\355\222\276\263\264K\276\260\337\302\276o\354\326>R\256\235\276\"\332\006?8\314\235\276J\033Y\276]\203\256>M\331t\275O\311\235\2742\331\251>i\003\032=x\'\314\274i%`?S(k\275\272&\'>\3101\221\276\343\214q\275^\245\306\276\014J$\275h\003\335\275\224H,\276\215;\202\276\333\262\003=\345\314y>\216w$>\356Y\034\276\205\020!\276\000i\030<\301\263\000\276\231\342\305>VGJ\274\234z$=\rGd>\331\363\344>\333\231->s\360\212?H\312V\276\337Z\223\276\365$w\277!B\253>\220\263&?\305\327X?\307\320\035\277\027\252\252>.\352$\274\330\231\206\276\017J\324=#fy?\222\216\216\276\314s\312<*=\364\276\3718\246<\222)\367=\007~\027<ev\213>\324\217\203>\246\337\027=\267-\224\275\370q)?\325)\"?5\365\204=\376\323\316<\021\274\177>\365\346\264\276-M8\276\033\206{>\010\221R>\241PE\276\276(\004?\017\341\320\275\303\245\202?\034\272\240\276h\022\354=q.4\277\310\256\t?\315?\262\277H^\003?\357\206\036\276=?\232\275\214,*?\217h\320=\254\346g\2761\t\300?\223\203a>\232/$>\014\010<>\330\036\330>  \202?\261K`>y\2178\276$V\017\276V\234r\276\033\336+=\354\305\032>f\260\200=u\223\237<\022oa\276\370\0134?w\254\213>\322\000h>D\207-\276$\311\021?,\366\216>\334l=>/\321\351\275\357M\317>\370\241\306>\232V\205?+B\207\275r\026\331>\243\023\214?\244\374\027?_\3369\276n\226\225\276\034\265\343\276\356\'_\276]g\255\276\236Z!?\243\003(\276\367\310M>\304\366\021\275\252r\363>\325\036\312>7h\365\275\353\032t\276;\206\377\276\362T\345=!\216q=\277z\002\274\261\341\361>>\312\206\276Xq.?\314\320I>\376V\205\274)\234&? GZ>G\316s>\272\002\316=\014\034\007\276\275\367i=\233Ba?\224\256\231\276\232\313\375<\016P}>\241Zv\276\020.\340\276\220\361h\276\224\035\332>\024\213\006\275e\\\245\276+\370\361\276Z7q>\213\306\261=\222\226\215\276\201`\214=j/\250=Ud\001>\277\023\301>\271Z\206=w\327\374\273\037\367\347\275t\277\201>\336\201\367>\354\374\204?q\370\205>\3547\334>\343\203\340>\222\321\264>\255\263i>\370\214\177?\340\3568\277\374Ih?\024\322\302\276\026\357Z\274\350@\311\275\007\300L?\2620\265\275/\020[\275w\372\214\277r\335<\276\302\235\212>\275\261k\273dvq=\235\267\355>\311\017\313\276\031\0221\275Fpo>g\227\231>]u\344>\027\025\022?\274q\210=\340\221\364\275\232\347;\275\323\371\377>\201\'\336=X\365X\276\000\226\347>\317 \371=S\233f?x*i<\275\n\020>\013\317\221=\371\267\036>i\317k>K\223L?\254Cw>|\304\222\276\221\305=?\236\211\223;\325\024\346\276B\351\306?\217w\210\273\226\233\001=\2519\024\276\204\013\274>$\033\262?\'\340\250>*\020\201\275Co\277\275\037}!\275\017\255\223\275\2746\217\274\243\212\343<\335\205\031\275\373<\026\277lk\207?\270\225\201>\333\021\035?\017\003/\276\3023\033>v\332\221\276:\265\263\275\317\363\324>\323\326<?\260F\207>\t\341\274?&\027\230>\216\023\020>,\177\206?a\014\021?}\007\243\273\375\030~\273H\222\376>)\357\031\276^\242\237\276E*??q\351==\355\261\212\276\375\260s\276\375\365\251>] g>\341d\301\275\265\237*\276\264\360\276=\213\323\224>G\223\353=\\\321\003\277\360q\352>\227\335\344=\n\251\367>\351\000\336=4\303\210>\003q\036?\311 \214\275,}\222>4\223f>PK\260\275I\241\004>\316ir?\303\377\037>\334\346,>\022\033\346\275\351]:\274y\306\205>\330}\"\276z\231\377>\236\326A\276\242\277\t>\352xs>Fa\275=\245\222\000\275GA\314\276\0028\324\274!\276\270\275\321\024g<\276\335a>\036\037H\276 \352V\276\233_\226\276>tL?\372\323-?\331\325\220?\203\000\322>\312\261\n?x\227\277\275h\315,?\227\242\013?\201Zz?\222\033\361>j}}?R\\\245=\267B\025>_F\224>%\245\200?\353\255(\276\254\t\234=\271\351Q?\275\325]\276\242\027X\274\024\263&\276\177\3430?N\321\351>\340\022\020\275LiN\276\260\007]?o\206\262>\304\317\347>k\230\037?\237\035\305\275,]\351>\013j\003\276\316~&>W\340=\276\243\325\270\275\375\215$?hL\356\275\304\301c?\324\002\237\276\036\257\312;2\322\222>\263\035\263>/\036w>\256\3667?H\372$\276\322J\035>\016\253\203?\362\237\240\276\213\3216?\021\376\307?\224\354\223\276\271\225.=CP \275\327\3029?\352&\310?cA\013?\374h:>\207]\246\276\027?\030=zL\246>&\355\366>\022\255\">\306\354B>K\016[=\353e\\?\322\237%<\034|;?\'P\204\276\3600E?\200v\022>p\376+\276!\317\341>\233*T?\365\005\363= \245\225?N\360&=\344ZG?\224\262\275?<\n\t?|\224\">P\213|\276\241\021*?K\267\206\275\016\353\026\276\230\220F?\322a\274\276\261\020\022?\332\265?\276{97?\210|\017?p\016\350\276t\200\224\276\003w\370=\205\362\037\277\002\215&\276\200\264`\277\256\247)=^\3431\277p\306\251?\355+\016=\333\351\"\277\307\225\221?\025\020\354\276E!_?\331\216o?5\3005\277\224\241\242< \227x?\351VK\277\000\006R\276O\243\200?\272\3071\276\335\267,>5\364\374\276j\0053>c\224\266\276B\323w>\363\363\236;\032\301\304\273]\023\031\277\305\2432\277fV\356\276\300\216\t\277\324x\277\276\336\301\312>OQ\r\277\311\275\333\276z\006\003\277\256\221\255?\211V\202?\240o\212?\316\260x?I\264\014=j8\020>Bv\243?U6\221\275\256\177\212??\230\323\275W\325\204?\300Us?\277\312\257<3\rc?\330\242l?+\034)>\227\030\"\277\265.J\276\010N&\277\374\321\022\277\336\267\007\277t\310\n?}\302%=\362O\205>\220\345\206\276\322Hw?;\257\224=\347/\222?RV\311?\343h>\276\312\3275>}v\305\276\027e\253=E\342\334\2765(=\277\016\261\241?\255\242\224\276\222\202\312?\021/B\2772\366\230?\325=\204\275\022\317\224?\232\314\364\275Z\023\220?\247\374\266\276B\260/\277\340\201\312?\376Z\264\276#\326\036>\021\275\376?CC!\277\221nv\276jF\033\277?QR?\316\005\312?\306\023\270?\246\321\203?\272H*\277\'\r3\277\200k(?\364dM?n\003\276\276wKw?\353\253H>\237\235\243?\206\2427=\240\010c?O\235,\277\340\206\261?\207\204P\277K\374d\277\211\202\226?\256J\242?\005\010\214?\272\367\363?\357\266\375\2768I\032?\002R\367?\370u)?\213\233&\277\302\231\020\277\214R8\276Q\0069\277\256x$\277{\273\235?\345BF\276\336\321Q?\3759\314\276\327\230F?\363\323\317>^ x>\276\025\226\27567j>\304\3718\276\224\320\317=R\244\350\275 \232\243\274\360\336\274=\340\035\026\276\276\006a>\347(\205>VMT\276@\237+\274\302\373\004>\010\344X=\230[\305=\000\036\334\273p?\003=\340\236+>@\252H= \006x\274\336zR>\373\003\022\276p\264\273<\3561s>\236&J>h\351\037\275@\257O\276\01076>\000\300\0019\214R\342\275\200Vp=\320#;\275q#\231>\310p,\275\316D`>\010\316\330\275@z\313<\3701\273\275\250d\032\275\2200e\275\2707^\276\n\211\341\275\366\265\021\276 \017\365\274\330\210\'>2\003x\276\262\203\033>E\003\210>v\326%>C\034\221>Y\215\234\276p\233\374\274\214\265Q\276la\177\276x\325l\275\217M\213\276\372\231e>\360HH=\316\206?>h\307e\276\275\260b\276`\371g\274\020u\263=\014^\343=\320=\331\274\300\232\034\274x\032\003>\'\376\220\276&\321g\276,\275,>\2004\251\274\372:x>\330\340s\276\300S\237\273p\333\234=7\010\226>\306ec>\2162!\276\311_\222>rL\204\275F^7\276)Ni\276\252\261r>\350F\360=N\357\374\275\007\342\205\276\\S\222=b\227\027>I\203\215>\377?\200\276P7\354\274\026\366Z\276\300\321\314<\260\330V\275@\326\246<NC)>lc\316\275\347\225\203\276\'l\226\276\356eP\276,\300\310\275\345s\202>F\265K\276\240s\327=\315\202\204>5\'\n\276\300\272\207;\000\275$>P\353\263\274L\032\304\275W\020\216\276\002^\213\275\010v@\275\340\2642>Gr\206>P1\303<p\241\222\276\311\rV\276\320A^=\206\217\226\275<\316\227=|\203\243\275\321\256\230>\313\307\216\276\372\251V>a\221\212>,\254W\276A\233\226>0,\317\274U:\204\276\300\027\377=N\360\312\275q\302\202>\330B\022>\326\003T\276\000b\246\272\274a\030\276\"\335`>\247\002\233\276t`\271\275\020\026\363<2\205\032>\205.@\276N\305\324\275|\025\363=\000\301u\275\232\310}>\000\374,\274\362\252\024>\346\266\264\275\030\355M=<$\r>\005\361\205\276\310\334\024\275\257\265\233>`S\210=\352n\177>\233\216\232>d0.>\270a&\276\374\351\224\276\034\316\005>\316\356\213\276\214+\033>\004r\216=\363`\026\276\'\010\216\276`~$\274\354\300\205\275{?\001\276R\2369>\232\003\032\276\304\027\221\276l\313\375=\320\243\337\275<\226\344\275\337h\227>\"Ol>2\321y\276\254up\275\030\241\026=\332\017\363\275f\344\007>T\007:>\210\332c\275`\365\343\275Q\366q\276,><>4\263\017\276\005\035\206>\215\013G\276\202\307.>\035E\227\276\234\310\221\276\2007\240\2748V!\275V\277O>\334m\266\275\000R8\272\224\025M\276\344\223\217=J$\r\276\340\000?=\330\335v=*E\231\276\t\010\010\2768\272l=R\203V>\262:u>2\270\374\275\210\251w=\214%#>~\003\000>\260\353\341\274\2566s>p\206\370=Uh%\276\242v\003>\271\223\215>\303\2140\276\t\200\223\276z\037\n>\226.a>\260\360)\275\324\365\026>\252\0246>?-\207>\020\200\313<\275\273\217\276P\222R=\324\341\367=\204q\020>\204U\315\275b\234\014>\n\025A\276\252\320\352\275\2601\361\274`T4\275pr\240\274\234\243I\276\"\357J\276`86>\'\212 \276\376\371\254\275p\263\006>\256\347d>n\237l>\323\236\227>]\n.\276|\227\'\276ee\231>\327\no\276\335\324\212>\354\324\321=)\224\200>\000-\216=BpU>\214g\205=J\362\345\275P\006\314=~\224\203\276\260\360\250\275 {\266\274\217\033\003\276\333N{\276\217z\214>\020\"k=0\226\271=\rh\206\276\031\035\\\276\247\353\200\276\364Xv\275\017\366\233>\000\017\022\2750\0234>0\350\277\274\266L2>J\007r\276BR^>\020\322{=\032|x>\326\377\211\276\232\026\205\275\254\r\337=\256\245{\276(\227A\275\236\265\266\275\"Z\323\275\027\027\232>$\002\016>\236\272%\276\020-\344=p~9=\212\3514\276\004\t\322=\354\274\376=\322\036G\276c\306\206>x\222\313\275\250gK\276\3067o\276D{\267\275\237\037\"\276\220l\024>\240\204\366\274\336\005\202\276\256\210\376\275\013\273\026\276\220t\247=\320zz=\0005\346\273\360\246\326=\260U\361=\304\356\210\276\342\221N\276\300\314=\276$\204\253=\246,W>\274X%\276A\256\216>\304I,>\000\267\302\273!xA\276Ruu\276r\226}>0\r\031\275l\314\363=\274\350\277=\"\344q>R\361\021>@\306\271<\361\262\201>\361\361%\276\227\347\215\276(\222\205=U\014=\276\305\253p\276 \264\320=v#T>\020\242\271\274\023|\230\276\240\263\210=\362\302\325\275 \325\027\274U\\\205>\351\272\225>\370c\027=\336\310\007>\022,\220\276\374\031\212\275\230\256q\276H\2215\275\272\031\305\275\331VP\276\320\271\244<\025\370O\276\244\216\277=\240\354\247=\000\255V;\300\370\305=xT\342=zTP>\334\nC\276\026\003o\276\000d\2629`\252)\274\254!\000>\306\264 >\260`\332\274\374z\200=\357\223\206>\224\003\016>X\216.=NT*>\375\215\231>\260\010\032>\230\233\023=\346\324\003>\335o\220\276\220\243\013\275\356\257E>\032QD\2766\3777>\272\273\264\275r\207K\276)b\207>0\351\274<\226h|>F\022f>%\241\224>18\213>\206\034\023>p\344\375<+\323\211>\210\234\202=F\202\336\275\201\202\201\276\010s9=\320P\215<0\016\317<0\334\026\276\260\305m\276\270\226\222\276(\301\365\275\340tZ<U\257\203\276\336\032l>R\tW>g\313\213>(\001,>\225\312\220>\200#e\276 \315d< \272.=\376\315e>\320\270\241<\323\'\022\276d`\204=\n\226\177>\360v\227\276t\323\250\275\010\035$=F\226j\276\250z:=\2348r\275\033Z\201>\260\306\r>\346\324\364\275\246G3>\004{k\275n\037\177>H_\350=8V\036=\205\343\210\276z\341w\276L<\253=\236\272\346\275\243\017H\276\220\315\237<\277\000\212>\000\214\234\273A\347\223>h\252\t=\316\354P\276\036\351[>\372=[>]\0034\2765\203\211\276j\007\215\275\3508\014>\335\354\225\276\360\3059>P\265\220\274\272\340\345\275\010\032\310\275\014<f\276@\352\347\274\337\237\007\276%J\221>~\302\177>\356\016p>0\371\341=\022\235]> x?\274\316\276j> \211\013\2750\363\342=\250\242E\275\034\214\216=l1\033\276\236\005(>t\237\r>\367*\030\276\034d\306=\240\021\323\274\020\273\304\274\251$\201>~\321L>?\317\210>\377\021\223>\000\216\236;`\335\002<\320\026\207=\360\013\206\276\242\316\323\275\350d\233=`\226&\275b\256\023>\320\034\330\2740Yu\276\220@\230<\3163\364\275 X\341=,\333[\276nWS\276z\"&>\312\337o>x6_\275(\342g\275\275\360\'\276_\216\212>K\310\207>h\326h=\300\314\251\273\240\250\303= \360\025\275\256\316\026>\004\003\227\276\000\347\224\275\000\0264=&S\026>0f\214\276\363z\211\276\277\310\231\276Pd.=\010\267]=\272\037f>\352dg\276\321D\221\276\320\313\005>td\244\275\247\366\212>\220\226\261<\220\020\'\275*#\025>L9-\276\010O\304\275\014\004\270=PhV\275q\261\217\276\0209\372<\372\201U>\232/\240\275DF\004>&Y`\276@\331\366;\024\331\277\275$n\013>\272\246=\276\000\331f=h;\014=\302\256\216\275\276\361k>\246\363K>\243\364\232>FCE\2764n\004\276L\227D\276@\332F<\200R\324\274\220\236o=\200\000S<!jl\276\240Fh\274\300\243e\275h\202\242\275\000\236$\276\000{\365\275\276\231)>\206^s\276\314\235z\275n\334[>\250s|=\200b\205\275\240\364\316=\370\332\003>\347,\216>d\226M\276XW0\275\302\017$\276\236G\027>$\034\217\275\010\347:\276\310S>>6\350\217\276\300hO\275\336\257\024>\206\021\274\275\202\331>>\303\314+\276\376]0\276\266IZ>\305\266\205\276`\233\344\274\032\232\006\276\224\226\231\276\360?c\276Q\356m\276\242)0\276\002\256v>Z\246j>\336*>>\304\257\377\275\230l\037>\272\200O\276\323\277\213\276X@\377=\222\207$\276\204w\355\275\010\346\271=1fa\276\024A\321\275o\200\216>vzb>\026MT>\002$X>`4w<\300nq\275e1\207>\202\311-\276\200\276\024\274<\271\267=NIw\276\276\375\221\275\210\006!=\242T\213\275\n\330\007>\021Q7\276\007Q~\276\033Y~\276z\031H>\207\034\225>\224t)\276\n\326\243\275>B\202\275Z\250o>\236k`>\030\327\320=J\026\031>\032ro\276\273J\227\276`\216\264=:\214k>XT\033=o\006J\276\000_\021;\210\363\023=\177_|\276\004\025\376\275\\\253\023\276\210\374]\275\2745\337=\331\333\013\276Z-\210\276\270-\"\275hS\334= \307Z=\320\335U\276H\331\232\275\226\311\222\276\363>\220\276\360X\310<\273\210\022\276\342 \017>Q\365\032\276\220\362\007>\270\222\263=\316)\177>\240\327_\274\306kf>W\207;\276<\213\313={%\232\276\364\227\213\276vRr\276\262\264\242\275\200({;%\022\005\276\220i\361\274\377\t9\276\365d\210>B\266\310\275\311\022\234\276\240D7=\000A\253=\214\346\221\276-\344A\276@\236G=\225\n\217>\346\255e\276\365\335\025\276(\352\313=\330\024B=lKm\275\251\211\202>\000\340\'\271R30>4:\027>n]\310\275\300X\366=\"KB>\326\222]\276;\367\032\276\232_\177\276\357[\221>\360\341$>\310r\251\275\242E\210\276|\266\216\275_\023\005\276S\371\033\276Q\203\220\276\000\330Y=^\360K>ka\225\276\273N\232\276\025%\216>\016\334H>\342\336I>\\\007.>:\242Y>\270\037\001=\355EF\276\200\247X<\202\267I>\266\030=\276\240\265\213\276\000r\274\273\230\3677>2\200w>\210\272X\276xY\231=\201\"\233>@\301\021>8\206\023\275l\263\274\275\362\251!>\260\033o=\250\031\200\276@\227\255=\304K|\276 \211C\276Hp\316\275\260`\373\274\250\273T=hA!>\334\271i\276\346\037\'\276\002\003w>\3240\205=\310\tV\275\240\213\002\275b\257}\2760\214_=@\315\000>\\s\213\275\370.X\276\320\004\224\276\341\232\214\276\340\353\025\274\212\322Y>\330m\202=D\334\216=(\007\033\275\210\245L\275x\256H\276}7\221>\272;1\276\312\206b>\244\223\230\276\323\277\221\276\035\\\023\276\030\006;>\213\030\216>\024\322@>\300\323\253\275p\314\313\274,S\026>\320\202\346=H\262\036>T\332\233=\332[\000>\274\005\206=\340\007\227\276\320|\253\274\316\262\303\275\233_\223\276\262\241A\276 (\370\274\300\356\365\274\244\242%>\022Uz>\200\t\371<R\374T\276>fu>\3167\203\275\265\241\226\276\222\231\325\275(>J\276\200\360\260\275\300\tG=}\0246\276`S\237\274;\216\222>\371\014\224>$\230\252=\013_\203>\331\364\223>\010W\216=\210\337/\275pu\373=\324,^\276 \346=<r\220~>p\360z\276\210]a\275\032\022\310\275&\000W>\001V\225>(\373=\2760\007H\275\307\031[\276\010%(\275\261\013\231>\370W\004=I\370\220>\332\325!>\200u\212\274\300\371$<JE\354\275J[=>\202\3355>fy\260\275\216Po\276\260\206\001\276\0014\217\276\026E\310\275\346\260m>E\314\204>\025\354\213>\202\356\351\275\222ta>8\021\203\276\336\322\360\275\202\232\006>\214\234\224\276sP\223\276~\213=>\300\001\202=ln\207\276^C\203\275\216\277_>\013\355l\276p\030u=R(\253\275\343\'\013\276\304M\014>\372\217\004>\224[\273=\264i\230\276\313\231w\276\020\035\177=RV\006\276\324Fa\276*.P\276P\235\344\275\320W\367\275\370\2152\276\206\014\"\276\373\023H\276\\?\306=\000\026_=\233\261\014\276\207\261\223>\244\250\305=\372\343r>\254F\253\275\010f>>\322\240\207\276\027/\207\276)\265\225>\314\341L\276\340\017G\276\227J\232>\254\236\245=0\251\344=H\237\032=$/\013>\252\3048\276 \337\245<EG\032\276s^E\276X\016O=~\243\036>\250Wb\276\364~<>,\210\205\276J\342\350\275|s\014>\200\"\333\274\300\267\225\274\366\253}>\n\377 >\200\236\314\274\212\302K>\371L\233>bX\021>0\002\212\276\274\016\014>\326\230\225\276\377\031\221\276\340hp=L\211\276=P\301\236\274\332\210a>\242\206\023>\362\tb\276\302^f\276\r\373\216\276\362![>\204<\211\276 \333\r>D\0169>\000\205\236:\245\220\222>\220n\027>Y\202=\276D\241\370\275\300\230/<\270A\265=P\346\347\274\342\311V>\220\225\323=\037\262\213\276\327\\\220\276:\313K>\363D\024\276\354]@\276\013\r\220>\031\262\207>\010\264\017\275E\300N\276\320\307\023>\350\025\234\276\364\021\030\276\222&o>\2156\231>\020+W\275\300\206j=&\227\357\275\235\343\034\276\254\372e\276Ry\274\275\246\222l>\213:1\276\026\216M>\356||>fh\221\275,k\t>\024\227\002\276\260\240\333\274\352\216\034>\252\240\\>\3623}>\205\265\224>J\346B>\2146\310=\350\320J=\300k\003<i\302\227>\224o.>+\330\030\276\3402\006\275*\377%\276\310\006o\275\370\377{=\212\344k>`k{<\200\354\007<\250\360\260\275\261\270\030\276p\022\320<\221\353\177\276\332\005\264\275W,r\276\363>\216>0X\"\275\027di\276}\306\032\276\002~\031>\021\2164\276\207\024\004\276\200\023\021<P\321\013= \261T<q\037\223\276\3215\214>\332\377\037>\275\311\217>\240\241\277<\013g\227>\242,y>\001\203\207>\316$\005\276(\023\247\275\020\342\364=\310J\270=\3402w\276Q!\202>F[u\276\251|\204>\264`\t\276\206q^>h\364Q\276\306\301w>g7\230\276\262%d\276z\275\005\276\212^T\276\272*6\276RH3\276\350\214\273= \024R<\016\300\020\276\300\335\237\274X\036!>2\271z>\370r\226=\271=\220\276\222\346[>\300=q\274]\t\203>\260 7>\\\026\223\275\242\227I>\370\370\255=\030\277U\276\260\026\220\276O\001\212>H-\324=>\240k>a4\201\276\360\006D\275\314\307\200\276e,>\276\2103u=\000(,\275q\230\022\276\334\373H\276\300\351\275\274\001@\206>\200<q<R\266~>\201\267/\276\247\241\211\276do\257=\367\265f\276\2027X>\310\031\033\275X\325J=\260\346\364\274\360\235\377\274\200\371;\273>\375\">=F\232>\241\032\021\276|\255`\276\'\256(\276\210v:>P\014\301<F\267g\276\336\253d>\270`\022>`\240e<v\272{>\0040r\276Nwr>PE\364<\252\257T>\360.7=\344\177\266=\340\235)=8\347\305\275n\234c>\264~:>\216P\303\275 \210_\275G{Y\276\260\202\251<\000\277\345:\360\033a\275fX(>\017d\232>`\244O\275\000~\262<\300nF\274\343A\217>p\326\210<WQ(\276\000x\214\275\342L\202\276\276i{>\357Jf\276>r\211\276/\340p\276\276\226S>i\022\226\276\240\216\306\275(L\020=\230\177F=\370#S=\332p\230\276\020\321~=\220\303\000=\377\245\230><\035\300==\3430\276\330\337\364=\2003v\276\000\226\230<\032\201J>8\020\017>\342v$\276e\206\213>\020\267|\276\372mt>}\367\233\2763\370\212\276\014\316\316\2750\314\244<\254]\306\275\222\030)\276\005\262\231\276.lB>\312\276\211\276\334\352\357=oy\224\276?!R\276\375B\224\276\300\215\214;\336\330\232\276`ug=9\003\227>\030\327@\275t\220u\276\344\343\233=\034O\300=\344\316$>x5->j\364z\276\244M\201\275\270@\014\276\033j\234>@\017\204\275Y\247\206>\340Xx<\"}Q>\211-,\276O\2741\276\254l@>\332\364W\276\370\331\255=\013+\210\276\210\322z=\222\262Z\276\372\360,>\000ZE;\242\'B\276\010?\t\275B\200X>\237\232\203>\000P\253\274\t2\225\276\362\021W>\034\307\021>ZAM>\202\351[\276\376\267\334\275\253\251J\276pC\310\275\253\276\223>B\357\027\276\335_\222\276\360\203\371<\236\024O>\200\275;\273P\335\337<M\002\234>0\260\257=\262\016p\276&\233\007>\300Ht\274\306Jm\276\206\335`>\240\274\274<\367k\212>\320\272j=u\024\223\276x\203U\276\240\275\026\276\334`T\276i~\227\276\004cv\276\200\301\205\273\010\223\254=J\231o>^\027n>zOD>\265?x\276dv\233\276|8\241=\370\3077=A\262\037\276\272K\335\275\026\344<>{\244v\276\367D\207\276\030\326\307\275\200N1\276\222OM>\236\374%>\250\3741=@q\t=~/X> \234X\276\374n\216=\334\332\357=\266\326#\276h\340 \275\250\232M\276ln\330=\342\320;\276\326\301\345\275\331\005\200\276\000\215\246;\256\262\221\276Q\212\n\276\207(%\276x<F\275i|\201>8\245m=\322\254\033>P-\241\275)\331n\276\3563\361\275T\035$>\337\\\022\276(\320\355\275\252\t\341\275 b\"=x4\212\276s\356\210>\213x\222\276k\032\216>`\016.<\027h \276\376\003\037>D?\275=\240\004\000>\264\030\006>*\224E\276\020R\305=h>\350=\024M\336=\034*\262\275\224\260\325=\017\005\222>\240Q\017\276\026y\027>\370\371\212\276\3023y\276\300\377\264;$k\301=\340\307\225<\270\240\017>d\275\243\275a\255\222>\3421\237\275x\216\227=\3360y\276\200\3456\276\300\'\212<x,\035>\3602\003=\364\315\001\276\327x\203>\017\324P\276\322\023]>24U>\324\002\014>0\275I\275fm4>\340\375\023\276\300\355\022=\260\3219>\343\001\220>\324\200\226\275\233x;\276!\210.\276]\027l\276\252\355\r>,5\266\275<\340\336\275&\316\t>R\264o>\270\353j=:\247,>\365\373\230\276\27056\275\240t\262=\362\365F>\200\351\270=\206t\024\276TW\201=0~\226<\373c\205>r0\220\276`\315W\276\337\246\026\276\220\2030=\340S\311=P\277\300<\320\306\211=\320\376\010=\230Y,\275l+\230=\216\203I>\262yb>}M|\276xF\353\275|\302j\276\316\021\236\275\363\310O\276\014\377!>\304\025\313=\350\023\007\2756yv> (\204=\360\232\270\274\226W!> #\326=\017oC\276\001\366\024\276=\241\233\2765g\234\27647\002>\277e\213\276\230\027/\275\214C6>\346Ay>\226\254\204\275`\272\341< }{\274b\016u\276\220\232\t=E\357|\276\360K\213\275 \337\312<{\314g\276\032\036x\276L9]\276\330\336c\275VLf>\002\267\024>@\271\"\27405\321<\304d\025>\301\233\217>h\247\265=dTp\276\000dm;\352\310:>6o\303\275\031$\211\276a$\024\276\276\322\275\275J!\254\275|\013\234\276\260\342J=\354\336\272=\334\"w\276\364\325\301=x\303\220\276\300I\231=X=:\275\222-3>\260\017\232\274+\264\205>\341\370\212>\032kG>`+\241<\242\234\354\275\354\313\016>\274$\316=\t \200>l\240\201=\302\363a>p\034\252<\"z-\276\241\255\210>\000)\021\273d\300\250=\3069d>*\013\205\275\376\017\006>\020,\215<z\277s>\350K\330\275|\270\265=\010\\\364\275\301\205\206>\310\0217>\200@/\274\030\306f\2752\346x>.2\024>\210\373\r\275\350\250G=\261\232\017\276\036\317\202\276 A\n\275.\323\244\275\003\204o\276\362\372\017>\2153j\276|\313;\276\224\251\342=h\020\215\275\000\335|<\270\231.>\206\330\027\276~ww>\020\312\037>\334\327\037>\226\227J>\242\207Y>to\203=\002R9\276Q\345J\276(\007\036\275\334N\276\275 \362E=\214w|\275\026\275\331\275S\367\224\276T\353\201=pF!\276\210\274\217\276Y\252\202>\030\023\372=bLZ\276 Q|\276\377|8\276<\036\337\275X\275>=J\306#>\3761\376\275\320\321;\275v\302M\276\250\233)>^h\362\275\366\336h>\356\354c>\324\301\006>\313\273\210>\276\\k>4\3515\276\330\r\273=\006\001G\276\232\032U>@\'\260<:\336n>\360\261\020=+1\213\276\0309\223\276\320\344\204\276\310\247i\275\223x\006\276\006\001s\276\220\250\213\275\200\263\001\274\035\206\210>\000\316\232<\020g\036\275\020\315K\275\"\254n>\341\304\232>*\274\033\276 +\203\274Z\252s> \200\t<\240i\267=\356\325\223\276\177\320c\276 <\343=$6F\276\330\260\354=%4\205>\310\202$=\314\256\217=\334\005\236=q,\233>\006\303\247\275\206\000\013>\353\347\214>\360fe\276X\002\252=\260\262}\275\274\017\274=X\255\376\275\022zg>x\252\022\276\003cW\276\314\371\316\275\245\271]\276^\235\316\275\220[\363=\351\177F\276\356\253u>W\373\016\276x\342\251=\023DR\276\353o\207>+#\217>\326f\206\276\030fa\276\340\203(=\315\276\200>@oI\274\256\321\263\275\'V\221\276\316\002\262\2758z\377\275\356{a\276\214\034\235=\204\301\334=.Tu>p\003\257\274\005#r\276\036H*\276\277\355\210>\330~\320=@\342\242;\'w\222>0^9\275\n\267d>\240\246e\276\276\274K>0:\270\274\370\205u\276\314oB>\265o\207\276\022\0106\276R\024]>\320*\201\276\237+\215>z\314\024>h\023\375=MJ\230\2766\023\035>VM;>;\231\204\276}h\200>R\003\264\275\204tI\276\310\305\230=\200\026\333;\220T\241\274}\320\204>p\247\373\274f\031;\276\004\303O\276d\304K\276H\3662\276\235I!\276\207\221\225\276\360\346\313<\245\203\201>\204\264\026>h\347\215\276\242\254]\276ZZ\303\275.:\030>\275R\216>n,\037\276\036\347\370\275\000(\330=\230;\217=\006\327\246\275\236\346\227\276\364U|\275\230\2724\276 \007\320\275,`\267=>}\004\276Pp\302=9>\216\276Y\022O\276\341\367\205>0\217\307\274\234\354\231\276\274\021!\276\365\002\227>Z\207N>\201\265\223>`#\017=\332f\027\2760g2\275\370\2166\275\331\014\221>8\222\214=~\216\026\2761.\205\276\363n\226>\247\355\203>\320J}\275\220v\253<@;\204\276\363\265\220\276\320%\310\275\304\0132>\245\036\210>\316\016{>\312>g\276\273\225\t\276\200\204X\275\351\004\234>\240\274\233\275\342\276}\276 \314\006\274`\232<\276\243`\037\276\363k\221\276\034F\322=\224\254\314=B\213a\276\0343l\276\300\204==\204\276A\276~\374\304\275\2552\234\276\322\020\272\275u\241\206> `\001< \001G<\313\242\222>\'\363\226>p:\273=,\026\246=3\216\202>\277\367z\276\n\341\224\276\264\244\311=\200\360\241=s\345\233>\376\264Q\276gx\216>\037\032\216\276\204\336\031\276\3045\346\275\370\342\226= k1=0T\030>(j\207\276\203\rv\276\350\264\234=\222\271\227\276(\360\t=6\276E>\320ZO=0 \261=4\211\n>\202\006\032>r\022\033>k\240\033\276\262\320\235\275\314\356Z\276j`g>\316\327\230\275Q\n\202\276YY\223>\303\220\225\276,\002\374=\036\026\000>P\251\236<\244\026\237=\263\327\225\276\350b\'\275<4\221=\024\273\022\276r\204\354\275\264y\313\2750#{\276\030\177\005>zc\366\275|\365\224\276\\\361A>\320\305O\276\000\353_<\212\333\226\2750\277\271=\200N3>\2744\004>\200\223\272\274\037\344\226>\345%\225>\340\325\303\274\364z%>\035\260\'\276\346\246z>\"tg>\342\311~>\\(\026\276>\n\030\276\213R\r\276^\337N\276\200~\031\273\327\301\"\276\013\200\223>\301\240\210>\260\245G=\377\231\211>(\350i\275We\223\276\246\2729>\302\352F>V\212\204\275\004\027\031\276\327\342\233\276\330\207\234\276@ax=\301\320\226>\020\322\201\274\001\210\232>M\342\223\276P\363\016\275\306\222\031>D\322\342= \255\203\276\376,\234\275z\240W\276\220\372<\275\314\000\202\276@\020\320\273\254\212\275\275*T\220\276\334F\276\275\204\300-\276}\037\213>\360\037D>[\374\217>+b\006\276\000z\277\273\330\302\016>4w\312=4\231\203\276\272\306}>\230\0208\275\364\320>\276\250\025\326=\362\365[>$\321\340=\025\335\202>l\270\364\275&\317G>pY\362\274\260*\204=\272,m\276\214\233\274=a\233\201>\000\333\343=\022\307C>\000\314\022>\305\340(\276\273s\224>P\352\002=(\'\317=\322\370\242\275 \240=>\364\027\000\276\033}u\276\010\003.\275\266\256\027\276 \207e=\360k\027=\000\301_<@\301\263;\033\242\216>\213\021\004\276\360C\215<\034g\366=l\t\343\275\211S~\276\240\235/=t\331\024>\006\003\310\275\373\016j\276\036e\177>\034\265\245\2757\230c\276\026\030{>\020\331\200=\3304Z\276\016A0>n\216w>&XJ\276\376\222\273\275\374\001S\276>%g>\\\373\'\276\002|\231\276\236\232\234\276\r\244\227>\340N\300=\346\037\325\275H\243\343=\330`]\275\224\337\036\276\256\273\210\276\000P\010\2742\277\034>b\315\036>\236<.\276\330\221\201\275$\035\037\276\020\021\326=0X\351\274*\325\335\275\254\'g\276\276AK>\360\265\313=\321\243\007\276Z{c>\031Ra\276\240O\024>t\226|\276@F8=@z\232\275\350\2609\2764\324\224=\310\255\211=|/\277\275\320\262\207<\234\372\274\275\252\027Z>j\304%>\315C\217>\260\351\013>\360\366\255=\240C\006>\370\212\001\275\2001\231;f\220b\276\204\334\030\276|$\340=`\360y<\251\204\230>\354\266\370=Dh\246=\325M\007\276W\017\221>.\003\026\276\236\370\031\276\232\255o>t\344\317=\270/&>\240n\306=\322\316w>\000?\372=\332Y=\276\1773\223>Bh\265\275\230\3168>\334\325\351=\2412\210>0^\201<$\003@>,U4\276\277\263\220>\000\337\201:\210\037\332=\030\034\231\276@\216\240\275g~\202>`,T\275P3\215\275RU\311\275d\316\223\276\354]\024>`\272\020=\240\225\016>\374\231\225\276\004\277\006\276\002zy>O\270L\276\002\207I>\340\031\251=xE\000\275^NF\276\207\353\226\276B\333o>\205vR\276$x\264=p\367\357=Xr\240=\300Wo\276\360\021\034>\022\035\335\275\244\032-\2760\367+>\200>%\2734\370\024\2760\206e\276\004\324>\276l\023>>\n2:>\006p\337\275`\323\353\2740\361\361<\032y;\276\'\002\220\276`\313\n=\300\377\357=M\337\204\276\223p\234>\301\303\036\276\350\"1>\260\347i\2754-o\275H\226\315=_\3054\276.f`>\212\321\017>6\252\221\276j\352\215\275\222<\351\275\200\315{\276\242f\022>\271\312&\276\271\336\214>0$\025=~\354B>\322\327\010\276pQ\313=dUJ\276\271\324\222\276\260v\254\274 j\021\275h$I\275\006*y>Ja8>\034s\350=\300\020%=\330)\033=p\264?\275\216\023Q\276\356\032\001>\331\r\033\276p\353\202\274rYH>\000o\223\275\232\005\202\276\322\271g\276p\n\233\274\236\023z>FKq\276\250\306\325\275\373z\223\276\304\277p\275p\305\271\274\000\006\035<R_\022>\267%\234>0\311\232\276\004\345\021>\344|z\275\004cN\276X\267Z=t-\230\276@\032\371=\350f\r\276B\243g\276(\254\203\276\256QH\276\223)A\276 c2<\300V\t>H\301M=\246\214\037\276\340O\230\274\341C\026\276\212\375\207\276 \232`<\262\311>>b\202W>\260\353\226=\260\263R\275\320x\206\276\312\022\177>\276\311k\276\0209\340<\332\354+>\326E\210\276P\266)\276M*\225\276\\\220C>VeI>\266\320\215\276\266\010\215\275H|\376=\240 2=TU\n>\177\310\231>jab>:\004\321\275b\264f>D\367\341\275&\217t>@m\343\273\213\t\033\276\245\366\223\2768|\276=D<\205=@^]=p\374;>\2534e\276\200\347\267<\014@\262=\364\242t\275\334L\324=p\031\205=8\210\274=\004\004\347=@\000\347\273\234\243G\276 \357*>\340\013\352\274(\205\304\275\007\343\025\276z\237}\276\302\356\013>=\010\222>xH\n\276\201\321:\276\014\245E>\240\270\002=\200h\264<h\275\326=\262rI\276\020_\336\274^\177u>\320o\367=D\254#>\300=\006>\372XE>\303\355\226>\267Y\206>"
      }
    }
  }
}
node {
  name: "actor/Conv1D/W/read"
  op: "Identity"
  input: "actor/Conv1D/W"
  attr {
    key: "T"
    value {
      type: DT_FLOAT
    }
  }
  attr {
    key: "_class"
    value {
      list {
        s: "loc:@actor/Conv1D/W"
      }
    }
  }
}
node {
  name: "actor/Conv1D/b"
  op: "Const"
  attr {
    key: "dtype"
    value {
      type: DT_FLOAT
    }
  }
  attr {
    key: "value"
    value {
      tensor {
        dtype: DT_FLOAT
        tensor_shape {
          dim {
            size: 128
          }
        }
        tensor_content: "\256\354\'>\007[\304>\373\310\034=F\360\373=\010\370\303=\375\030;>\210P\210\273\241\371u>\206\'\373>\000\377\204>BA\276=\233\217m>\232aZ>\2003\352>q\306\253=F\240\265>\034\214\000\276\351Io>K\325p=\252\261\234\273\256\030\224>_\366\270\274\"\236\023>\006@\230>\344\027B;\234\352\232=\202\373\307=\345\376A=\325A\233\275\205]\217>\025\234X>\"\331/>\364\356\247>\204\"\321>\254\236j?~\334\217>n\270u>\311B\205>_\364j?\202\013\023?^+p?\355\263\221>\265\353\257\274\251.\"\276\036\355K?\301\226\201<0\027p>\313\245\036=/l\220=\253Z\217>\200\031\272>w\251\265>\353\273g?\022\271\032=\356\373j>/\020q=\024\240D>s\354\223>\226\212\204>,Cn?g\315\023\274\373\260\'=D\246\275\274\325\3633\275\270\276\010\275\374\342\354>\r\322\216?\255\214Y=\326c\306;Y\247\271>R\256\334\274\300KQ=\347C\341=\251\236S?_\250\373=\240Is>\273\331\326=\006D\032?\017Z\311\275\240\377P?\274A6=H\355j=\353\364\361>\345p#>#|\205?J\343\231=!z\000=\021\211\273?u\027\231>Z\357\350>\236q\\>#\231\375>\n\376\221?\206v<?6\330\223>8\217^>1\211N>D\004\355>rs\207>\266W\307\275\372\264\247>\245-\n<d$\233?\317\354X>7a\327\274r\210\271>\333\230i?\335\347\'>\204\231\245>\304-\217>!M\356>Y\232\336>\253]\203?\031}\235>+\343N?\222\212\274?\2148\321=\351c\241=v\033\027>\310\222\301<|\350\261>@`>>{\212\220>\356\214?=D\205\365>\365l\352=\206\260\336>P\345\007?"
      }
    }
  }
}
node {
  name: "actor/Conv1D/b/read"
  op: "Identity"
  input: "actor/Conv1D/b"
  attr {
    key: "T"
    value {
      type: DT_FLOAT
    }
  }
  attr {
    key: "_class"
    value {
      list {
        s: "loc:@actor/Conv1D/b"
      }
    }
  }
}
node {
  name: "actor/Conv1D/ExpandDims/dim"
  op: "Const"
  attr {
    key: "dtype"
    value {
      type: DT_INT32
    }
  }
  attr {
    key: "value"
    value {
      tensor {
        dtype: DT_INT32
        tensor_shape {
        }
        int_val: 2
      }
    }
  }
}
node {
  name: "actor/Conv1D/ExpandDims"
  op: "ExpandDims"
  input: "actor/strided_slice_2"
  input: "actor/Conv1D/ExpandDims/dim"
  attr {
    key: "T"
    value {
      type: DT_FLOAT
    }
  }
  attr {
    key: "Tdim"
    value {
      type: DT_INT32
    }
  }
}
node {
  name: "actor/Conv1D/Conv2D"
  op: "Conv2D"
  input: "actor/Conv1D/ExpandDims"
  input: "actor/Conv1D/W/read"
  attr {
    key: "T"
    value {
      type: DT_FLOAT
    }
  }
  attr {
    key: "data_format"
    value {
      s: "NHWC"
    }
  }
  attr {
    key: "dilations"
    value {
      list {
        i: 1
        i: 1
        i: 1
        i: 1
      }
    }
  }
  attr {
    key: "explicit_paddings"
    value {
      list {
      }
    }
  }
  attr {
    key: "padding"
    value {
      s: "SAME"
    }
  }
  attr {
    key: "strides"
    value {
      list {
        i: 1
        i: 1
        i: 1
        i: 1
      }
    }
  }
  attr {
    key: "use_cudnn_on_gpu"
    value {
      b: true
    }
  }
}
node {
  name: "actor/Conv1D/BiasAdd"
  op: "BiasAdd"
  input: "actor/Conv1D/Conv2D"
  input: "actor/Conv1D/b/read"
  attr {
    key: "T"
    value {
      type: DT_FLOAT
    }
  }
  attr {
    key: "data_format"
    value {
      s: "NHWC"
    }
  }
}
node {
  name: "actor/Conv1D/Squeeze"
  op: "Squeeze"
  input: "actor/Conv1D/BiasAdd"
  attr {
    key: "T"
    value {
      type: DT_FLOAT
    }
  }
  attr {
    key: "squeeze_dims"
    value {
      list {
        i: 2
      }
    }
  }
}
node {
  name: "actor/Conv1D/Relu"
  op: "Relu"
  input: "actor/Conv1D/Squeeze"
  attr {
    key: "T"
    value {
      type: DT_FLOAT
    }
  }
}
node {
  name: "actor/strided_slice_3/stack"
  op: "Const"
  attr {
    key: "dtype"
    value {
      type: DT_INT32
    }
  }
  attr {
    key: "value"
    value {
      tensor {
        dtype: DT_INT32
        tensor_shape {
          dim {
            size: 3
          }
        }
        tensor_content: "\000\000\000\000\003\000\000\000\000\000\000\000"
      }
    }
  }
}
node {
  name: "actor/strided_slice_3/stack_1"
  op: "Const"
  attr {
    key: "dtype"
    value {
      type: DT_INT32
    }
  }
  attr {
    key: "value"
    value {
      tensor {
        dtype: DT_INT32
        tensor_shape {
          dim {
            size: 3
          }
        }
        tensor_content: "\000\000\000\000\004\000\000\000\000\000\000\000"
      }
    }
  }
}
node {
  name: "actor/strided_slice_3/stack_2"
  op: "Const"
  attr {
    key: "dtype"
    value {
      type: DT_INT32
    }
  }
  attr {
    key: "value"
    value {
      tensor {
        dtype: DT_INT32
        tensor_shape {
          dim {
            size: 3
          }
        }
        tensor_content: "\001\000\000\000\001\000\000\000\001\000\000\000"
      }
    }
  }
}
node {
  name: "actor/strided_slice_3"
  op: "StridedSlice"
  input: "actor/InputData/X"
  input: "actor/strided_slice_3/stack"
  input: "actor/strided_slice_3/stack_1"
  input: "actor/strided_slice_3/stack_2"
  attr {
    key: "Index"
    value {
      type: DT_INT32
    }
  }
  attr {
    key: "T"
    value {
      type: DT_FLOAT
    }
  }
  attr {
    key: "begin_mask"
    value {
      i: 5
    }
  }
  attr {
    key: "ellipsis_mask"
    value {
      i: 0
    }
  }
  attr {
    key: "end_mask"
    value {
      i: 5
    }
  }
  attr {
    key: "new_axis_mask"
    value {
      i: 0
    }
  }
  attr {
    key: "shrink_axis_mask"
    value {
      i: 0
    }
  }
}
node {
  name: "actor/Conv1D_1/W"
  op: "Const"
  attr {
    key: "dtype"
    value {
      type: DT_FLOAT
    }
  }
  attr {
    key: "value"
    value {
      tensor {
        dtype: DT_FLOAT
        tensor_shape {
          dim {
            size: 4
          }
          dim {
            size: 1
          }
          dim {
            size: 8
          }
          dim {
            size: 128
          }
        }
        tensor_content: "\215I\223>\312\213\177\276tQ\r>\234\244\206\275\377\362\222>\244\302|\275\337\310\211>\n\022\233\276\022xv>\314-\361=\ns}>\000\316\345<\224[\371\275\230\254&=H\210]\275\300P\352=JO\001>\274\235\272=$\362e\276\\{\366\275\240\373\304<u\340\207>\342\227q>P\224;\2760\367=\275\216\272\275\275E\374\\\276\000\013\233;\370\302(=\340 T\274\234J<>\30410>p\347\204\274\027\254\223>E\343\202\276\212\321\201\276\260\007\206\276\210\2552\275\200\302\365=\360\252s\275\035\002\207>\221\016\212>\256\010Z\276\266\200v>\320h\024\276\250D\307=|\312)>\215L\201\276d\365\276\275\330\331\200\27667h>\024\031\272=\270_\300\275#\371\223>\270[\256=\316\\M>\360\210\035>b\255a>T;\274=\'\376\223>\016\261\201\276\264j\020\276\260.\337<p\257\344<^\220W>\270r\212\276\\l\207\275\000\256\312<\240\201\006\276\251L\200>JV\003>\342\006:\276\200\037\240\273\260\373\275=j\355T>v\332O>\254\204Y\276\374\271\004>56\234>`8\241<R0|>\303\217\222>,9^\276\224)\006>\276Q\227\276\262wO\276\320\215T=\302\356\301\275\220\2224\276\021\243\231>\210\225\207\276\261\223\206>\350\377\224\276N\244|>\004\017\006\276\332\242r\276X\304e\276\006\265\002>\246\270\302\275\332\344#\276\273\367;\276}\215\226\2766\'J>\247\360C\276\002\353\027\276a\232\036\276\ny]>\225\024\203>0\007C=d|a\276\000\221\222\2762(&\276\200o\201<d\234\215\276\204\212\032\276J\246T>\334\022G\276f\333X>\016\330_\276\374\330\246=\374\236!>\346\221\203\275\200\030/>@\331/=*\227\244\275,o\267\275\340\352\371\275f\312\242\275\000uI\275\250 \330\275\020D\353<zt`\276T}\204\276\236\321X>\3004l<\374\344\241\275\240#J=H]z=\254\356v\275\202\252\333\275vm\366\275`\323a\274q\002\233\276\366\013t\276\310V\'>4\272\330=\334h\345=80\332=\360-e\275\250N\016=\000b\360\2752F\261\275\2258\225>\3709\322=|\202E>\376M\303\275\201p\232>\237b\223>\330!\243=\260N\206\275\246SD\276@TD\275\230\346j\275\225\276+\276`\276\275=\250\r/\275lv\324=(\276\237=\020\251\346<\2263b\276\236;T>\365>\014\276\017\333\215>\337M\223>p\275+=@DV\276\247\225\231>\216lA>Q\350n\276\020\362\277=\264\367\245=\036a#>\264\347\313\275\300\\%>\302\236\217\276\326\322C\276B\010\226\276H(B\275\032\206\006>\250\002<\276\3640\246=\022\210C>>\314\217\276\365%Z\276(\262\273=\346\032(>6\356\016\276\003/\232\276\352\223I>\362\373O\276Rq\254\275\000nu:\200\312$\275`V4\275\327Y\225\276\250\016D\276\360=\214=\256AT>\000e\256<\350\222\354\275,\\\232= \033\346==\307\210\2763Vq\276\334@\234\275\331\351\206>\305\300\202>}\212\221>\340\323N=\367\367\204>[\362,\276\262SL>\010[\223\276\333\345\203>\300.\244\273\337\177\217\276\360 k\276\n\217\002\276\300|Y=\245\006\224>t\263\303=\234\233\371\275h\010$\276FcI>~\331\030>\320\224\324\275KVP\276\277\207u\276H\241\255\275\006WJ>\250Mn\276\034\212t\276\342\353n>j\340K>\226\230E\276\337\314d\276\036\304;\276 \342\017\275^Su\276\200\004\027;\\\252;\276\034\3666\276LN\263=\240B2\274\226\371\030>l\234-\276>G\035>\206\205m\2766\2534\276\310\273R=\200P\331\274\354\275\360=^8\342\2753G\225>6\004\300\275\3702\250\275\300\277\177<\212|e>\244\023\217\275\220\365a\276= `\276\263\231\231\276\260j\247=\002\361\014>\270\326\207\2768\334\235\275(\024\001\275\034\216B\276\344\\\030\2768t\326=`\217$>\274.\203\275\256\214$>\336\370\177>\034\352\345=\000O\020;\254\376->\256\004\013>\0048\214=rjC>L\212\350\275\212at>\310\346,> DH<\000B\033>z\352^>jx\217\276\314\200\315=\326\200&\276\267\004o\276 K\344<^\231i>,\321\347=\336\365H\276\323r\t\276@\261\203=Xl0>\320\213\346=J\243U\276\016JI>\330\321\014\275\010=R\2750\003\365<\000[\321:\177\335*\276\317[\220\276\304mD\276\254\033]\276XIx=\262\244e\276\205u\215>\255N\203\276\200B};\370!|\275\376@/>9Rw\276(\2716=-D\224\276\274gj\276H\237\355\275\352\352b\276>j\206\275\266\326L>\301\t\202>\372\371\200\275\200\3520\274\302\016\205\275\220J\"=\366\252\235\275\250\024\"\276\000\360\305<\306\2235>\360\200\235=\202\366\\\276\245\314S\276+H\032\276\326\350W>8F9>\300E\034\2750\210\306<PC\237\274\305r\013\276\361\350\217>\361#\200>\356$\204\276\260_\372=t\031\317=\340\342\013>ut\\\276\004\023\035\276\376\274<>\000\3228<J\025&>\240\345\303\2740\363\346\274r\313~\276~6;>@\255\332;h\350\354=\372\260U>\200\333N\276P\222T\275\224\221\326=,x\225=2t\327\275Xx*>y\017\224\276\236KA\276\265\232\215\276\252%n>.\221\221\276\014E\314=\270\353R=\325\215\000\276\200\331\375\273n\361 >\242?\345\275@4\301<\3008\224\276.\217\014\276&\321|\276\222\370?>\342\201\263\275\330\2051=\"\014m>\010_,=\240KN=\034[\'\276\276\230\270\275\341Q\006\276\204t\033>\270\237\324\275\240z\223\274\230\266\371\2750[\341=\032\270q\276@\221\246;c\206\226\276\242w?\276@\236e=\216\355T>\225\2712\276L\301\214\276\300\324?\276\002\"]>l\335\031\276\014\337\215\275\255\274\226>\200F\323\2738S7=\324\264\374=]^\221>\341\257\000\276\337\315\217\276`\323\235=\210MQ=\032?\007>\224\031\213=\240\313M\276\305\232\216>\202a\210\276\232\207\270\275\205\345\201\276 \202\215\2742\021\222\276\276_\257\2750-k\276\216\270\001>\330\261\'\275\014\275\266=\340WC<dz4\276\004\322\344=\035m\206>rLM>J3V>D\014r\276\000\257\021\274q\333H\276\332\017x>N1\252\275\327zF\276\030\350\275\275\320\362\'\275\006Vw>x\255\302=\014t3>+\2446\276XR\341\275g\327F\276\036\312)>\212\207\200\275\250j\t\275\326x\216\276\230\2417>\200\016\314\273\336:J\276Pr=>p\t\022>\225\007\212>\300\277\020\2766\017\204\275F\r\223\276dM\225\276\017\354\220>l\227\006\276P8V=\022\333G\276\353\205\022\276\340c^\275\024\360$>\244\373\002>`\230\212<l\010_\276|5\341=\204\031?>\000o\275<PTD\275\364K\370\275 \316\240\274\330\370\007\275:#{>\321b\231>`N\245=p\035\222=\000\240G\274\214Ht\276\356\230w>h\217n\276sp\233\276\350\271\243\275\240-\027=^)\342\275\244\344n\275F\371<>\\Z\304=\230\301\321=\207;\200>\\\225\n>\303\357\222>RYi>\000\262\261\273\262Pn\276\220\027\003\276\266\312X>Li(>Z\360I>@\252B\275L\317\305=\340\3711=2PG>\314~\333=\200vL<|\305\200\276\020\037\234=\210\035^\275j{Y\276\355>~\276\357\n&\276\013\323\206>\254\241\207=R\010_>\272\262\355\275\241\357\225>\301|\221>e\r\214>\216\342\315\275-H\002\2764#\234=Rsj>\307\363\232>b.\375\275o\027\225>\314(\035>\200I\276\275\200\312\032\273\340%/\274\270\020\031\276\177L\221>\000nK\274\261C\214>\375\234\224\276\346f\331\275N\346\203\276\320\030\031>\266\366L>\027\017\214>\'\343F\276\360\272H=\204w?\276\332\330Y>\002\262L>\240\n\003\274\341E2\276\246\276\214\276\036\360o>x\311N=\226.\223\275\247q)\276\212\240L\276t\215j\276\202\245M>SB:\276`\253t\275\030\306\021\276\004\344i\2750\244\213\274\010\000\240=40\377=]V\200>\003\247\212>\3125\237\275\236\307k>\360\235<\275\031\242\233>p\361\343<>W\247\275\202\303\r>\000\377V\273lO\206\276V\r\'\276h9\342=c\350\205>}fw\276\\\344\316=\256\335r>\360\300\350<\301>\202>\n\037b>\310\204\354=\206\277\376\275e\020\210>8\2513\275LQ?>\275\317\017\276~\275N>n\337\221\275\306\255C>8\256q=\036<\313\275J\372\335\275\204N\360\275\360\365\257<@Au\275\216_N\276V\213l>\207\2216\276\212\222\264\275\244\002\362=S\230\214>\250\024X\276\000\006O:\006\372/>\250!\030\275\035\221\016\276\201\357\226>\024\337H\276(\352\320=\200\200n\276\020\336\300\2756\374s>\302jG>\036\017#>d\316a\276#\227\231>\362\335#>B\371\257\275\302\210a>\347\301\217\276G\215*\276\363\006\034\276j\236\372\275H\201S\276\204\026\220=\334_\201=\026\317^\276\216\273U\276\240M0\274\324`\004>L3\266\275\332\211\225\275\340d\'\274n3b\276\324W\017\276D\206~\276\200o\246<\313\224;\276\000PJ9\274\276\'\276\253\363\203>*,`>\273\2178\276\004s1\276B\335\337\275\305\002\210\276H\222z\276\320\255\347\274y~\014\276\240v\373\275\312y\210\276Or\205>X\232\001=\332\356w>\300\2520\274\310\377\274=P\024,\275v\320c\276\256\311l\276\223\205\225\276\224\272\343=\340\005\243=\270\0246>`\377M\275\004J\004>\300\277~=\322\rP>\3167|>\264G\200=\220\273\226<\255\212\233>\276\037f\276\306)u> \243\217\274}\205^\276&8c\276\304\257:\276\352\2425\276D\261\034>\000\370\221\271Ie\210\276\373i-\276\260\377\244=P\315\321\275\025u\203\276\000\311\217;\000\241+>G\tO\276\361\210\215\276\310\315\341\275\370\346R\275\016D$>\234Io\276\341j\230>\360\363\353<\346_U>_\233\233>T\320\223\275\323\275\220\276\020we=\331\033\001\276\310\325q=\220\035\033>m\366\206>\370U@\275\320\300|=\326\355&\2767\257\225>\000}\001\273Zw\000>\036F)>X\037\021=`\217\023\274w\327i\276\022\211>>\032`\362\275\220T\206\274\030\212\204\276\206*3>\360Z\027=\276\014J>|\331\014>\300\016K<8\300x=\276q\037\276\310%\304==9t\276\275\271\221>d@\377=8\'*>\314\213\211\275\2709\216=\000\2228\274\354\021\373=\370\310\233\276\235\352Y\276t\276\337=\272\247\227\275\036\354^>\216\336f\276\263\r\207>\014Z\254=\200\350\237\273i/\201>>\004E\276D\031V\276\336&3>@\327\245;TPA\276\004\226\t>\262.D\276\260$p=\362\207@\276\334!\211=\\\346\\\276\246\004\321\275\245\222v\276$\013P\27621\213\276\210\202b=\203\206\201>\331\3506\276\000\246b\2740\010(\275\226\221\336\275\246\036\227\276\300\324\251\274\360d=>\274\304*>\334\245\364\275\326N\317\275\010\017\216\276\332\310t>\200\365\035\276(\212i=r\343\205\275\000\360\330\270\256z\234\276\347\331\201>\374\376\376\275\224\357\036\276\360\256\271<\334\327\317=\220\325\356<\273H\204>\0162\027>3~\033\276\342\243!>\316\310\003>\n\203e>\376\332\023\276?\210\210>\3607\361<6\360\r\276\\\360\005\276\360#\325\274\010\251\n\276@\352\220\276\356N0>\362M3\276\260T\273\275\234\200A>H@\233=u\214f\276\320\031\220\275\322iQ\276\031\3618\276H\004\264\275\224o\002>\244E\203\276\366Ne\276\212\007\372\275@\267)\276\010\013X\275.\336U>X\022\246=\311\354*\276D\255\376\275J\331\233\275\002in>\224\201\240\275J1M>8\215(\275g\362\206>\202\217m>\326\016\032>#\034 \276\256\264\035>\276\256P\276H\r+>#o\217>\326\235:\276\230\207B=>\250\017>\300|f=\335d\231>\202\2318>|w\375=\375\260\205>\265I,\276\326\341b>\315\304\223>\301c\210>\\\022\336\275:\374i\276\222\304\366\275`q,<<\361/>\230\tA\276\320-?=F\307H>\\\220\010>\304v+>\216\234\006>L\312\351\275\200\267p\275\340\314#\274j6$>\252\214X\276\340\275\n<\332u`>\004c)>\000>\300\273\336X2>X\305P\275\022\355\210\276\223Pq\276\n1d>\336\027=>\307]\221>\037M\022\2768\202k=\306Et\276\320\321\327\275\017\302d\276 \251\n<\000\257e;\\9\215\275,L\271\275<p\367=\272\324\337\275\331\345\206>\303\224\230\276\232\375j>E\223b\276\226\213[>S\342\211\276,\207\352=\000\034g\272\300\305G\275\242lW>\332\261^>\227D\201\276~\332V\276P\3426\275b\000\241\275\306vb\276w\265\200>\302tv>\340\026\220=\300\300\257;\326\362\260\275\2618\025\276X\274\200\276R\275\225\276\320\277\255\274h\344\021>\"\300W>54\204>\366\315X>\344\2254\276\256\3413>\326\235\\>\014\341\261\275\035^\221>\030\303:>\020,\351\274\205\004\202\276\376\200\\\2764\310:>\307wv\276\224X\033\276\024\263D>\257\005[\276\205!\033\276\210a\031>\340R\232\276 \207\225\274\220P\260=\020\030\354<\24097\274\376\200I\276\000\271\231=\275\324\006\276\216n\227\276\3645\312=X\033f\276\007\261\233\276\3114\212>pf\230=`\225P<F\362|>\361\322\224>\324\177W\276tX5>\320\037w\275\254\325\346=B\313\221\275\240\310\033>\t\257^\276\262L\n>DR[\276\364\277\224=\260\336\253=\226\226r\276\375\376\023\276$\351\230\275\000\3241\276L\332 >\274\030\214= \332\000\275\364\351\361\275P\276\215<\3700;\275\306\263\026>\212\245\r\276| j\275{\234B\276\320\322\"=:\202\032>\022\000\317\275\270Y%=\220x\325<B\026/\276\215\\\207\276\003\024O\276\373\374}\276\276ft\276\332\347p>P\301\243\274\020\n\251\275\'$3\276\240\376L\275 \0239>!S\223>\320\355\313\274\273N\231>\275\225\233\276,\307\216=L\331\325\275\337\030\226>\2674\227>J~\216\276\274R\201=\216K)>\004\2016>\261\212\217>\005a\212>\325-]\276\020\227<>\020\2765\275:\330\306\275G\017 \276f&E\276xd!\275(\234\202=\177\217\027\277\0352\345=\240]\177=C\0277>\024[\023>FIq\276?\031W\276\302k\245\275H\026\276<\221\221\237\274po\242>B\214\314=]C\034>AN\274\275\345C\376\274/\225\317\275\006\330\317\276Q\n]\276\352\347[<&\324G\276\021\366F>\n\360\343>\241\311\\?\201 \331\275\372\253\261>I\257A\276\306F2\275\356\323i\276\277M^>\265\027\232\275\271\303{\276\335\032\222\275bIO>\025\005\005\276\3360\204\276iE\357\276\375\3522>\214\024\213>\356t4>\212\207\000?\303t\307=D\334f\276\311\326\301\276\224#!>C\230\377\275\213lA\275>\203\223\2766_\222>\337\337@=\350\207\177\274\232\2565<\032\335\350\276f\037\343\275\240\246\333\275b\371#>|\250\322\273\232\350/\276\2263\366\276{o\242=y\311\241>\224\320\005<H\206_=\366\365\033\276\267\344,>\361\246\036>\022\327\'\276Q\253\265>0]\373\275\224\270\202\275\nJ\210\276\374@@>P\307\244>\351\226L=\347\217\305\276@{y\272\273\362u\275;\266\201>\333\022f\275\243P\260\2750\343s>\307\362E>\353\361\360=\210=\n\277\036\022\023\276\271\370\234\276cl\274\276\323\376P>\373\356\003>\033\302\264>d\337\315\276\214\274\353=\34525\276\3402\025?\266\251\242=O\035\230>\220n5<\304\'\036\276\346\340??\232\213\r\276\016d\033?\320\217\021>8\337\001<\243,\275>\320\016\324=\3769\217>wB\274\275\273\231\253>\362)\215;\377U >>]\020>P]\327\276^\234\005\276\254=n\277R\243\212\276~\014\020=\342\357]\277I\356\023>\305\030J=xrc\275\271\227\005=$\016\030\277\326R]\275u\364c\275\246:G\276\253\360\263\275\014D\273<\0017\254=\266\355d\276\206\010\032=\356N\235=;w\003>\265\215\300=\330\313#>\311\227\333>\246^u=\032\036\005?!\3326=h\3207>TE\204\276\361[\374\274Z\230\014?/f\312\274\317]\275<\037\215\224>\375\025\356\274\303wj>\377\342\212\275\214\360->\340[h>&\260V<\310z\020?\351\257\234>\037Y\n\277\177\013\356>\360\'\342=\333\237\250\276\242[=\276\373\241\226\275/\3713\276O$\271=\r\254\210\276T\010\317<\253~\262>\014\0175;lzG>\026L\330>)\222=\275\005\3547>\371\"e\276^\003|>\204\313\351=\232\373\201\273w\342\253=\330T\276\2769\264\332>\225\2563=q\240\005<\3302\027?C\274\321\274\026\302\205\276:\232a<z\240\240<\034Am=\210\031+>\376\036\214><\223\361>\305\210h>[2\220\275\203d\354\275\276\370s=d\361\322=#p\237\276\212\255t=\335\356\305\2766D\026\2760\317\306\275\270I\017>[\350n>\226+\206=\305\215\207\276,\001Z\276{\216!>\254\'\342<\324\373\013</\326\273=\207\367\r?=\345\005>\003K\227\2757\323\340=\217eu\276Vv\021>\202b\240>/[\231\276S\036\306\273h\0147\275\377\345\036=\350\344j\275w\tJ>\373\223\204=\"\205@>t\243p=\177\343\253>\310\3704\275 \316\340\271\226\253\347>\210\246$>\026/\276<\225\006\341>\330\\==\371\026h>\014\0177=\300\227z=\306\0376>\341\276>>\334:!=-\273\r>\312\362\223=\302\302\354<\031\351\024\274e\345\326>\332b$\277r\362\214=c\340\007=\225\035,\276\036p\354<aB\030>\3705?>W\321\374\275\3047\233\276\257G\302<\005\004~\275\202\035w\276\362\214\"?j^\026>\224\207\034\276;\031\035\275\207\024|=T`4>\325\345\202>`CI>a\021 \275\335\204{>\224\361\241\275\220V\202=\222\016D>B\310\254>\265\332\351>\237)\n>Q/\256>\030o\363=U\213B\2753\224\025?\220E\306<\007h*>,\350\332\275\024\005\243=\335(9>\341B\310\275]\332\207>\022-\212>(\217\306<\005\264\323=\216\024\r>&S\266\276\270Sn>\322\331\244\275\241\240\007=\317\277X>\325Q\025\277m\250x=h\377\307\274\267M\017=\301\006\276>\377t\360\274t\224\004\275\247\n\365>>\276*\276S\035\266=\266zS=\376\240j\275z\304\226>\200\037\276=\351\0050>\330\222n<?\365\223=\026U\231>\225Z\\=\351_\332\275\231\233\326\275\264\301k=\354k\300<[\327\305=\036\354\014\276\210\033\223>\030/X\275l\350\326=\216Z\004=\323\271\251=\247hm>mJ\336\275\264u!;$\270\006\275\3465\244>C\177\204\276Ab\\\275WA\327>\007\364\237>\177<\300=\022\264\250>XB\223>\220@\260\275)Y\223>\0216\215>\223/\215>\240\342\351>\356(\203\276x\014\274>\216\026\266\275\"\231\331<\031\336\002?7\242\221\276\037\200\266\275\244\367\246\275\357\220\002\273\352K\034\276\311e\026\276\351\327\366\2769\203J\275\205\323\257>\246\3111\275-1\311\275Z\347\335\274\220\371H\275\034\373\310\275\221\304:>\342]\372>\267\234$\2742\237\033>\223\202[=\217C\224\2768\362\005=\344P\214>\212\273\371=\310\242\362\275\335\260Q>\0108v\275\355h\254\275\316\300\021=ub\222>OHc>8\370\221=\301[\271\275?\0017\275+r\345=\252o9>^\330\213=\376T\016\276a\316\263=~b)=\204C!\276\261z\022>|\005\231=$\237\257;*\366i=d\245\353\275~A\351=\333\337\002\276^\007\306={\340\223\276\244\245\311\276\216c\016>\010T\346=\224zq=\267\363\245>S\340\271=\016\312\035\275}\256\212>}\226\222>\232\230\376\274?\013\213>\004\\<> b}\2768\271\222>_x\310<LK4?\206\246\310=\270\273\223>\204\305\336>\3633\365\274?\367%=\352\264\364\275\270+V\276]\034b>3\300+\276\270\337\242\276\022\300|>\0230b\276ogB\276\003XS>u\226\234=\374\372\201=]+v>\261\203\010\275\"K\312>%\241n\271\031\266\274=V\031i=\3328\007\275\027\271\027\274\272\302H>\345`\024=\357I\005\276\002|.=l\210\203\276\255}\313\275\232\321\367=\200i~>\276\005\021\276\251\245\256\274\217p\301>\341\226\350=K\365\013>\230F\032=\200\216\212\276\370]\205\276\334\333b=\216B~\276\274\213k\276\004\262t\273\261va\276\'\300\272\2766\242\232\271\235a\032<gVa>l\317P\2751\252/\276<\355\236=\337\313]\275\017r\245=\"8\324=w\352\237=\327\264\261> f\233\275b\352\022=\362G\243>\275\205S>}j\215>\\\320\211=\336D->B1\037>\013=\016\276\231\371\252\276\210&\231>\264i\210\276\323ZL\273z\212\035=h^\231>\005\331P>.\314\330>\265\377&>lo`>\241Z\027>\006\245\304>\256\351\345>\240\004\275;A\003W>@\300\321\275T\217\206\276\310w\037\274{\210%> \212\310\276\313\ny\275\330O\031>\335\204\267=l\233|\275C\253\037>ut\034>\036\341\035\276\312\370\224<\243\255\020\276\256\032e\275\367|\241\276\304?\030>\377\025Z\273\016r\007\276 \217\304\276\322o}=\350t\236\275D9c\276M\205\035<0\004\350=\037S\267\275!\307\315=\236\350\304=\203\031_=\2163\326=\301?^=\246\274\203>\021]\315=S\010\361=\360j\210>u\010U>\203\331\264=\225\266\220=\r\n\360>\000f\256\276\226\250\353<\314W\001\2761e\362\275\016\032\215>}\231~\276\177\276\201=*\216\311>UL\034\275\223\006\326>\t:\276>i^\224\274Re\370>\246gJ=\253Y\020>\265\004\212:j\271\033\276\205\221Z\276{\200/\275\324b\233\274K\363%\276\327\222\035>\"0\264\274\r\261\371<\033\353\315\274\203;3\275\360\200\\?\213W\334\274\013\217\222\276\357\031\331=\313\021\206\275\323H\020\276\312&\225=\210\nl\276wOL\276\216G\205<\233|]\275u>\360\275\033\332\002>\"QN\276\306B:\275k\026\353<\326\316&\276\233Z\357\275\036K\037>\272\222\">yIu\276\205\356b\275\323\366O=\306\332\300=\351\246{=a\235\204<\360\207^>\306\220\016>\256v\262\276\252]\200\276*h\336\275\350\357\300>qXK\275\230\361\372<\246\024\344>\200\240E\276\222\240W\276<\030\216>\021\367\221\276\177\377\377=\033\210\216\276\270\215T>\361\360\227\276\266\r\256\274\261\201\217>m\361\000>\016U\344=\221pD\2760*\240<\206x\020\276\315l\324=\351 0:\305\266,=\007\000\337>\204M~=\213z\"\2761\265\233\275\320\226\260\275N\214!>6\243\217>\031\326t?\243\326\272\275\034,R=\222;\t?-\312\306\275g\264\343\275\307\267\372=\337\262\227>\2254\351\275\314\213;>\207A\225=\373\241\202\276A\322O>+\006\206=.\270\004>\360\214$=Yo%=\032\263L\275\002\262\203\276\"\213w\275\0372\254<4\236\002\277\361\207\210=V\2447;\205\354\204>VdD\275\006\316U\276v\310E>\223\345z\276\300c\226\274\215\3618\274\2411]\276<\316\215=\372\331\217\274u\216^>\367\356\266=\250\177\247\275\013\006\006=uOF?L%\n<\275V\251=B\014\003?\202\020\244=\0330\225\275\014\232\222>\010\305\347> bO>9\342\202\273\223\361(\276z\357\236>C:\216>\267\2432>\326\214\303>\014\225p\275{\302\250\276\361\246K\276\210\367X>3\201\205<[F@>\313\210t\2740+\217>4\024F\275\2443\'=\r\214o\276\364\357\250\275:\325\261>\375\372\207>!\356\220\276\370W\023?\014\220\n\275\247\3568\276\332\366\003>\3274l\276(\204\245>\367\227\301=aka\276\345\264x=\365\256Q\274\326I\374<\300G+\275\316\353^>\317\227\257\275\354\342\032\2764\3709=\234\266\"\276\3250<\275~g\017\276\002\276\346\274\247\016\233>\323\310\027\276\333n\240==KR\274\331nR\274\037\232O=M\226\343=\272\220\016\276\365X\271<\353\274\n\276\332\264g:\317\246O<T\360\342\275\347Tq>\362h)>D\233\355\275\"\366\352=5\235\217\276\234\356\306\2765\202\250>\330\207\217\276M\357\320>\236\"g\275\032~\360\274\346\0079\276\250N\250\275dzY>\351\024\003\275w\335d\275=UL\276\003\201\020\276\255\276\247\275B9>\275\246\342\326>\375\205\203;t\334\206>\210\007\367>\213R\221>\366\003\022>e\212_\276\325\020\020?{\262\231\276\243i\347=>\373\225;A\255\204=\230\314\230\276\232\342\016>\2172S\276\026\261Y\2765\212\034>\211\220\211\272g1\222\276\001\316\313=\304%\202=\214^}>\306\254\215=\307v\347\274\201\322\223\275\251\376)\275?6\023\275\3309\303=\247\035\025=\226#\000>\214H3\275PR\245>\244\225:>\300E&>DG\341=F\230$\276\350~6>\203O\300\274\307\370h>\226\007\246=\253\245\234=@\350\201=P\333&=\014Xk\274]\252\037>\314H\316>J\353\327\275\366\336\300;9a\204\274HF\225\274\t\274\262=\252k\227\276\215\276>>\301\262\252=hi\204\276\370\201f\275\205\341\261>\376@\320>\034*\370=\272\201\330>o/:=e\271\210>\237\364\235=\375a\227=\\\344\242<\303!\221>\006L\311\276B|\245=\364\000\n>\007\016\273<\233\020V\276\254B\276\275\363}-?U\221\270\276\251\3079\276\266&\'?\210U\327=\325\313)\276\360\252\256;\351\2108\276\202~\317>\224\256\275\2763\246\254\276\243\262\241>\337 \350\274\r\315\014\276z\364\005\275VG\200>\021\257\263>\212A6<\350\314\333\274\303N:;\306\202\214\276\300\310\242\275,\223\274\275\242=\200\276\030v\211\275M1P=\177\ri\276A\000\'>Q\346(<\245\354\354>\2510\271=?\025\344\275:\266i\276\002gP\276 (\242>\337\373\355<\222\3321>\2472\226>]p\257>\004a\354=\025+\273\275K%\334\275\342\265\004?\177)\021\275l\312\344>3\272Z\276\355\273\243>\362\035*>\r\252Y;\200*\177\274\025\234\306=\345\357k=kc\270=~\373x<\201\361\311=\341\204\257\275\010\244>?6\211\246>\236\001\203\276\360\0304=\262\322\210<}\315\346\273\\\330N>\321\325\027?en\210\274\301X\034=\033r\310\2756\272\221=\351S\247\276T\356\252;\350Q\226\273\347\237g=\376\257j>\230\375\263\274\276\363\201=\326\364\005>\276a\273=\321En\276\'\245\207<]\033\221=\326\323\253\276\226\3229>\322y{\275V\222q=\254\370\317<\023\220\213>X|_\276\372\313n\273>V\264=f\230\302\275\236\237\237=\020\325&=\216\230s\276\231\020\014\277\217O\237\276\354\373\266\276\262\200(=\3310(\277\275\373\027\277\264\355T\276T\336L\276Z@\367>k\224\374\276\357\316\376\276p\204\337>\373\360\032\276\376\024\270\272\020\317\016\277\264:\360>\264\315\333\276\276\024\203=\234\366\201\276\tV\267>z\277z?\214\017\360>\237\311\037?\375\325L=J\354\227\276 t`\276\211o\356\276\350\325\276=[\236\366\274\351\236\210>)4\367>\003\303\310>%; =\334t\203\275\276\205\016\275W,\260>\'@j\276\250\366\004\277\274\354/?\351\366\242=f\327\352=\243\271\245<\3577\257\276\330\n0>\204Z\253>P\nI\275\344s\000<\002\037>:\351\256\014\276\033\3339\277&\004I\274\317{j\275\314)\206>rE\333\276\0147W\276LG\000>\307\333\316\276-|\370=\231\367k\276\006\332\033>\000?\312\2762o\036>\326S\217=X\240\027\277\221\013\273>\022V\022\2775\222B>Z \243>2\251\302\276\t\203\200<d\330o<\271N\334\276\346\303\340>\335\322\360>\212\243\020\277\331\270\220=\274\275\r\276\212\322\036?\241\216\314>L-\262>\261\346\001=9@\n?\031f\025\277\200\331#>\037\007\366\276\320\317\036\275\304z\373=8\347\251\276\230K\n?\2617\002?b\262\204=\246\276\177?\025nK\276\271\232\336\276\337\206\217\275K\316\344=.j^\276^w1?q\3613?\301.\276\276\330\216\205>\307\205\307\276\366d7\272nPu\274\nK\014>\352\370\301\276\240\201%=\265\260\234=\326A+\277DY\302>Mz\264>8\010\273\275\300z\221\275P\212\n\277\256\257\263>\262&\213\276\355x~\275C(\372> \256\000\277n<\031?\207\023\300\275\336\2762\272\243\3018\275\340M\212\276W\343\'>\366@\252=b\305\324\275\n{d>\320\"x\276\267N\216> \263\021>\210]q\275\354*\240=.\230\275\275\004\241\213=\244\3467\276\304\377\276=\030\003\277=\020J\277<\350\3730\276\330EZ=\204\374\225=&*G>\241t\224\276\211)\214\276l\313+>\342sq>\000\004x\273\nB\321\275\266}i>h\261o\275Ks\231>\312\016\331\275\210~K=\'d\232>\276\307\037>}N\220\276\330\316v=\304\003\n\276\000\210\207\276R\250\323\275\022Z0>~\3522\276\220\231\242\274\200\312{;\010\023\252=\300\'\257=\370o\267=M\321\230>\300\2371<\016\032e>3\231\225\276X\272?\276\213e\214>l\263O\276\270m\234=0\331\026=\264\370\231\276@\214U\275T\370\276=\223\355K\276\240\003\373<bB\243\275\334O\032>\365\370\227>\220D\013=p\030J=Vmg>\267~\027\276L\004=>\312Sm>\376\360R\276\211\266\223\276hw\307\275$\255\006>\217\231 \276\220F3\275\311\007\206>\340\260\031<l\304\275=\026\354%\276\360\357\236=\376\001[\276\010\210v\275\362\205E>\302i,\276\257F\201>\324\237\300=\334g\306\275}\312\231>f\031\\>\020P\032\275D\211\315=\030Dr\275\330\256s\276\300g\202\275\230u\374=Hg\225\276\224n\334\275\335.\203>\246\317b>P\225\357\275\352\363\304\275\000<\235\272z\337\270\275\276\374\201\276\342\225\030>\240\255\207\274\000lv\272\211\376\214\276\017y\'\276\264\306i\275fn\223\276l\331{\276\224\326S\276`\314K\275\300\010W=@3 >\260E4\275\372\372\214\276z\210[>\312\223\331\275\322%m\2764@<\276\2768\232\276\271S[\276\252\036\213\275\360\014S=2\326@>F3;\276\302\023\214\276 >q<\000< >P\327\277= 9F\276\210\027\336=\030u\364=\335p\210\276bh&>\030\"\267=1\023\211\276a\324v\276\350\237\372\275l\254\342=\000\274\206=z\356!>\345\265\221>\324\2119>\"\035d>\242\t~>\266ue\276\376\331=\276E\264\205>\362N_>/\2602\276E\001\221>h\372\030\276`\016e\276sr6\276\326E\273\275\346t\334\275.\226\n\276\214y\r>4\362;>\370 K\276s\216h\276\235%\220\276\030k\017=\366\374\311\275\213\330\035\276N\260<\276^\320\177>\331\021\206>`<\274\274\360v\262\274\036\356r\276*?\206\2762\265h>\376\375\224\276\000\026,>P6\207=\3707[=\361.\225>P\222e=;\327\202>\320~\000>\000\240\242\272\013\025\232>F1\n\276\265\247\200>\230\320\324=\271=\017\276lM\261=\002\0212>\020/\240<\204\020\024>\001C\215>\200o\003=\377\256\200>\320\255\273\274\000\362\037:\232\226\035\276@\\\315\275X\337\016\276\000\225\246\274\263\221\203\276l|\365=\240qA\274V0\'>\340\'@\274\200\006\307;\020\371#=r\213w>\006\371j\276\240{\">\n1&>\370\200Y=\306`D\2768\310\320=4B\263=\250\270E>S\020\030\276\032\264y>\300}\025=\265\333\216\276\\\235\257\275\2773\223\276\256{h>\246\375\210\275\3605\214=l7\227\276\222fI>\230\022\267=uI\000\2761\310\230\276\320)\351=\305\221\205\276&\0051\276\223\320\007\276\"\235x\276\372I\323\275\201\370\002\276\206\027\"\276\372\244p\276\035O\234\276\005\235\211>\300\237.<\260&\224\274p&\n\275\264\246\005\276\000\312:<0\317\367\275\276\004b>\010-j=*\334v>P\343\224<V\311\224\276\260|\204<@\200\373\274\360\312#>C\210\224\276\362\345>\276\230\200;\275\316\333p\276\367h\230\276D\240\223=\316B\'>`\264\375\274IG\223\276\217\233\220>\210\263\026=\304\273\177\2769\325\227>\360z\227=\244:q\276\000\350\217\276\242\002w\276\200\231\337<>\037R> \374\255\274\343\031\225>d\271n\276\013\342\221\276\032\350y\276B\270w\276\000\273|\274\256R\\\276\340\300\360\275X\274\207=6R\224\276\210\315\030\276tuC\276w\001\\\276h\206\211=\252\222W\276\034D\360=\202\215^\276\244Q+>D\004\315=\262C\231\275\276\301\353\2750S\212\274\036\016\206\275\216PS>\206\346]\276@\236\231=$P\216=~\324F>p\330r=\340\207;>1\'\215>\254\\\035>\326Y{>\030\t\250=@\177\305;\006}\244\275\265\356\n\276j\311W\276\314\311\226\276\334\220\002>\023\233\021\276\030\016\301=\260I0>\262\007\t>\370a^\275.\037a>\000bk\272\200Y\272\275\3203l=-\357\r\276\217RJ\276H\356?>X\3122>\233r8\276\254\372\331\275\036\0266>h[\023>\372\355i>\365\340\220>\364a\363\275|&\276=\204K\353=\371Q\231\276*)\230\276\357\2506\276\261\"\205>\354O?>@PG\276\374\2431\276\036Q\035>\360\215\330<i\270\230>\320-\036=F)\262\275\322\214`>@/\256\273\240\277X<c\367(\276x\301j=\0004c\276U\346\205> \264\305<\200\350\314;\212\305\037>S\326\205>\226l\\>]+\226\276I\200\205\276e\035\220\276\346\354&\276x\316\230\276@8@=\311\033\217>\260T\343\274-\013\224>\254\2749><\253#>\270\212$\275@\217\177\276\010\212%>\346\255c>8\tW=\312a\022>\260w\204=\235\344\213\276\340\362d\276\255\212\230\276]\017\206>\000>\242:\240O\210\275\014\362\003>\270\201\000\276\025\030V\276r\263O>0\256\r>0\034\261<pF\024=d\240\234\275\267\030A\276\0201\237\274\211\353\032\2760u\004\276X\307P=<\343\367=\240\0277<\257K\213>\366\346\312\275T\307\265=B\001M\276\177\030x\276\005L\230>\264\317\202\275\267\n\227>b\350\206\276\342\213j\276\352\253q\276\332K\014>p\202(\275^\000a>\350\3372\275\352\272|>\206\324\317\275\275Q\232>Y\347\232\276\307\006\223>\351\002\200\276\010\266/>\250l\251=s\376\216\276H\013\341=\374\235\245=f\211n\276^\036j>\301\336\211>\347\311\223>=\255\230>\032^]>\233\215\233\276\204?\177\275\254;\001>\002\246D\276\024\356\360=\231\230|\2768\tn\276\250s\000>@\265\017\276\340\321\034<\013o\226>nJV\276\376\244\014>\n\337\351\275\360\216V\276\000\241/>Jz\023>\250\316r\276.^\361\275;n\203\276\275\251\231>x\007\314=\254\207\216=\200\244j\274\326\206>\276\021\303\"\276\324~\332\275\222\016m\276L\035\306\275\2169q\276\246\345T>b\211a\276\275\211`\276\030\234!\276Z\202!>\310\250@\276\020\337\242=\200hs;\r\324\217>\300\0147\2766\034\\>\350\260\315=d\025\213\276\313\2007\276V\036\036\2762aH>\242Ps>\336\217\016\276v\214\026>\\\035F\276D\230\217=\0008\0169\376\335\236\275A\336\024\2768\037-\275\257r\224>\231z\213\276\246\337f>\367f^\276\351\031%\276\317V\227>\2007\263;\322\010\020>\330Y\025=\352Pv>?\271|\276\031\232\r\276\336{\354\275d\024\025\276\2105$\275\351\031\215\276\020\217\317\275\220]{=\200\300\316;0\354\203\2750\023o\275\220\214\315\274\200K\266\274<\2547>\036\314\204\276\346\231J\276\350\330V\275\0029j>V\340u> \t\330=\372\017_>P\317e\276\271\365o\276d\247\220=-X\207>|\215\270=$\302>\276\2666w><\277 >f\272\305\275\332Q\306\275\236\232d>s/\216>\252<\022\276s\367\225\276\331\3377\276\032\356\032>#\023t\276\220\216\301\274(z>=f\221\214\276\300\261\344\273\'P*\276\"/\n>@M\370=\032\001\365\275\340\356\212<B\366(>\331\3214\276xD\347=p\001\230\276\221\231\n\2768\261\227=\365s\200>\325\001\232>\240w\033\275\330th\276l)\353=^XU>\177\336\213>b&6\276\334l\233=Z\271j\276\310\241>>\036\355\204\276\327\263\225>\200\264j\274n!\331\275\362\305\211\276\373\017x\276\370\320\333\275@\255\327;J/D>\030?`\275\240}w\274\260\034\316\275\030\315?=\351\344\203>\231j\t\276\n\343 >Tn\303=\211\264\026\276\362\224\032> \262\376\275\330\245\013= _\247\275\240\240H<4e\217=`O,\274\370o\370=TC\232\275\0227\016>\326\'*>\000\341\'=1*\234\276ic6\276\312\232\272\275\240\322\351<8\211<\275\360\233v=~(\304\275\010\302\007>\207\t\225>\213\275\205>\272\232\205\275`\300a<\354z\273\275@F(\274(\000\007\275\210+\247=,\006\350=3&\001\276\036vC> \3465>D\201\311=\200c\221=\307Z{\276W\216\001\276!;\205>\264\371\007>f\326Z>X\005|\276d\222\245\275\230N8=0^\361\274#w\223>pt\227\276\000\036\322<@\\\267;Z\034^\276g\022\202>Mw7\276h,\226\276\032&\030>\376N\006>{\004\227>\2767\210\275\022s+\276\375\005\221><\253\226=\270\027\010\275\031\'\231>\322[~>\273}a\276$\324\254\275\265E\207>\374`\376=\366.a>\320\214=>23\204\276P*\013\275\276\374p>\2371-\276\022\010\233\276\310Ul=\320e\322<\352\341$\276(\017\236=\262\202X>\224p\256=\230\274F=\032<h>[\177\225\276bu>>\376gN\276\200\351\201\276d\336\214=\234\255r\276j\010E>\'\007\214>\354\350;>\342\252\241\275\037\201m\276z\215\177>\020U3>\014\006)\276 v{=\342\260\302\275.of\276\316\233\000\276\344\333\227\276 \241-\275\337I\226>\270\2164>\311\273\020\276\031\260\234>\360\002m\275\224\315\200=\264\030U\276w\032W\276\202\253v>\321\010\206>>``>\240\3643>Bll>\200\326\226\274r\r\230\276(\342_\276:\2239\276:\323\205\276V\243(>\211m\016\276\306\241Z\276\221\267(\276n\231K>\216\272X\276\251\037\216>\227\346\211>\223 1\276\024\230[\276\3700\005=\354\216*>\210\034>\276\255\364\224>@\347\213;\316\235m>\302\037.\276n\340u>4\336.>\010ES=\244\235\336=\270\215z=\300\370\232\276\000\031\235\273\224\340\215=\026\036\232\275\226\357\203\276\3346\344\275\000(\302\271\360\214\n\276\350\212\005=\254\251 