node {
  name: "actor/InputData/X"
  op: "Placeholder"
  attr {
    key: "dtype"
    value {
      type: DT_FLOAT
    }
  }
  attr {
    key: "shape"
    value {
      shape {
      }
    }
  }
}
node {
  name: "actor/strided_slice/stack"
  op: "Const"
  attr {
    key: "dtype"
    value {
      type: DT_INT32
    }
  }
  attr {
    key: "value"
    value {
      tensor {
        dtype: DT_INT32
        tensor_shape {
          dim {
            size: 3
          }
        }
        tensor_content: "\000\000\000\000\000\000\000\000\377\377\377\377"
      }
    }
  }
}
node {
  name: "actor/strided_slice/stack_1"
  op: "Const"
  attr {
    key: "dtype"
    value {
      type: DT_INT32
    }
  }
  attr {
    key: "value"
    value {
      tensor {
        dtype: DT_INT32
        tensor_shape {
          dim {
            size: 3
          }
        }
        tensor_content: "\000\000\000\000\001\000\000\000\000\000\000\000"
      }
    }
  }
}
node {
  name: "actor/strided_slice/stack_2"
  op: "Const"
  attr {
    key: "dtype"
    value {
      type: DT_INT32
    }
  }
  attr {
    key: "value"
    value {
      tensor {
        dtype: DT_INT32
        tensor_shape {
          dim {
            size: 3
          }
        }
        tensor_content: "\001\000\000\000\001\000\000\000\001\000\000\000"
      }
    }
  }
}
node {
  name: "actor/strided_slice"
  op: "StridedSlice"
  input: "actor/InputData/X"
  input: "actor/strided_slice/stack"
  input: "actor/strided_slice/stack_1"
  input: "actor/strided_slice/stack_2"
  attr {
    key: "Index"
    value {
      type: DT_INT32
    }
  }
  attr {
    key: "T"
    value {
      type: DT_FLOAT
    }
  }
  attr {
    key: "begin_mask"
    value {
      i: 1
    }
  }
  attr {
    key: "ellipsis_mask"
    value {
      i: 0
    }
  }
  attr {
    key: "end_mask"
    value {
      i: 1
    }
  }
  attr {
    key: "new_axis_mask"
    value {
      i: 0
    }
  }
  attr {
    key: "shrink_axis_mask"
    value {
      i: 4
    }
  }
}
node {
  name: "actor/FullyConnected/W"
  op: "Const"
  attr {
    key: "dtype"
    value {
      type: DT_FLOAT
    }
  }
  attr {
    key: "value"
    value {
      tensor {
        dtype: DT_FLOAT
        tensor_shape {
          dim {
            size: 1
          }
          dim {
            size: 128
          }
        }
        tensor_content: "2u\'\274\227\213\254\274\037\364\252\276\211\273\250\276/\350\250\2764\207\227\274\273\270\303;h@\200\273\232f\036\273\0028\343\274b\355a\273P\014\221\273v\376\250\274S\246\006<\326\262\247\276\\?\254\276\363\023\252\276\237\340\260\276P\216\261\276Rs\206\274i\343\010\274d\251\256\274\210\245\256\276\261\355\264\276\217>\244\276\233\367\252\276\211tT\2735\020\257\276\263\233\274\274 \350\242\276\203wK:\']\371\272\274\255\253\276\244\261\254\276; \243\276\254\202\251\276\'\354\254\276+\037\204\274V\357\252\274\264[\247\276\355\242\245\276T\005\331\274:q\013\274\252\353\260\274\242X\246\276\227*\262\276;\031\236\272\312\240\252\276\357\010\371\272\235\340\241\276\201;\372\2736\307\254\276YzY\271\225\001\203\274O\233\255\276Kx\250\274\333\324\216\274\352]T\273i\021+\274\014\245|\272\360\257\245\276\006l\265\276\356F\346\274\316\353\347\273\350w\243\276\216\257\253\276s*\344\273\333=\250\276\355`\262\276\036q\276\271\340\214>\273c+\257\276\354\375\245\276e\203\255\276\235\022\246\276\3704\256\276\374\345\257\276T\301\246\276\276j,\274\266[\010\274-\310)\274d\233\005\2744\321\232\273\261\026O?*\270<? \374\251\276\370=\261\276\016\257m\273^\203/\274\2714\257\276iB\037;\347\256\254\276\\\362\034\274\3401\253\276\322\276\316\274\245B\256\276\264\275\034\274\000%<\274\031|\330\273%;(\274C\303\347;\316\323\3269\025\370\276;\361\224\241\276\314\225^\274*3\244\276\205\251\247\276\251\266\250\276k\206/\273\305\337\035\273\301_\357:\273\352\242\276\327\200w\273\333c\002\274\031{\241\276?\322\245\276%u_\274%\357\251\276\022k\252\274\363\212\251\276\226\215\r\274I\022\331\273\275\037\356\274\202\273\036\274e\265\2009\275o\177\272\314X\265\276\363\202\237\274"
      }
    }
  }
}
node {
  name: "actor/FullyConnected/W/read"
  op: "Identity"
  input: "actor/FullyConnected/W"
  attr {
    key: "T"
    value {
      type: DT_FLOAT
    }
  }
  attr {
    key: "_class"
    value {
      list {
        s: "loc:@actor/FullyConnected/W"
      }
    }
  }
}
node {
  name: "actor/FullyConnected/b"
  op: "Const"
  attr {
    key: "dtype"
    value {
      type: DT_FLOAT
    }
  }
  attr {
    key: "value"
    value {
      tensor {
        dtype: DT_FLOAT
        tensor_shape {
          dim {
            size: 128
          }
        }
        tensor_content: "\000\000\000\000\000\000\000\000*\317\217>\352\372\221>\252\004\214>\000\000\000\000\231,\336\273\000\000\000\000\000\000\000\000\000\000\000\000\000\000\000\000\000\000\000\000\000\000\000\000r$\026\2742\215\225>\315\331\205>\'\363\211>\324Ey>w\010s>\000\000\000\000\000\000\000\000\000\000\000\000\255R\212>\245\222q>!\250\205>\024\313\203>\000\000\000\000\241<\210>\000\000\000\000\255\216\220>X\240{\272\000\000\000\000\370\223\200>\035\030\177>\317\331\223>\232f\205>\002\300\211>\000\000\000\000\000\000\000\000Q\340\214>\0262\213>\000\000\000\000\000\000\000\000\000\000\000\000\333\t\217>\237\242\206>\000\000\000\000\026\222\211>\000\000\000\000\027<\215>\000\000\000\000\002t\204>z\007\006\272\000\000\000\000\306\255\207>\000\000\000\000\000\000\000\000\000\000\000\000\000\000\000\000\000\000\000\000\034\373\222>\225\222\202>\000\000\000\000\000\000\000\000\343\370\220>\213\246\215>\000\000\000\000Y%\207>\303\201~>>\346\232\272\000\000\000\000\322\022\213>\313\324\206>=\021\210>\361\275\213>\371\350\217>\370D\205>F\313\220>\000\000\000\000\000\000\000\000\000\000\000\000\000\000\000\000\000\000\000\000 \332+=\007k\300<>\236\203>\256I\210>\000\000\000\000\000\000\000\000c\214|>\343rH\273\302\243\206>\000\000\000\000\340\355\215>\000\000\000\000\237?\210>\000\000\000\000\000\000\000\000\000\000\000\000\000\000\000\000\210\270\360\273 \332\t\272\372\325\300\273\037x\217>\000\000\000\000\257U\217>I\320\224>\207\250\214>\000\000\000\000\000\000\000\000}\244\014\273YW\213>\000\000\000\000\000\000\000\000\2730\220>\344\313\220>\000\000\000\000-\207\203>\000\000\000\0000\022\207>\000\000\000\000\000\000\000\000\000\000\000\000\000\000\000\000B\270\223\272\000\000\000\000?\261u>\000\000\000\000"
      }
    }
  }
}
node {
  name: "actor/FullyConnected/b/read"
  op: "Identity"
  input: "actor/FullyConnected/b"
  attr {
    key: "T"
    value {
      type: DT_FLOAT
    }
  }
  attr {
    key: "_class"
    value {
      list {
        s: "loc:@actor/FullyConnected/b"
      }
    }
  }
}
node {
  name: "actor/FullyConnected/MatMul"
  op: "MatMul"
  input: "actor/strided_slice"
  input: "actor/FullyConnected/W/read"
  attr {
    key: "T"
    value {
      type: DT_FLOAT
    }
  }
  attr {
    key: "transpose_a"
    value {
      b: false
    }
  }
  attr {
    key: "transpose_b"
    value {
      b: false
    }
  }
}
node {
  name: "actor/FullyConnected/BiasAdd"
  op: "BiasAdd"
  input: "actor/FullyConnected/MatMul"
  input: "actor/FullyConnected/b/read"
  attr {
    key: "T"
    value {
      type: DT_FLOAT
    }
  }
  attr {
    key: "data_format"
    value {
      s: "NHWC"
    }
  }
}
node {
  name: "actor/FullyConnected/Relu"
  op: "Relu"
  input: "actor/FullyConnected/BiasAdd"
  attr {
    key: "T"
    value {
      type: DT_FLOAT
    }
  }
}
node {
  name: "actor/strided_slice_1/stack"
  op: "Const"
  attr {
    key: "dtype"
    value {
      type: DT_INT32
    }
  }
  attr {
    key: "value"
    value {
      tensor {
        dtype: DT_INT32
        tensor_shape {
          dim {
            size: 3
          }
        }
        tensor_content: "\000\000\000\000\001\000\000\000\377\377\377\377"
      }
    }
  }
}
node {
  name: "actor/strided_slice_1/stack_1"
  op: "Const"
  attr {
    key: "dtype"
    value {
      type: DT_INT32
    }
  }
  attr {
    key: "value"
    value {
      tensor {
        dtype: DT_INT32
        tensor_shape {
          dim {
            size: 3
          }
        }
        tensor_content: "\000\000\000\000\002\000\000\000\000\000\000\000"
      }
    }
  }
}
node {
  name: "actor/strided_slice_1/stack_2"
  op: "Const"
  attr {
    key: "dtype"
    value {
      type: DT_INT32
    }
  }
  attr {
    key: "value"
    value {
      tensor {
        dtype: DT_INT32
        tensor_shape {
          dim {
            size: 3
          }
        }
        tensor_content: "\001\000\000\000\001\000\000\000\001\000\000\000"
      }
    }
  }
}
node {
  name: "actor/strided_slice_1"
  op: "StridedSlice"
  input: "actor/InputData/X"
  input: "actor/strided_slice_1/stack"
  input: "actor/strided_slice_1/stack_1"
  input: "actor/strided_slice_1/stack_2"
  attr {
    key: "Index"
    value {
      type: DT_INT32
    }
  }
  attr {
    key: "T"
    value {
      type: DT_FLOAT
    }
  }
  attr {
    key: "begin_mask"
    value {
      i: 1
    }
  }
  attr {
    key: "ellipsis_mask"
    value {
      i: 0
    }
  }
  attr {
    key: "end_mask"
    value {
      i: 1
    }
  }
  attr {
    key: "new_axis_mask"
    value {
      i: 0
    }
  }
  attr {
    key: "shrink_axis_mask"
    value {
      i: 4
    }
  }
}
node {
  name: "actor/FullyConnected_1/W"
  op: "Const"
  attr {
    key: "dtype"
    value {
      type: DT_FLOAT
    }
  }
  attr {
    key: "value"
    value {
      tensor {
        dtype: DT_FLOAT
        tensor_shape {
          dim {
            size: 1
          }
          dim {
            size: 128
          }
        }
        tensor_content: "\270\2543\276\313\031\352\2749\271\223>{\225F\274|\263\234>\372\345\022\275\364\345\234>\365\351\250>\271/2\276\037\226\250>\201(]\274\031\323\262\271\224\324\226\274\213\267$\272\276\267\273\274\215]\021\275j\271\242\274\220s\205\2747Y\266\272\367\032\235\274\272\0238\276\234\000\227>4\\\214\274$\354\227>H\253\220\274\033U\270\274`\262\251>\220\217\302\274*\263\253>\223Q\366\274\r\347\024\274\273^\250\274\025d\246>\350\001\231\274\357\016\227>Q\324\261><x\336\273\351\207\017\275\362!\353\273\255\342\253>\002\261\310\273H\233\230\273\263\376\273\274\261\26788\235=g\273@\240\244\272\301\363\313\274=\231\261>X\244z\274\265\004\371\274\342\224\262>Y\000\340\274\232E\021\274\343\303\237>]\001\367\274\'\334w\274\205\236B\274\355\031\204>{\177\327\273D\316\227\274\3778\037\274\002a\223>\247&\014\274/\023\344\273j/\237>\267\2316\273\325\210\030\274\002\253\365\272\016\355\302\272\243}\231>\027\2545\276\221\026\266\275\207.B\270I\242K\273\210Y!\274\3576\263\274\nR\002\273V\270\246>\264\266\001\274&\t\202>z]\031\275\304-\231>\307\371J\274\220L\265\2758\324}\2744\246\267\274\006\275\363\275\306\023\251>\230\317{\274\233\277J\274dt\035\273&y\007\275\017\233\270\274\267\204\326\272\327\244\262>bj=\274,\351\204\274y\344\241>\362\225\355\274\211\0322\276\245\203\221>\000\0353\276\022{6\276*g\234>\333?\231\274\324mw\274\212\254U\272^\230\206\274\351\354\033\273\322<\276\272\330\377O\274\327C\241>\014j\342\272`\246\253\274k\005\353\273P\333\300\275\010\214\210>\260F\235\274\335[\300\275\243\177\033\274\376|\267>\360\247\300\275\'\242#\273\341\361\206>4<\022\273\331B\245>\375\342\312\273\347L\250\274"
      }
    }
  }
}
node {
  name: "actor/FullyConnected_1/W/read"
  op: "Identity"
  input: "actor/FullyConnected_1/W"
  attr {
    key: "T"
    value {
      type: DT_FLOAT
    }
  }
  attr {
    key: "_class"
    value {
      list {
        s: "loc:@actor/FullyConnected_1/W"
      }
    }
  }
}
node {
  name: "actor/FullyConnected_1/b"
  op: "Const"
  attr {
    key: "dtype"
    value {
      type: DT_FLOAT
    }
  }
  attr {
    key: "value"
    value {
      tensor {
        dtype: DT_FLOAT
        tensor_shape {
          dim {
            size: 128
          }
        }
        tensor_content: "\234\341\234>\000\000\000\000^[\\>\000\000\000\000\261\203c>\000\000\000\000\223\356k>\373\007O>Y\236\232>G\277O>\000\000\000\000\000\000\000\000\000\000\000\000\000\000\000\000\000\000\000\000\000\000\000\000\000\000\000\000\000\000\000\000\000\000\000\000\000\000\000\000L\337\237>%_R>\000\000\000\000pcg>\000\000\000\000\000\000\000\000\314\356/>\000\000\000\000\034\203`>\000\000\000\000\000\000\000\000\000\000\000\000\302\346V>\000\000\000\000\355]O>\035_->\000\000\000\000\000\000\000\000\000\000\000\000\004\224{>\000\000\000\000\000\000\000\000\000\000\000\000\325\007c\272\000\000\000\000\000\000\000\000\000\000\000\000\267\356R>\000\000\000\000\000\000\000\000\312\257h>\000\000\000\000\000\000\000\000\353on>\000\000\000\000\000\000\000\000\000\000\000\000\274\236\207>\000\000\000\000\000\000\000\000\000\000\000\000\034\010l>\000\000\000\000\000\000\000\000i3c>\000\000\000\000\000\000\000\000\000\000\000\000\000\000\000\000\367\272l>\301\263\235>1\326\261>\000\000\000\000\000\000\000\000\000\000\000\000\000\000\000\000\000\000\000\000\013D8>\000\000\000\000Et\210>\000\000\000\000X\005F>\000\000\000\000\322s\261>\000\000\000\000\000\000\000\000G\004\272>\2268Z>\000\000\000\000\000\000\000\000\000\000\000\000\000\000\000\000\000\000\000\000\000\000\000\000\204\275T>\000\000\000\000\000\000\000\000\342\377]>\000\000\000\000\253\002\234>\256RV>o\332\234> \212\237>p\323^>\000\000\000\000\000\000\000\000\000\000\000\000\000\000\000\000\000\000\000\000\000\000\000\000\000\000\000\000L\250f>\000\000\000\000\000\000\000\000\000\000\000\000/6\262>\222\346w>\000\000\000\000\237\352\255>\000\000\000\000\3006,>X\t\257>\000\000\000\000\247ze>\000\000\000\000\271\204j>\000\000\000\000\000\000\000\000"
      }
    }
  }
}
node {
  name: "actor/FullyConnected_1/b/read"
  op: "Identity"
  input: "actor/FullyConnected_1/b"
  attr {
    key: "T"
    value {
      type: DT_FLOAT
    }
  }
  attr {
    key: "_class"
    value {
      list {
        s: "loc:@actor/FullyConnected_1/b"
      }
    }
  }
}
node {
  name: "actor/FullyConnected_1/MatMul"
  op: "MatMul"
  input: "actor/strided_slice_1"
  input: "actor/FullyConnected_1/W/read"
  attr {
    key: "T"
    value {
      type: DT_FLOAT
    }
  }
  attr {
    key: "transpose_a"
    value {
      b: false
    }
  }
  attr {
    key: "transpose_b"
    value {
      b: false
    }
  }
}
node {
  name: "actor/FullyConnected_1/BiasAdd"
  op: "BiasAdd"
  input: "actor/FullyConnected_1/MatMul"
  input: "actor/FullyConnected_1/b/read"
  attr {
    key: "T"
    value {
      type: DT_FLOAT
    }
  }
  attr {
    key: "data_format"
    value {
      s: "NHWC"
    }
  }
}
node {
  name: "actor/FullyConnected_1/Relu"
  op: "Relu"
  input: "actor/FullyConnected_1/BiasAdd"
  attr {
    key: "T"
    value {
      type: DT_FLOAT
    }
  }
}
node {
  name: "actor/strided_slice_2/stack"
  op: "Const"
  attr {
    key: "dtype"
    value {
      type: DT_INT32
    }
  }
  attr {
    key: "value"
    value {
      tensor {
        dtype: DT_INT32
        tensor_shape {
          dim {
            size: 3
          }
        }
        tensor_content: "\000\000\000\000\002\000\000\000\000\000\000\000"
      }
    }
  }
}
node {
  name: "actor/strided_slice_2/stack_1"
  op: "Const"
  attr {
    key: "dtype"
    value {
      type: DT_INT32
    }
  }
  attr {
    key: "value"
    value {
      tensor {
        dtype: DT_INT32
        tensor_shape {
          dim {
            size: 3
          }
        }
        tensor_content: "\000\000\000\000\003\000\000\000\000\000\000\000"
      }
    }
  }
}
node {
  name: "actor/strided_slice_2/stack_2"
  op: "Const"
  attr {
    key: "dtype"
    value {
      type: DT_INT32
    }
  }
  attr {
    key: "value"
    value {
      tensor {
        dtype: DT_INT32
        tensor_shape {
          dim {
            size: 3
          }
        }
        tensor_content: "\001\000\000\000\001\000\000\000\001\000\000\000"
      }
    }
  }
}
node {
  name: "actor/strided_slice_2"
  op: "StridedSlice"
  input: "actor/InputData/X"
  input: "actor/strided_slice_2/stack"
  input: "actor/strided_slice_2/stack_1"
  input: "actor/strided_slice_2/stack_2"
  attr {
    key: "Index"
    value {
      type: DT_INT32
    }
  }
  attr {
    key: "T"
    value {
      type: DT_FLOAT
    }
  }
  attr {
    key: "begin_mask"
    value {
      i: 5
    }
  }
  attr {
    key: "ellipsis_mask"
    value {
      i: 0
    }
  }
  attr {
    key: "end_mask"
    value {
      i: 5
    }
  }
  attr {
    key: "new_axis_mask"
    value {
      i: 0
    }
  }
  attr {
    key: "shrink_axis_mask"
    value {
      i: 0
    }
  }
}
node {
  name: "actor/Conv1D/W"
  op: "Const"
  attr {
    key: "dtype"
    value {
      type: DT_FLOAT
    }
  }
  attr {
    key: "value"
    value {
      tensor {
        dtype: DT_FLOAT
        tensor_shape {
          dim {
            size: 4
          }
          dim {
            size: 1
          }
          dim {
            size: 8
          }
          dim {
            size: 128
          }
        }
        tensor_content: "]c\207>8&~\276\232P!\276^\003\213\276\n\351\000\276\232\360f\276X\t\353\275\312\035\177\276|\025%>\360x;\275xC,\2758\342p\2756\216e>\220\n\355\274\306 \252\275\325N\021\276 \233&\274w\3110\276\010\3729\275\270\325H=\355\017\007\276\020\036S\276\376\212\322\275J\024c>V\251p>\t\377x\276\277\304\026\276\222\333w>8\323G\275\032\351\302\275\300\202\262=\330\037W\276`3\305\274\326\034]>\355H!\276\013\275\222>*\226`>O8\221\276\000e\354\272@\3445>`\374\272<:1E>~%\032\276\232\276]>\344l_\276`?\316\274H\252\261\275\356\234T\276b\362H>p\343\332\274\214\024\313\275\250~\\=j\303w\276\216\"j\276\000\004\227\276$\237\274\2752\212?\276\333\224\232>L\333\322=\026\345\247\275(w.>\230\225g\276\230q\376=P[C>\210K\010=\360\303\337\274\233+I\276\314\360\224=f4]>`2\301\275\014%!>\270\276\314\275\234\326\023>0\034\367=t\200\373=y\214\217>\300\005P<do\321\275\200\307b=\202h\204\276\210\026\001\275X\247\204\276\'\'>\276\270\277\223=\376j>\276\310E\256=\224b\361=\274\313\213\275\270\023\177\275\350\250\r\276L\371\032\276\312\035\004>\374\313\342=\340\233m=\300\r\344;\"|R>\362J\314\275\276\3568>\027\033\204>\026\327?>@3\366=\024\252\300=\244`\343=X\n\353=`q\t>\344\021\312=`\200\305<V%\223\276`\312Y=\324\242\217=\277\275\214>\r\020\201>U\215X\276$\335\333\275@\032 =\206\251{>0\240\234\274\000\257\306;\240\241\"\274V\226\352\275\314\321\026>\336\351i>5\204E\276\250A\026>\036\204\006>@\360\233<\332E\227\276\200\344.>\036A\207\276t\222h\275\030\276Z=@\262\204\276x\245l=B\263J\276\270\341\277=E\304|\276\017\314\001\276\010\3176\275\214\362\">\324HQ\276\255K\203>\200\234\025\274\211\370q\276\310\034\020\276\\x9>\242\237\346\275\236\271w>\222\032\207\275\024\240B\276\306\263H\276\034\212B>J\014\203\275\200]l;\027\3134\276\361C\231>H\245\035>\360)\343<h\350=>`4\206<N+\266\275\360\264a\275\326\337\037\276(t/\275\200\020\031=Lda\276\307\254\207>l\254\236\275Tj5\276(k\030\275\024\276\027\276\200F\022=\336\361}>H\371d\275\255\2241\276*\261\352\275\010a\271\275\270\271\007=\032\217\006>\343\233\016\276\230\357\001>\2606\346\275\202\320u>\340t\250\275Z|\030>0\240\'>\"\000\214\275\321\327\212>x\016\242=\306\214z\276&\322S>\374\004\200=\344\360B\276\370Q7\276\231>\232>\326\310y>\np\n>z\301&>\274\340\033\276q0\203>\263\013\211>\343\257\026\276\013\302\213\276\350\304\245=|\212\025>\310\206\276=\372>z>\370\031X=2\2362\276\032:a\2761\203u\276^\363\365\275\340X\245<\260?F\276\314U\212\276vvm\276\214\244\325=v[5>:\301->\026\024\277\275\360\201\032>\354T\202\275\200=\244=\250\263`=x\010+\275\000\016y\275\326\"k\276J\314\267\275\300,\370<X\362\245\275p\377\301=\242\321,>\320P\005=\255\001u\276\230\357\222\275\362\247\020>\200\225\223;:h\213\276l\027\274\275\370?Y\275\330l\010>\352\332$>\370\334K\275\340x\\\274Iy\016\276\010\000B=8\267w=u\2676\276^\002G>P\350\347\274\000\342.=F\272~>\350\367\350=\221\2358\276\220d\343\274&aN>\333C\207\276\313?\027\276\376!\036>\324E\223\276\2503\202=T\210\261=}\037(\276\363t5\276\000\316\r\272 \235Q\275\020\222\004\275\262!6\276\205\363\203>\303\034\224>\000p*\275`\036\300\274\236T`>\350Y\314=\200O\020\275\270\320\177\275\000\003\272\274\373e\217>\236\333$>\271\375\220\276\341\\s\276\207\246+\276\260J\311=p9T\276\350\214\005\275@\206\355\273f\357>\276\010\244\313\275@\267\324<\001p\206>\332\010\006>c\375W\276\211[\005\276(G\246\275\322\0315>/\205}\276\312\233\210\276\330tG=\000\n\200=\022\346\t>\350\036\r=\2028l>?%;\276\261\237\010\276P\331Y\276\000\233\342:\212\366\201\275\013\t\\\276+\031z\276\351C\207>(\031\226\276\224\377\023>\321&(\276u\362\227>\025\243\226>\362A\223\276\270h\232\276\300{4\276@X\313=\212\224-\276b\227\231\276\326\004\350\275[\002H\276A\315\037\276\260\312\225\276\376\034\222\276H\001@>Ha\307=\346\000>\276?!\202>\252\335;>\214\\\032>\220\337m\276\004?D>\340\365\032=\300\204\311;\346\271$>\254\335\264\275\254\203\334\275$\241\227\275]\216\205\276\250\024t\275\200\212)<9\334#\276\006\205\240\275\340\264a=<\247\214\276\276\222\337\275\206\350\006>\000\304\274\274\362E\230\276N\361j>\260\201\376\274\3042\020>\t\013\203>\267\314\225>\000\362j;\020\006\'\275E\t\221>Z\215\216\276\002\303\211\276\202\225\233\276\2201\340<\360F\325=Be7\276#\317\001\276\004\257\307\275\302ai\276&\311i>\322\374\374\275&\032o\276_\023\212\276\000x\013=\263\010\225>\014\302\343=\244\330\233=6z\343\275\216TG>\342\200b>-\252\033\276\202\010I> \322,\274\276_j>\200Z\220\275\366\223f\276\353\006\223\276\243M\232>\344B\221=\212r\244\275\010\010\375\275b\371m>\370\270\027>\224\253+\276\020\321f\276\354\270\243=\374\300\353=7\346\225\276;\220\216\276\220\'\266<\372\271\017\276zJh>\374\316v\276d\027\353\275@\007\231\273\302\016\370\275\010\010\356=-\373\223>?\n\217\276\340-\254=\354J)> ]@<\306 \006>\324\241\344=\234\227\207=\342\304~\276B#\236\275\344\306\">\2563C>\300\322)<[2\223>6\242{>\270)S\275\237\002\024\276\202\031R>\204\332.>b.a>\330\317?\275\236\333i>\350\243\234\275\220\341\232<nyo\276\250\372\213\275\010Z\315\275\220 \342\275\321\205\033\276\351\252\026\276l\274\024>d\310\206\275\n\355y\276K\010\205>\000w\242;^\234e>\2123s>\332}S> \331v\274\\Op\276\360\340=>\211I\201\276\352\235u>\024d\202\2753\205\230>t_\265=Z\374)>\300\377u<U\351\217>\034\301D\276\220~e\275\360\274\273=\230\023^=\3009\372=$6i\276\364\262\017\276O\033\225>*4\245\275\370\3543\275\000\331\245=\320\315\320\274\335\317\026\276\263\005\215>z\302\002>\\V\373\275\002H2>t \203= \326b\275\375\332\212\276\356\271}>@\006\n\274`\220\227\274J@&\276\303N\207>\264\341(>\360\361\273<\030\253\027\275V_%>\340\014\202<\330\224\003=`\210\025\274\334\220\033\276=\262\215\276`At<J\302U>\233/b\276\300\032\'\274c\270\003\276@b9\2750\211\262\275d\n\227=H,u=\254\337\261\275\224\224\225\276\236\265\033>\344\356y\275\233\343\207\276;\310z\276\177P\211\276\002\302\217\276\302\301\'>\376\341[>\270\341\010=\200\260l\275\322lI><\312\270=\240\374\351=B\220;>\022\361\351\275y\301\032\276\256\000\021>\200\337\307\273\344\022q\275h\022\313=\377I\230>p\265*=\274\032[\276\360\3744\275\340F\033<k\304\217>\303\351\206>\306Tt\2760\237A=8\034\017>\315W\220>\246^Q\276\007\224\214>\362\276\241\275y!\231>H\t-\276\304hA>p\177\244=\024\034\001>\373f\213\2766=\224\276\304\367\205\275~9Y>\200B);\240#\016\275\013\2176\276\3242\222=\014H\216\276\250\241\322\275\376\204\307\275\351\377O\276\000\253\250\274\033\222U\276\203j\014\276\200\356\222<n\006\223\276t\311\022>E\004\202>8\014\377=\355\202\027\276\373\236\035\276\230\306\001\275@\251[\275\032\350\315\275\344\311\356\275jb\373\275\356\345\034>\224n\324\275\264\017\203\276`X\320\275\270l\322=\267\222\031\276\323\313r\276\260%\221=\"\r\001>\240\374#\274\356oW\276\277}Y\276X\334\357\275h\352\374\275&sD\276\236\024\273\275\353\033\215\276$L\033>\252Pt>@\n\\<\260\311\234\275V9D> C\374\274\030\\*=\nj\257\275X\243\264=\246\220j>\270\226k\275\372\210\216\2760\331\317\274\030\231\347\275RO\210\275hY\014>\352\306C>\254T\233\276\020\010 \276Z\222\211\276|\265\004\276\"\3779>H<\005>\371P\212>\351u\226>\313\217\022\276\001d\231>\"\376\317\275\354\270\326=\350\257\032>\321\307\224\276\200\'\r<\033\374\224\276\034\227\265=\350B3\276\337\3104\276\266\022n>\252BW>\000?\017=\364\027\010\276k>{\276\314\354\207=T\277\232\275\014i\r>\374R\255=\354K\335=8\356m\276zo\t\276\000\226\244\274P?\255=\334\275\332=\241\000\014\276\200\325u\274\324\001\206=\334Y4\276\265fx\276\310\t>\275\314V\031\276\211\231\003\276\020\027\366\274\330C\355\275\230RE=\000\367\201\276#+\233\276\220\331\201\274\252\216\201\275@\345\232\276XW\025\275:a}>\"\332\204\276N\233p>\330\365\350=h\203\315\275>\3657>\330P\376=\312\364k>>\362\275\275\261\310R\276\306\"Q>\251P\024\276`\361\302=\210|*>\020-z=6\304J\276@\347\240;j\243`>\344*\230\275\202n\266\275\334\210\004\276V3h>\356\356\351\275<\215\265\275\200\333\223\274|x\356=\223k\214\276\020\252\377\274\371\230\203>\260\206\020\275\303\230K\276\340 \324\274\222\323\313\275\236\004V>@\031\332=\320\234\370<\261\027\217\276\312i\222\275|\001?>+\235\211>\274\331p\276\320\310\346=.W\307\275P/K\275|s0>\224\237\220\275\364K\211=T\346\255\275Dc7\276\341J\211>l\366\'>X\340\033\275\262L\027>\306\nY\276\276\240Z>\304\351\313\275\370HR\275<\002\325\275\271\261\020\276\360\331\243=\2402V\274v\177\340\275\332\307\220\276\246\007k>|\2745>`\026s= ho<^\305\221\276P\366F\275j.u>\246\335H>\210z\024\276\300j\374\273\370\376\235\275\266\306o>0\371\235=\0307\036\2755wR\276$\365\225\276g\264/\276;l\223>\036\217\033>s\273\201>\360u\253\275\353`\027\276\355V\233>\326\312o\276\352OM>\250;\004=v\323g>\ncA>\211$\227>@P\260\273\200\3778;>A\005>\000\261\331=|*/\276\221V\031\276!\2448\276\247\247\233>\205\036\213\276\312{\256\275\356r\016>\260P&\276\332\351\001\276L\325!>EK\034\276\021t\032\276\233\235\214\276\037\020\224>\254;w\275`\233\202\276\212\321\221\275b\360R\276 ;\000\276\236\371_\276\010\334\036\275d\233\230\276\336\241\021\276]\350\231>\340%i\275\000\032;\275\210\241S\276B\275G>\300\006\226<\202\024\025>\245\337\035\276\247V\204>g\036\231>\362\3058>\"\244\243\275\254>\032>\214\365\211\276Xj\341=\226B~>\025v\017\276\020 \220\274`\222~=\250\013+\276\016\365\215\275*\"\003\276\000\331g\274\2005\031\274\000\177\"\275\226\036\213\276\362\233\034>\340\215H\274\031>\215\276,%\343=\300\2467\275\344\312\301=\\\363\022\276x\004\234=\272\345J>\371\333n\276\002\255\232\276\276Z4>x\362(\276\000\200r;\026\323\224\276\300\350L\275C*\220\276\302\247\330\275\216\306\\>\330*\020>\254H\342\275\300\2772\275\306\001\315\275\014\321p\276y\233\202>v\025\214\276`\034#\2754\'\232\276\2209l\276\200@\276;\350\025\344\275\001\036)\276\256m\\>wlY\276\025N\202>\364\327\203\276Vi\214\276\"\243\217\275\020.>= \214}=\300f\017>b1Z\276@\377R\274\374\353\000\276\030\340\033\275f\362\037>@\"n\274KE\232>\370\2326=\020\005\220=\014\363\227\276\360BT\275\313f\227>L\377E>N\376\014>\036U\304\275\300\005\n\275\23642\276t\274\210\276\303\r\227>\256\210\t>X6\352\2758w\033\2757j;\276\331\301\205> \350!<\006\257U\276\030\202\330=\320a=\276\0273\177\276%z\210>\315k\232\276\020d\277\274`C\342<\316\263J>L\311\315=8\2671=x\301\366=\246\251\227\276\037!!\276\000\274\333;\036\362\251\2759\2012\276\242:\217\276P!\373=QE \276h\232\n\275L\326a\276h\212?>\302\344O>:\020`>\327q\214>\332-l>j\2544\276`\017\266<\020Q\246\274V\276q>\'\304a\276Z\230|>@2x<6\374\224\2768\277V\276 \212\266\274\214T\264=3\303\202>H4\274\275h/&>\336\007g\276\336\rV>\240\372\371<\232\3651\276H\3736\275\214o%>@8\002=`\277:\275n\315j\276`\370\366<AUF\276\266\016O>`v\006\275\354\320$\276 \244c\274\224\272\366=\300i\270\273p\323\343\274\220-\017\275`JD\274\322EG\276>Z\342\275\374\030\r>\262\303x\276P\372\267<@\246c\275n\250\013>\000\3673\275DjY\276\005`^\276\036\352\261\275\247>\206>\022r\004>bxy\276\010\222\370=\306?\301\275\262\241&>(\232(\2758\363\244=D4\326=\360]\225\274\204\302*\276\212\005\215\275D\320\003>\304\366D\276j)j>X/B\276R\024M>\022@q>\254[\261=\367\006\216\276\256%\215\276\030pJ=\254\363\r>\000\351\372\273\231F-\276\306z,\276@\342%\274\215\300\225>\240+)<\034\322\361=R\262d>f\206\335\275X!,>%\207\204>\327\233\201>\220\370/=\333F\025\276r\311q>@\323\370=\200\244\320=^\304\204\276\233\001\215>\267\265\203\276\254\300\212\276\n\375\211\276\250f\t\276Bsx>\371C\220\276\240\n\217\274\200[\271<\034\332\215=\361\355\214>\240,\245\274\301(\200\276\257#\203>X\203(\276\307\257\212\276\245\222]\276^\3266>`\225\216\274\240\031\220\276\036\007\016>\263U\213\276.?g>\300\331\230\276\231\341\221> \303\232=\200\361|<\273v\221>\004\233\353=\350z|=LI\226\275`\253\321\2742$\205\275\332-|>\276S\024\276\340\230:\275)o\200>\025\365\217\276\004\251]\2762\251J>\326+`>z1g>DQ\233=A3\005\276\242{G\276\350\006,=\310\325\322\275pI\373<I|\202\276\234\310\226\276\235\013\246>\333\362\240>\222N\312>\036\226\004>\215\007\017\276\202\267\264=\r\n\205\276\214\344\262\275g\273\r\276\214\020\301<*\036\271>\242D\371>Y\357h\276\365r\001?t\n\013>\357{\t\276E\366\223>*FA>\261\262\317>\210G\347>\302\'\">l\n\035\276\020\357\214>\302\247\\>]Y\306>\217\314\223>\322\207\026\2762\226\236>k5\217\276\304\017I>\2266,\276\214q\244>\340\236K\276\t\3402>\342\350\306>e\315\r>\016]\223\274Fr\244>T\224A\275\301\273V\276a\377B\276!\327<\276\217A\246\276d\035\312\275\201o\007\276\305\254i=\276+\024\276:\312\232>\337\024p>\214C\346>\0011\264=\217v\364>\200\002@\276\242\033\031=\364-\324\275\177\002M>\365\230\321\274\373\277=\276\316\335\226>%\277\000?\326/4\276\362n\013\275\224\352\216<\332\243\364>\032\340\233\274\\\027o>6\237H\276\216\341+\276\n\264J\276\'M$\274B(\333\276\371\226\222=\272~V>\207\212\033<\307\036\224\275\225\2458\275Q\010`>\223\252\246>\203\222W=\263\374o\276\272\034\034\276\363\272^\276O\035\274>\360\276\\>\250\337s\275\324\200\361<\372\t\200\276\022\365\257\276\332O\034\275\352\361\310>\031N\221=\205<\234\275d\003\301\275J\221\354\275\232\267D\276\324s*=\\\275\340\274\004wU>1 \n\276\021\300\024>\002\273\232=i\010\247\276\262\236\352>\263o\n>\312\021[\276\247\254g>\214\014(\276G\233f;\235\322T=%\225\036=\337\226P;[\277\002>slY\275\342\245\346=n\0218>~fN>\344\"\242\276\306\'\224>UB\330\275zw\206>\310\270\277\275n\244\226\276\220Pa>\255\327h>\331p\206\276\313&o>\321\006\213>\371M\336=\025C\352\274\321l\220\275s\362m>~^\375=\243\243\255>\227\352B>;h\325\276\222\2523>\272\350\255>\332\325?\274\273\221\n\273\205\316\226>o\020Z=G\265W>\333h0\276\267\025\010>i\243\353\274\016I\004\276\326oF=&\236F=\n\035>>\274\242\232>\236R(>\246\265\352\275\250\021\330=0\006\240=\215)U>k#\005>L\001\005\276\367\274\353>Kw\277>G6\334>\303\307\273=\312\034\240>=\372\300>\254\334\013\276lp=>x\264\031>c\253.\276\321c*\276@D8=\017\024V\276\334\t\371;_G\244>\031\231>>\362\013\256>\367\000v\276`\243\233>X\317\331>kz\361\275S(\371\273\004\321\313>X\274\202\273\262\250\247>\263:\217>V\352\006\275H\224\207\276\204\232\023\276q\204\022\276\230\312!=\365\2533\276(\204\201>\237U\306\275\343\201\031>K\243\273<u\354R\276\201\342/>\320\205\343\275\343\337N\276\2106G\2766\007\214=\030C4>\\u\013\276M\266\351<-_\251>\312R,\276r\023\007<\301\226\252>\220_\032\276\357\317Q\275\261\247y\276\026\247I\276\206I\000\275\333F\344>/\352\n=\037@\312=\301\305T>\246\364S=\346\331\203\275\177\226\366>\033#\367\275s \326<\341\375\302=<5\367\274d9\200>\240&\306=\357\341\032=\024r\222\274\0130\362=\246\216e\2763/\241>\275\310\316\275`~K>\027V\004\276\340\327a>\231\200\247>JQ\205>\006\324\013<\250\200t\276\270}\206=y2\013\276K\346h\276\244J\307>\000\316\254\275\275\206\270>\362\342}>jV\306\275T\250\377>\351\030\r\275q\334E\276\314\250\205\276\321\240\346=\215\273\247>\374L\244>w\261\220\275\252O\206\276\224\267\210>\220G\237=\2508l>|\020\240\276,\343\345\2757\000\216\276D\302\261\275\'\326C>N=\003\277\002+\357<@\223\375=7C\240=\276k\">8\310C>\300\030\"\276\230lp=Q{!\276\231A\354\274\265\326y>\";[\276\345\267\216>\274\244e>\016\226q>\217\264S\276\034\255H\275b\025Q\274\201\245\244>\214YO\276@\032g>R\203\246>\356(\276>\325\335\201>\250\325\023>\223@\202>o\360_\276\305\373%\276\350\355\n\276%\331\024\274Z\353.\276C>\035=r\206{\276\'\274\">4\221&>\340w\303=\275\232\030\276\364\257\307>\356p\257>Oo\212>=\321\014>\232\310\313\275\276\272q=n^P=j\n\315>@z\377>\273\252l>\350\202\321>p\255u<`\323\252=\233e\255<n\007\330\275\336\257\262>\0269\204>\024\017\220<\227@\210>z\370\347\273\177\014\213>\222\212\372\275\352\006+\276G\355\004=a0\350\274/\030\217>\026}\326\274F\200\267=\204\002\036\276\356\214+\276\221y6>5T\205>\233\373\342=\037.\202>pT\204>\223=\302=\356eF>!\237\214\275\257\365r=\344w\226=t\226\267=CS\260\275\346i\321>a\037w>\365\361\006=*\031\202=\244J\205\275<z\007\276\362\374\221\275|\2665\275Y\215\231\276\366\230\304\275\244P_>\234Z\203>\265\211P\273[rF\276\004\231`\275\005/\255>3\020\231\276\316\022\276>OF\213>\215\366\364=\226\203M>+\315\350\275yq>\276%\324&>\342\246T>\241\230\262>\235\307\353<P\331\260>\231\305P>c\340\250>()/>C\342\034>\257\331=>+\361\250=x\350\204\276M\336\031>U\362\266=o=L>4{g\276t[O>J4C\275\214\236\322<R\331@>K\347\243>\334-w\276\307G\025\276r\203\303\276C9#\2769\355+\276:\300\207\276\354\265\315=G\036\205>\004D\030\276A\277\213>\t\031\306>\335\246\250\275\327\230\347>\201\206\307=\335Ht=$\351s\275P(\330\275\313\231\273>:\212\374>\272\277\201=\305\2352\275\246\252\222>\220\374n\276\364\335\r>\201aP>\234\212\224\275\221\'y>\"\001\210=\265Y]=\275\225\273>#\033\277>\352Pb\276\027=\212\276\312{/>(T->\303\032%>\tyb=\274\207\247=P\030\207=c\361\232\276Q\033\357>\331Hw\276\247\334\306\275\240\250\177<\013\004\232\275\261r\224\276\255\314\322=\232\206\360=\262\213\214>\240\200&=\013\313\364=\'\302\364<\207\377.<\000=e=:\226\247=\033~\246\273\230\221\345\275Y\2301\276\276\270g=\205\233_>l\301\216\276 \327K\276\256R\215=x\222\222\276\377\327\017\274TKN\276\213\021\236\276x\023d\274\210\275\\\276\307\357\370\275\370Q\220=\243\001\232\276;5\203\276C\252!\276\354fW\275\273\234\302>\271m\207>y\033\252\274[\217\222=\337h\367\275\317\217:\276\023\245\261>H3\326>\246\r\017\275U\314v>qk\'=\t\251=\276\271v\310\275C\013\020>\027\213\306\275/H\005\276\303\223R\276\007%\313\275\234-u>zHA=\360\201\311>.\331\267\275\357}F\276\210\n\305<\317\330&>\225\013\300\276\340P\014>\210\244\273>\333\246\210>a\3474\276{\365\216>\202h\247>/-\024\275:\020+\276\351v&\276\221=\366\275\244%\037>1\341\336=^\301\235\275\025\356\374\275\035af>\305`0\275VH\026\276\372\351\231\2752\350A\276QM\250\274\377\353\033\276\225+~>\275\357X\276j\035o>w\365W\275\361#\037\274\370\303\021\276Q\221F=\326\020\257\2759\023\277\276\273L >\2033H>\345h\366\275\003\212\315>d\334\264>F\004\371\275\014I\031\276>z#\274\365\222\231>c\007\032>\314\220\007>\t\340\210>\'\177>\274]V\311>;\2471\276\261\327f>\341\327\314>\350\236[\276\036\347%\27586\325=L\345\343>0\2751\274\313^\355<\024Z\327<\023\365\305=\256\035\352>\273\213\202>z\276\254=t\240\300=Iir\275#s\265>p\313\n\276\231\357\245\275e\232E>0P\007\275K\257\227\276\370\344\006>7\360\032>VF\233>\247Ph>\264u\301>\345\307_>\010\236b=\223]\272>\275\010\026\276D\376\270\275I6\325=\306\272\204\275\314BS>\356\"\363\2750\033\313>\256\366\241>\310S\222\276\252K\005=\344\360\005>k\333\263>\r\352\212>\013\000\252=\203\251\250;\013\005\224\2736u2\275\333\213\222\276\017\305\177\275e\376\241;\237\322\003\275\201QF>>g\010>D2?\276j\326\003\275\327\'c\274\325\024\202=\204\"\323\275^v!>\032z|>\261\225Q=\225\340\004>\235\335\334\276\2719E>[#\016=\017\001,>/\334\250=\342\247\257>\317rI\276\'}m>u\362\177>\306\330\205>\361\270\020\276\272\027\223>\335\360\250\276\2615\025>/Og\276\255\322G>\366?\206>\370\250B\276RO\014=[\261\224\276\331\330\344>MK\203>>\322\367>k\2643>\025\314)\276\254\351\351\274\365\360+\275\352\352d>\02768\276\340\366F\276\274<\344\275% 0>:a\314>\242\376\233>\275\033\275=\024b\337\275\ni)\276`\220\225\275\261\276u\276\0109\257\275wd+\276\332\250\301\276\246\3760=n\252\233>!\364\270=\274\010m\275{\002\277>5\346:\276\002\2077>EG\224=\336^\270>\227\341.\276\034\003\260>\305\370\231=Y\334\305\275a\370\233>\372[^>\213p\256\276NF\261>&\205\227\275&\332\214>\221\006\327>\223\014\277\276\223f\306\275\224\007\233>\314\036\222\274[\326l>2\370\250\274\332\252\030=\321,>\276\"*j>\243H\247=5H\241>\376\276\222\276\361\274>>\210\271\026>Y\225#>\236\014\243>\205\027R>\233\330\227>\344r-\276\273\255\226\275\025\034-={\327k\276\022\204?>)\323\241>\360\035\033\276\367\035T<\317\300\332\275\020\211\276=\341\034\240\275\000\rI=wj$\274Pg\220>b5P\273\036\341\300:\312\337\270\275\345Ke\276\324\353i;\262\353\332>\342O\326\275\364W8=\232\352t;\230\223\305>V\231\245\276/\326\266\276\206v\237=\326\233\035>7\260\226\275\340{=\275X\373\243=\334\316\016\276A\017\260<\321}\357\275\215W\211\273f\307>>\211\007\\\274\200\324\304\275m\372\372<\016\255\267=\025\251\033\276[\231X=\003T$\275\035\034y>\236\000\301>L\252\306>7\3335>\027x\t\276q\345:=/\273\375:\355};>\241\211\340>=\365\227\276V)$>\350\370\013\276\350\324(\276d\0219=\245\016\330=\2136D=\257\357\261\276\252\272\200\276\037t\'\276\274\244-\276\2577\246>\201r\270>\274\351\310=ef\306<ed\210\276\233\332\035>\021\216h=\347}]\2750\034\365=p\257\324\275\211\nj\275\0361\352=\217\272\236>\275\341\377\275j\241k\276_\221\242<\205o}>\021\361\230=\357+:\276\323\274\317=\\\227\300\274x\352G\276D\211\300>\374-\221\274\022l\321=\340]c>8\003c\276\307T\321>&_\226=\035\307\352\275u\024\372\275\351\317D>\354\372\024>\200\261r>9\030Y\276du\212>Y\357\022\277\201)\320>\325m\357\275Z\317\230=\306]~>\256\315\000\2764\307\227\276\021\235\">b\t\322>\002\204\224<\226*\305>\230Jv\276\276?\205=\366\315\366>\220;\335\275\266\306(=\270\376\366>\215\236\345>\216\014.>\215\310\207>\\c\016>nv\335\275\236Kp>\215\301\353\275\221\240!=R\377A<\032N\033>\320\n\357\275\367\352\014?\351\037\224>F{f>R\255\300=\002\206\366\275\014\331\304\274\254\360m>\3770?>\363\251\241\2767rz\275\334\344\224\276\276\017\332>\232\020<>\346Y\323>\372)\246>\340#\315=\036\'\347>\373\336\252>\367a\241>\216{\273>|zA>\202MX>\347\271x>\331\347\002?uV\213\274\313\020\223>Y\201S\275^ .\276\375b\004?bC\203\276M!\035>\007I>\275\007\211\330\275\021\261\246\275\337G\202\276\264\t\220\276\321\247\036\275\213\304\037>i\227\365\275\365\263\245\276\206W\233\276\022\035\200\276\205\036\317\276\342\007\337;i\034L>fv?>\301\010\001?\\\327G\275\330x\271\275^Wd\276V\246\026\275\036V\214>\036U#>\027\021+\276\226\373\362>Y\211\222=\207\022\026\276\227q\246\276\266\001\277>\220\005}\276wb\210\276\365\335\233=bdd>\261M\205\276\"[\352=\256\034\004=\3573\310\276<e\301\276\354\250\251\276\255\225\373>j\336\306=G{\275>,\257\t?G\\m>\305\025\327\2754aZ=]\253\371=\000\0360\276\004\352@\275\254\321{\276\301PH\275\367\225\201>\210\222\225>\374j\211>\267\253 \276\325\324\211\276\313\317\357>\356\207Z\276\0170\256\276\367o\013\276\377[\260\275\305V\001?\232\263\277<|\006C\275$^\254\276\265\003\215=\2032\035>W\347\272>t\246\351\276\211}d?\311\352%>k\331Z?1x\032\277GI\207>\336\302&?\310\t\273\275\330\325\373<\244\221:?\300Va?5\032\355\276Q\314p?\353\023\334\275X0\034\277 Xl? \211\325\276v\243\021?L\236.?\255x9?\2214%?\3602T=\036t\027\277\004\223\306>\333~\025\277^\262\'\277\346\333B=FT\004\277\370l\006?\340L\206\273\213\263\\?\025\224\026?\305%\026\277E\340\327>b\206|\276g(\026\277\311\237\200?#\356\013?\037J\317>\244\373\261\275\312\215\253\276\307\366n>`\262A?\000;\216>A\255M?}\025\031?\353\242U?\343\031\203?d\350\376>\005\023F>\014|N?\245\335\036\277\262\220\347>\231\3124?\273\277\037?\274\002\375\275\325vv\273^\025\036\277\021D6?\367\316O\276\371\014\030?\rb\027?\001\2431?n\266y>\022\014\243>9@@\274/\365;?^p\r\277\325t\306>\333\010\251\276\207R\201\276\353+h\276p~\274\276i^0\277\253P&\277P\3757?sEz?B\001\006\277\210\277\372\275?\025}>\225P\207\276\267\304z?V/\317>\366\205\001\277\216\332\271>H\225\253\276\302\232\262\2768b\201\276\335\036=?\346\257\213>\'\255\016>[\205\274>\377*\t?\334J\203\276\351,}?%bh?\333\360H\276&<\325\276\000\007\217>\210\246U?\207\273\251=<\323$?\253\263;?\364\377\311\276\367e\330\276t\235%\277\304<\r?\'\336\232\276\027N\350\275\333I\246\276\"\376;>\004Nz?\275\315*?\010yo?\\\005\016\277H\371a\276-\332\203?]\"\221>\356\305\312\275.\234\362>\231\024\324<6\003D?\352\315\254>\260\335\322\276Y\363\272\276\264\332g?NC\006?\r)L\276\350\357\353=\365\\\203>R\305\t>\032O~>\226\265%\276q\335\226\276\360G\003\276J\r~>\330\331[\275 \301\323=b})\276T T\276\1773\202>U\032/\276<q\227\276\tT\007\276XQ =\300\217!>\264\343\363=(\'\353\275\250Yt\276\365\n\230\276\207\304f\276`\322A\276\350\271i=\346\321a>\301|\222>R\267=>\314%7>\320\222\232=\004\212~\275@Ko\274\252\221\323\275{\234r\2765\303\031\2761\355\205>{\016\035\276`\230\361\274\370\221\200\276\236\361\\>\270D\335\275\230\250L\275\201\271\233>(\2030>\017\356\221\276\310\254W\276\320\326\314<HF\367\2752\326F\276\355\276\212><\245\301=\302H\226\276 \013\">O\314P\276\224\324,>\316\311\221\276`\226\'\276a\276&\276\200~\"\273\340\304B>\340\305\227\276\210\220\233=f\255\005>T#\235=\0247\005>\250]L=\220v\221=\000\205\332:)9\214\276Y\207K\276\304\276w\276\331\355\220\276f\257Y>\352\375M>\360\376\333=p\247\024\275\260=\210\274\2129\206\276\324\351@\276t\342\341=\231\267\231\276\302\273\217\276\240#D=\230\017\013\275\270\264\342=\2564w>\260\326\306<\370K\013=\320\331\365\274 \256\346\274*\301h>\000.\250;\342\357\201\275\336\032H\276ji\334\275\010\241>\276L^\220\276P\362\251=\3343\372=p\274!>\030\377\023\275\017\365\006\276\014\221\235=\310\244Q=\242\354;\276Dk\244=\224l\300\2758iA>\000\243l\276\220gX\275\345\361\217>\300\014\320\275/E\233\276\262\321\206\276x+Z\276\327\010>\276\3765O>\240\353\177<@\214\n<(\013L\275D\267\227\276h9>>\346\220p\2762\267Q>9\303u\276`}\311\274\244(\241=|\336\226=\310\253\204=x\364\370=\362n\250\275>\202M>L\337\340=\344\2041>\2404\323\275o\337\010\276\200x\207;\330>\356=h\027\351\275n\022V>\210\210\027>\330\302\025>\014\354\354=\237|L\276\360\311*\276\222t}>\206\271\035\276\300\031\314<\256\212\266\275\310\203\314\275\022m\177>pIE>\354\311\025\276\355o8\276\360\234\267\274\200\340q\273\313\rO\276j\216^>\300\250_\275\t\235\020\2767,\220>\241\311\231>\020G}=\322\322\033\276\016\214\205\276 \257\345\275\200`\333\274\200$=;\337\355\232>\270C&=P\245\233=0\007\000>fC^>@\256B\274\255_\231>\276=\213\275\232\365 >\222\014K>\npI>jG<\276/\316\203>\020\360\301=\360\213\"=\026T\241\275q\014\201>H\236\t>\254;|\276\212\tz>e\232\224\276\200\311\207<!H\234\276\232\331W\276z\203\305\275\240\031\250=xyC>Zln\276\023\224\234\276\210\355\261=.\341\022\276\360\032\233\276\270\326\r>\260X\361<\366\022\272\275\343\343\217>(|l\2764\032?\276\03096\275\356\212\352\275\236+\312\275\336\017L>De`\276p\'\332<\350\247\251\275\312\260\232\276\n\245q>\212\246A>\0060=>\026\013\007\276\356\214E\276p\363\017=\342O\353\275\240g\034\274d\235\203=\005\244%\276\025\360\211>\342\037\343\275\330\265\006\275\272Q\025>fjF>\357\3172\276v:x>\230a\202=SPq\276\314\221\262\275\002o\237\275\311/)\276\325\2756\276\000_\254;\177\302^\276\256\305\317\275\030\327\317\275!1\226>\320\354\216\276\310\037\017\275\235\264\224\276\240\216Z\274\232=B>\020\225\277\275\3109S\275\001\004\216>R\322\246\275V\0223>Ni\237\275FM\020>\375N\230>\277\266\223\276\000\004\031\273\371W\224\276\236\216\221\276\212\213\206\276\300\267d=\224\020\212\276T\350\242\275\030\313\004=\200\027\203\275\004A}\275\013\317z\276\026\273T\276\010\304\005=p\000\331\275\\VB>\310\236\036>\036\326u>\236X\213\276~\267(\276\263\316\036\276\376\3013>[\352\013\276\214KM\276dpW\2764\201\371=>*\\\276*\001\n\276<\227\257=O\2666\276&\215\215\276\326oc\2766L|>\200\373U\274\300\365g\274\240\370\344<\306\305\215\276?Z#\276~\257\227\275\260\316\222\274X\215&=\310\220\254=T\220\375=\242\2776>\000 \322\274\206\0026>x\214@=k\301\234\276\\\366\006>\n\020s>//\222>bt\233\276)\"\205>D\344\362=NMX>\260\356]=:\030@\276\375\036\223>=H\220>F\264\r\276\004\211\245\275\2151\213\276\350z\227\275`\324!=\364\350\234\275 \"5\274\024.>\276`\264V<\370\323\321=\272\005l>\274\014\216\276\256\032c>P\2752\275\330\001n=\300\341\'>\016\305{>.)d>Z\373\r>|\001\375\275\236\232\336\275\310\030|=\374\340}\276\370\034\013\275\215R}\276\302\314\006\276<R\220=\016\005\034\276\366\000\353\275\3409\303<\327\276\220>V\303\023>\030m\204\275\177\327W\276\332\215\340\275\004-\"\276\000b\237=\200\225.\273\2723z\276\366zG>\014\334\325=o \037\276\354\320\351=+\370\201\276p\005\333=\2406&>\212\267[>=\315\222>H\240\300=D\025\263=\370\323R\275\356\203@>\0000\r\274^8I\276\230\212T\275\223\306\200\276\220\034X=\344\035]\276B\213\'>\240*L\274\030\2776\276$\316\003>.\340x>\202\334\354\275\323\251\203>\030t\262=\335Q\206>\305\004\234\276r\'\210\276\226\300V>:\217\256\275\334>p\275r\357\334\275\252V\211\276\250\031\334\275\340\370\016<f!5\276\306\327V\276\324&Y\276P\371\227\276n\363O\276e\340\205>\302\213~>\210\221\364=\240\026\013\275\377L\223>\\\022?\276\226\372\344\275\210\224O\276\000s\007;\020\272\374\274\311\277\215>j\027\226\276\331U\200>\036\330L>(\327a\275\344\273\217\275`E\336=\200\256y\276\220\216\207<V2R\2762\332p>P\205\016=$\305\260\275\320\024\311<Z\231\332\275\212\2645>(\375l\276\254\361}\276\253V!\276\273\305\217>\272\234B>\350(W\275 \277\002\275\304\270\210=P\343\016=\342B+>*\356&>U\231\216\276\240\264\271<\372V[>\3272\031\276\'\000t\276\356\311\016>\020&\354=\374y\376\275\346(\233\276\252:\226\276N%O>@\"\027\274\020\255\327<\200\304\324=\006\353\217\276\322.t>t\010\304=\000t]=\320\370->\340\337.\275\306]i>\347\270P\276\n\230:>\326\301\231\2760\200I\275\261\270\234\276\030.:>\000\006\356:\226\250\021>n\322\007><S\346=d\343\310=\337\301\226>zQ\226\276B\217\231\276f\254\006>0\030\337=\326\350L>\306\253W>Z\3325>\362\251\004>P\354{\276_\321<\276`$\361\274j\035\020>N8\353\275\312\371\215\276\360\262\035>\214\350\310=\342\210\257\275\210f\313=Jbl>\230\231\251=\024)\226\276xOZ=9\313\205>\300 \237;\002\266b>P\247@\2764@\024>\210\220\n=`\310&\275h\2034\276dB*>&\023C\276~RW>\334d\027>\264R#>\266k`\276\000W\004;zf_\276|E>>\000)\025\273\205\372\227>\320MZ\275\rj\033\276\325\301\207\276\016\361{>\000\225G<\364X\222=(\\^\275\227u\225>\365\026\224>\006\004\t>F\'\232\275\\C\310=\340\275\366=\3322g\276\266.\302\275\316mp\2762\3043>\203\273\202>L\353\212=\240\342\207=\354\266M\276\000\0164>\240\246\003>9y\205>\346\310r>\250\016\216=h\214\030\276\236\364\315\275\326;s>\210\267\275=+Q\230>(\245$>J\305f>\254\233\233\275\270\0320\275\346\234\325\2752\024V>\351_\217\2760I\262=\220\362\300\274\031k\201>\302\024\202\276\350ml=\342C=>\026\021\205\2760wV\276\360\310\222=\334\356@>\251\242Y\276u\n\200>\021{\215>\303\226\233>h\277<=@\271\330=\252\001\026>jql>\257L\210>v\221g\276 W>\274a\350\026\276D\347H\276\200\215s\2731\252\215>\373\220\231>\020\245Z\276\230p\216=x\014X\276\037+=\276\342\031G\276\213E\223\2767\304V\276 \257/\274Db\360=\215\240\234>\372M\014>\020\177M\276m-\204\276\244\301|\275<N\327=\002\245\373\275\330\240c\276P\232\206=\300\273g=\264\206l\275\024(\210\276\360y\220\276\300o@=\360T\215\276\200=\027>t\221\010\276\001\220\202>\240\246\267\275\304\200:\2762\366]>\200\350\361\273\230\352\351=\010\001\307=\220\013\036>\224\\\215=[\337\031\276\344>\343=6\200j>\010N\313\275 \344\006>\356\305x\276r\352\t>\364\252\341\275`|\216\276\221l\214>\000E\260: 7\256\275pV->\242\311G\276EQS\276\270Ci=0\270\274<N\202\267\275\314s\321=m\346\202\276~\024d>\332v]>\013\207\217>XG[\276\016s3\276\264\304\224\275X\nv= \227j=\246\025Y>H\212\026\2759\341\214>\270\203\325\2750&\202=P*\177\275\355\217\201> \370\033\275r\032R>j\223\326\275(\014\001\2760o\271=(\344\265=\000`\237=\207\033&\276\241p\021\276J\004\005>0f\232= C\266<bL\216\276X-b=\226\r|>\263\261\223>\370\366J=\032\200\203\275`\031%\274\300\007:=\216Ba>\355.\234>\2309(>]\177\216>\311\331\027\276y\256c\276\200\220\330;*\337\223\276\200<\212=\000\217\274\274`\001[\276\334\262\r\276\020\034\271=\306\270q>)\202\201>0\324\'>B\005\367\275\000\355\325\273\237g\230>\266\016U>\224\300\205\276\016\206\">\335\233\210>\010N\230\276X\\\254=\320*\031\275\312\302a>\310\374\001\275\300Wi<\207N\224>\254\236w\276\016\204\233\275\265\026\225>\234\026&\276x]\251=S\004\222>\003\375\216>\214\355F\276@3\201\276\350\347j=p\n\250=\030\017\364=j\276\003>\024S3>\035j\216>\372cs>\250\204P\275 \340\013<\000\372\230<\000\332a:B\3342\276J\210\010>\364\006o\276P%>\276\232\022\024>\252\335->\324\301\227=2\n\033\276\360\322\354=`%\213\274\362\362\013>\334\027\321=\004\004\333=_\"F\276\351\3651\276@\\{\276\360]\257\274N\0130>\334\215\355=H/8\276\216\263d\276\024\252&>\210\3424>\213\343\216>\214\0202>J,\271\275x\316H\276\3664Z\276NY\272\275z\357\032>\365\010\206>F^\017\276\375\036\221>\364L\201=p\n\250\275\340\334B\276*\275O>\rR\201>\343\337\211>hMJ\275a\302\216>p\226\337<BEc>\230\253l=\364d\005>\026&^>f\336\204\276\316\177\377\275\300\333\361\273\034b\204=\260=\243<|pl\276\002\032a>!%9\276\2741\213\276\354\220\316=\217\004\202\276\220q\330=Ha\303\275R\266R\276eC\206\2765\310\201>>@\222\276\002-t\276\360\320\332\274\034h\017>\007\243-\2760\261\342\274~\021l>\363\030\n\276M\034\216\276\016w7>\216V<>\3369l\276\350\213\020\275\213.\003\276\300FM=4X\237=\022\254\235\275\230\302X\275\342XE\276\336k8>\260Q\344\275.\273\355\275\240\214\330=p\255+\275:\033\210\275 \346\334\274@x3=\000\023\237\2752\272w>HV\002\276gy\210>\\B\002\276ex\215>\247h\227\276\032]1\276p\322\373\275\346\250)>\031\227\201>r\276y>\270\317\">\366.\221\276d\365q\275\260\367\316\274\310\313\364=H~\\=L\005\177\276XT\205=\204s\215\276\266*\020\276\240\371A>X-\277=.\216\206\276\320\322+>\034\201Q\276xJK=\376\243\365\275\336=\257\275\314\275\032>\240\220]\275\026\'E>\262K0>\000:,\272\232:e\276\274}\314=e\017\r\276\000\353\307\273\206\203\020>\036\256\321\275\n\241k>\016\005F\276\320\226\007\275c\227\014\276\000\273\216\273$\n\'>Z\235^>@\255\362\273\320\242\'\276xQ,\275p\016+=4\023\240=\353\210\210\276\370\324\252=Z\264\013>\0002\352:\220\347\r\276\020n\210\274^\264\231\276x\314\010>P\201`=b2\321\275\374\'\r>b\246F>\026\177Q>\320\003\251\274\n\224\014\276\312j^>\3202\206\276T\341\033\276\000\214\245=\272\300\224\275\332\241:>\356q\\>d+\025>H\2412=(3\001\275h\340\226\276\352:\334\275\225\2064\276@g\253<\020\007\240=\337:\217\276\204\332\350=\314)\334=@\231q\274\240\177\017\274\340Y^\274\232\256\333\275\000[\316\273b\363|>\335\370\214>\\\276\214\2760\n\301=2p\206\276T\010\230\276E\237\204>\264\214\331=j\247x>\314\302\030>0\037{\276T\210\026>\002\341\310\275(o=>q\221\207>\224\336\022\276w\246\037\276\344\374\'>\370+\231\276\32266>8\347\262=0\224\203\276\216\2560>\227\275\201\276\250$&\276#\236\214>\010;\001=\200\357\274<\360\301\324=UW\200>\037\352\036\276T\374{\276?\271\202>\032\201 >\020\030\330\274>\217\032>@\tZ\276t\326V\276*5F\276\351\261U\276b0~>\025\226y\276\300\200S=\200?;\276W\024\220> \'\022\275`\222\302\274@J3\274`\201\270\274Y.Y\276\317\036\223\276\320\016#=$\032W\276x\026\023= \004\021\274\310\246d\275\311Y\202>\300\322\354\273@\246\273\273<\361\317\275e\312\200>\204\241L\276\300 #\275\246\203\361\275$+\256=\200\351\320\273h\350\210=\350\203\024=@\375g=H\031\031\275\376ys>[0\225>\200Ee<\256\215m>\366\\\225\275\003x\r\276~\250F>\374\366\242=P\220\237\274\300^\325=DN\n>t\010\254=\372\346s>\253*\006\276\273M\222>`\344\217\274Xx/=\237>\205\276@\245V\276\357\2527\276D\202L\276R\240\004>\316pW>\252\014h>\370\013q\276\364P\314\275z\n|>LM\005>n\352;>P\014P\276\226\235\027>l\355\033\276CZO\276\026\016\251\275\370\226\014=.\227H>]\256\222>Tm\215=pw7=\346\035M>\020\234\201\276\240<c\274\276\223\223\275\240\025Q=\030 M=\372\226\211\275\264:s\276\032\013Z>P\277\345\274\256\177\356\275\274)\214\275\213\031\217>\0040\316=|\345\365=\210\315g\276\250\r4\275\020\230\350<b\036I>\200F?<BJ\363\275n\215\353\275Z\346F>\004\216\224\276\360$3\276|\223\204=\000\257\334;\"\307:>8z\223\275p\021Y\275Q\034\230> \225\343<\360\221\203\276\375(\014\276\200]\022\276&\037\n>\216\313F>$A\016\276\322=y\276\3761q\276\262\223\323\275\243\260\005\276@\260\267<\020\340\225<R\244y\276\022\002 >\214\326f\275\000@Q;J\256W>\324o\202=\230\277\362=\260\276\314=2\022%>\242\262\023>\242\021\217\276\3064\035>E\337\230>\014X\364=\312\317t>\200\375\354=:\342n>\270\363O\276@\206J\274|\363A\276\332\"1>&?\206\275\254\231\034>\223\221z\276\310w#\275\204+r\275\000U:\274V\205P>|\344\323\275\242q\014>V\326\">b\307\016\276\30684\276n\363\225\276\007\275Q\276`>^\275\311C\231>D@k\276\244+ >\000\005\014=j\237\r>\230gb=\362\\\'>\254\202E>\265\313\220\276\027t\214\276\200\031\026\274\010\225\362=d\336\302=\033\005\220>\356\224F>\272\323{>\322fL>sf*\276\030\221Q=C5\226>\276\226\335\275\244\213t\276p\306\365=\376\353I>>\006+>\014\305\364\275t\006\201=\225b\223\276\266/\034\276?$\227>\372(\003>\000Bi\274p\342\375\274p\377\232\276\251U\234\276]\327\227>\244\204\"\276\264\002\034>\320\203:>\236\304$\276^8\215\275h\001\031>0u\211\274\000\320\t>\000\236\275:\242J\251\275\240I\032>)\276\222\276*\227\032>!\232\210>\030\226\312=j\214,\276\306>\234\2768!P\275n\255\025>f\215\010>\001!\226>\340\014B>\334\2570>\240\235\350\275\273j\216>\377\240\016\276\016\244+>\\\362\233\276\372\201#>p\263:=\035Dm\276\205\273\201>P\206t\275\310e\344\275\007\013e\276m\361\223>\037\276\211>\204Zr\275^F\022\276\010\373\004>\230~3>p\256\202=\315\257\202\276\004D\232\275\306\200\207\276j\255\010>\234\367\200=\032<U>\216Uq>\262\026@\276\371g\232\276H t\275\233\321\202>\325n\225>\274\016\362\275\237\305\205>\230?(=\023\236\211\2768\362\031=\362\224\\>\220\220\261\275\270\224\013>`\225\351\274\260\313y=\320\035\325\274\261\025\213>p\243H\275\005T\223\276\250\262\027=\302\tW>\261S\217>\262\353E>\240\031\007\274M\013\204>\300\326\021\275UV7\276\346\327v>(r\004=\272\261\213\2760\332\335\274\211\253\203>\\\364\336=\200\276\302;\010\317\373=0\031\026>Bu >lq\321\2758lT\275\310\000U=0\020\014>\346\274x>+m\230>\200\010\355\273\275#\233>X\205\222\275\330G\353\275\226/\201\276k\325;\276N\223\017>8$\213=\205\306\212>\367\340\230\276\n-.\276\253\354\211>\342\361B>\001\033\226>\325r\232>]\262\017\276:.\206\275\301\032\026\276\2103P\275PrL\275W\370\211>\276\002\"\276,\357\024>\203\374c\276@\334A\274\354\007D\276 \236\035\275\231Ut\276\037\005\227\276@\273\270<tz\237=\336\037l>\360o\362<.a\003\276*\342Q>\246\272\326\275u\233\220>\200\021\310\273\270_\320=\230\327&\275\240*\r=&\260U>\004O\247=\021G\207>o\350\230>:}\177>8QX\275$\327\333=\n\217h\276<\351\365=JWT>\3026Q>\370QP\276r\034\r>XB\006>\2509\253=\347\206\021\276\265\332\205\276\330XF\275\314\033\363=\226\203i\276\373B\227\276\24601\276\220^\277<l\025\346=\216\204\204\276\301\376$\276DWB>\377\n\227>\340\357t\2742V->4\265n\276\250\346\032\276\230H\004=~]K>\200\252W=\220S\252\275\256\032u>\257\332\224\276\233n\207>b\217\266\275\224\014/>2i5>.w\031>r\220/>\252\252\001>\343\222f\276t\340\243\275@U\035>\320\017\335<\244\347\023\276\260\320\375\274L~\226=3\204\001\276\000]-;\325\224\211>\374\273\032>\272,\t\276\353\227w\276\250\322(\275\252\322\252\275v\344$\276\270[\306=+\260\217>\331\225o\276\200\271;<X\007^=\220\310\377=\317\364\224>X\360o\276V\000R>4\232\227\276s\035)\276ptJ\275P\254\320\274\241\240\211\276`\350f=L/\336=\205\007\225>@\270\232<\300\023\261\275D\262$>\000\224\267\272\242aD\276\310\353Q\276\252[\222\276J\037\214\275p\007\320\274\300\374\375\275\220\024\031>\261\257\'\276\263\266\201\276\360\213\246=\274\037\271=,\233\227\275v\323|\276\231s\233>\204\355E> \255\373\275\272\321H>\222\246c>\236$\r>\240K\357\274\320\367\316\274\222q\367\275\003\010\200>\240\027D=\021\3021\276`,\016\274\227-\220>P\324!=P\212\212<T\305\201\276@c>\275H\234\301=\354\3209\276x\025\216\276\200\311@<\320\345`=pK\257\274\000X\204\271F\031i>\370\"$>@\035\005<@\262\246\274\3013s\276\320\372>\275\2203&=\247*\231>\260A\246\275x\304\373\275zEZ>*\210;\276\240W\r\275dJ\217\2765\254\233>\262\306\253\275\251\333\021\276^\t\215\276\220\301\225<\317\222\201> ]\220\274B\036\\>\000[\214\276\232S^>\2205\312=\\g\022>@\233z<<\030\013>E\234\223\276\364\334\207=\372\224\364\275\022A\036\276\330\017\035\275\340\213!=~\324B\276,%\200=[\343\035\276;\010+\276\303\332\230>B\272D\276dH\006>\020\273\276=\300B\323\274\000\020T;\263\032\212>XZ\021\275\330\257#>\"\257\002>_\312v\276\220tF\275fyF>\242\323F>\340z\024<]]\214> G\231\274\310\274Y\276\010\017\234=\345\021\026\276F\"3>\262\016\024>\032\306+\276\220\371\001\276\005\367\214>\200\032\r;J\321\035>\236\335\004\276\270-\020>\352_->H\257v=\030\251\310\275\264\331\256=\177)X\276\331\257\230\276}\264\206>0\2544>\243\223\222>0\344\037=Jm{>NY\367\275\0229~>\252\303\367\275\332J_> \220\202=\310\221b\275\370\3519\276\316<\213\276\000d~\274\362j\301\275 U\t>P\357\361=-R|\276[\224\226>\025\"\221>\360\360V\276\024[\260=\320\275\263\274\0001{;\312\362g>\276\331t>NYZ>x0-\275\322E\363\275\030\330\337\275\200\206q\276\340\304\002\275\010%K==8\201>\300f\236\273P\0143\275\330\024\034\276\320\034\262<\216\341q\276\030\255}=\260b\211=\000B\254<\300\251;>H#>=@\027+>\211\"\201\276\325^\204> \371\031=.\206,>@u\247\273qz\227>\013N\003\276\025F\227>\t\233\200>\316\223Z>\31457\276\260\306\255<-\034\201>p\003\325\274qh\035\276\372\307z>\2126H\276\215^:\276\232\224{>X\002\252=\254\241\211\276\203\330\226>\0103O\276\360\221Q\275 \3546<@\352\341=\361S\222>xPx=\030\310F\276\032ns>1\033\225>\336\253/>N\356\016>C\033`\276Bph>\241\375\223\276:\351i>\256]R\276\212\035\361\275\204R\223\276\020\247\262\274\272\324\034>\374\225\231\275ft*>\036\022l\276\224\207\364=*\207H>\250I\325=@S\256\273\274\354\246=\0007\234\274\314\201\234\276\361a\230>\254s\027>\335\322\213\276@\273\347<\330\260m=2qZ>\017 \225>\250\211\021=\007\271\227>JG\345\275\213K2\276\354Ap\2750\210\260\274\0207\014\275\324\210\265=\230\241\376=0\003)\275s\340\210\276\354JF>\305X\202>\335b\005\276\254B\260=L\'\225\275\020\351\312=\216\034\222\275\331*\204>F}5>\265\315m\276\231\331\202\276`\335\322\2749\252\232\276^\367s\276ju\000>r\332\316\275\330\243\375=\326\325/\276j\014\177\276\200\017\247\274\036\366\227\276\276\256\213\276\3140S\276N\022\242\275\3562\007>\377\252\215>ZV\314\275-e]\276\241<\234>\021\336\232\276\010d\220=\351p\030\276\335\026M\276\332\360\323\275`G\370\274\374\326\366=\256oJ>\206\331\276\275\203\274%\276c\250~\276P3\024=\313\312\207>P\302O=\006\371}>\n\361G\276\224@\305=\252As>\240\013\270\274\036\"\237\275\330\363\363=\000\307#\274o$\210\2764\314\335=P\263\307<<ID\276\004\232\275\275\330\006\027>\335\223\033\276\377 \204\276\364}!\276m\3012\276\365\322\211\276d\247_\276\236\376P>\006\'\205\275\340\274\375=\240o\016>@,X\276le\214\2765\374\202>\363\006\233>\230a!>8\300\324\275\266\376\366\275\nDZ\276\000N\357\272n\233c\276\300{\326\273\0240\213\275\264\n\277\275Z\326\211\275\320\347\322<\010&\002==\271\n\276:\240<\276 \200\021<\350\367\324=\227\t3\276\247c\221>\200\300\344\273\030*\027\2763\314.\276\370\324\305=\354\312\366\275IA\225>\320WU\275\300\261=\276Vn\212\275\272\221\227\276\271/\212>\310-\014=\231\322\211>lN\223\276\330g\r\276V:\021>ZC\221\275:\235v\276`\0028\27559\215\276\337\016\032\276<_\200\276t\303\231= >W=MB\203>\027\r-\276\256NN>0\215\356\275\360|y\276;\211\210>\332\354%>\336\375\030\276l\035\211=h\236$=OF\224>\000d}\275g\034|\276`H\345<\341\365\203>\3345\223\275a\216J\276;\\^\276\'3\223>\333\275\026\276G\036\227>\335\020L\276\270\331J\276\230K,\275,\336\222=lrz\276\266\274m\276\336e\034>\362/*\276-\362_\276J\201\034\276 ,L=\217\315\225>\370i\245=\243=\212\276\262\305\006>\374\370\257=\214x5\276\030\034\376=\020\304V\276_i\207\276;\254\225>\342\351\177\276\342\361\204\276j%)>L\250\344=\344\247=>\351\303\223>\234u\010\276\211\324\032\276\310_\024>\240_\237<d\341\215\276\370\336\214\276\336\271\031>\367\257\213>\006\033\177>0\200\221\2764\222\225=\200\274\256\273Q\245!\276\212\352\003>\324\214\201\276\"\223(\276\273\022\n\276\177\004\224\276\374\024\r>\010\375\236=\242\352\220\2750`b\275\024\221\210=+\324t\276\010\006.=\234\252C>\320\250\276<Y\353\204\276\304\365\302=\r\242z\276^\320u>0po\275\364S\354=\024\261\371=Ug\204>\363\342\213\276p\037L=\210\337\016>\004f\267=\320\254\216<\247\261\211\276\372K=>\360u\370=\222r\306\275\2008\004=\220h\222=\266\271E\276Td\204\275\316<\240\275D\032`\276$\026\227=\354\222\244\275\"dT>B\336I>(\353k\276\005\r\220>\346W\345\275r\335\352\275\306\236e> \215\202<Y\224\221>\220\273\032>\304\335&>D9\340\275\342\342e>\300n\230;\370\215\223=XJ)>xC\235\275\366Ra\276\360\331\352<\022\004\n>*\337I\2760h\212\274@`\260\275\352\030\221\276\036xz>\314_\236=\256\2410\276\244\234(\276+\234d\276\010\213\'=\242B:>\305E>\276\000\350/\271\036N\203\275\302\357\214\275~g\255\275\316.j>\000#\303\272\373\323|\276\314l\351\275P\"\362\274h\343+=x\341_=~\233A\276v6\245\275\035\353\022\276\360\002\355\275\216\rw>`qv\274\360\203\277<\366-\037>\214g\177\275\244`\212=.\367|>\222\306S>\t\333\204>\000\353`;Z\260$>\024\356\032>4\360\251=fR\270\275`21\2740\211\335\274\300\333|=\200W\265\274\220\3161\276\232.N\276\204\001\201=8\355\037=f\002R\276j\250\256\275\021!\207>\320n\315\275@\016^<\312cM>\260\n_=\023[\224>\020\332\232\274`\251 =\024/\213=\270n\000>\324\223B\276\216\257\002\276`\301>\276\342PK>b9G\276Re\201\276\255^\221>\2015\215\2768\301k=\204\235z\276>5N>\340K\224\275\364;\020\276\230!G\276\023\275\205\2768Q\007=\210\330t\276\000\311\223<\000QV\273\352\374\013>\024!\246\275g\313@\276\374\317k\276\271_\204>\n\233\313\275\314\016R\276\266\371\020>\004\233\271=\032\221\025>Pd\330<\010E\364=^\265\r>f\3633>\266\234\223\276|\324\035>Pbx=E.\234>x\240j\275\004|?\276\360YK\275\240\177\350=`\300\301=x\347s\276(\257\224\276\324\337\226=\345\216\201\276\340\226;<\0364\220\276\206\206\332\275\000F&\275\200\032\030\273\350\313.\275\361\215N\276T\355l\276\231@\027\276Kl\020\276\372\221\337\275\262\351>>\250\237\237\275~\232D>\234z\221\276\330\257!\276\020l0=n\211\222\276\240X\251<h\275\240=V$\266\275\213+\220\276\260\310-\276\252s\032\276\032d%>\246\340P>r!\004\276\220\031\207\274\000\210\355\271 C \274Ha.>\002>\007>\200\324o\273\304=*>\200u\005\273\230\304\257=\350\370l\276\004\032\345=\002;G>\261>[\276\215 \200>-V\201\276\002#`>\024oE>YU\226>\306\272\016\276l\036\230\276\006A^>\340\245{<1\366%\276\300\335\251;\244y\213\276o\237\214\276+\263\230>\2708K\275\240\326|\275=\332|\276y\261@\276\236L\010>P\342\006\275\230\262\004=\360y\225<\002\002\022\276`\307\327\274\262\216f\276\330\206\010\275@e\342\274P\031\221\274\236\020\177> \355^<Th\346\275\352\223o>q\336\203>@e\364\275\271\352\025\276i\372\206>\274\305U\276\240\247\236<\200Q\300\273x\261A\275\364\244q\275<\030\177\275 \300\243<\242*\204\276h\205S=\0324\177>\313\253L\276Luo\276\n\240\022\276\210\036,\276p\305\037=\236\r\031\276\304>Y\276\376rn\276\220KG\276p\377\266\2748\203%\276@Y\306\273\332\266\306\275\377S\216>\202\273\021> (7\275\\\312\246\275(\304\013=\225\377\212>X_i\276\310E6\275;\351\232>\220\373m\275\353\214\211\276\216\312\334\275\320\332\273<\300f\301<Lx\366\275\370P\253\275^\224~>\326zp\276 \3265\276\270\357\210=\210\n \276\204=\207=\232x\207\275O\336\207>\255\3302\276\224\303\241=\364v\024\276\362E\234\2750\243\260=7\340\201>`\250D=\220\205\240=^g\303\275\000?\345\272\330\332\216\276\374\004\236=\346;<>\236}\357\275\217\030\212>\210\210A=\020\3215\275&\017\226\276>Gj>(i\023\275\360\304\354\274\200\022\233\276f\231w>\000.\355=.rX>\200\247\024;RH9>F\020\236\275"
      }
    }
  }
}
node {
  name: "actor/Conv1D/W/read"
  op: "Identity"
  input: "actor/Conv1D/W"
  attr {
    key: "T"
    value {
      type: DT_FLOAT
    }
  }
  attr {
    key: "_class"
    value {
      list {
        s: "loc:@actor/Conv1D/W"
      }
    }
  }
}
node {
  name: "actor/Conv1D/b"
  op: "Const"
  attr {
    key: "dtype"
    value {
      type: DT_FLOAT
    }
  }
  attr {
    key: "value"
    value {
      tensor {
        dtype: DT_FLOAT
        tensor_shape {
          dim {
            size: 128
          }
        }
        tensor_content: "9+\t=-k<>\\6\211>0\323E=af\241>\317\320y>\031\353\235=\255j\235>\3721\330\275\222D\032=F\234\202>_3\260>\275\212U>\352$\263>\203\310N>i`U>\340\231\221>x\365q>\367\222\345=D\035\211>\246\340\242>\202\340~>:\206\320\275\206\265\205>\223\220E=G0Q>#oe>z\245\n\276@0X>\304\247U>\273\014\362\275\256\241\253>n\260a>e\230\202>\225\356\232=\224\r-<\264\223\200>\202W\265>\323\350S>y\031;>\020\273\032\275\271\344\\>\322U5>\3459\240>gH\017>(\023\236>\335\207U>\217D\226>\310\007\247>O\337\236>3L\247=)\344\217>^#K>\347!0>\371s\240>#\322r>c\204Y\274\024\356\021>\343vp>u\364\242>{6n>\371Ew>\225\331H>4\"\270>\201\213D>\330\n5>sV\253<&yu>\315=l>\n\342Q>\263,D>\261\312\223>\223A\203>\236\342I<AKm>\203\243\205>\357f\222>\230]\252>\355#\214>\356\255,=6\355^=\005\035\217= \346\257>\206\255\350=VE\206>\242w\">\375f$>\256\211H>\267\001p>\362/\220>\316z:>3o\035\273\377-g>WkX>\017\027\030<\236-\247>+K\231>\317`\260<AWx>\22630>\314\013\224>\230\267\271<\354Qw>\235\214\247>}\272O>\215cU>hke>\004\371H>s\026e>\344\225\320=\363Y!<\367\232\306\274\240\277\245>\360\300\205>\241[\264>\336\004{>*\007q>\250\362\252>\252\357G>\227\031\327=\010\374Y>\365\264g=\352`\270>\347\326\270;\260\224P><\246\317<\324\324\246>{\004#>"
      }
    }
  }
}
node {
  name: "actor/Conv1D/b/read"
  op: "Identity"
  input: "actor/Conv1D/b"
  attr {
    key: "T"
    value {
      type: DT_FLOAT
    }
  }
  attr {
    key: "_class"
    value {
      list {
        s: "loc:@actor/Conv1D/b"
      }
    }
  }
}
node {
  name: "actor/Conv1D/ExpandDims/dim"
  op: "Const"
  attr {
    key: "dtype"
    value {
      type: DT_INT32
    }
  }
  attr {
    key: "value"
    value {
      tensor {
        dtype: DT_INT32
        tensor_shape {
        }
        int_val: 2
      }
    }
  }
}
node {
  name: "actor/Conv1D/ExpandDims"
  op: "ExpandDims"
  input: "actor/strided_slice_2"
  input: "actor/Conv1D/ExpandDims/dim"
  attr {
    key: "T"
    value {
      type: DT_FLOAT
    }
  }
  attr {
    key: "Tdim"
    value {
      type: DT_INT32
    }
  }
}
node {
  name: "actor/Conv1D/Conv2D"
  op: "Conv2D"
  input: "actor/Conv1D/ExpandDims"
  input: "actor/Conv1D/W/read"
  attr {
    key: "T"
    value {
      type: DT_FLOAT
    }
  }
  attr {
    key: "data_format"
    value {
      s: "NHWC"
    }
  }
  attr {
    key: "dilations"
    value {
      list {
        i: 1
        i: 1
        i: 1
        i: 1
      }
    }
  }
  attr {
    key: "explicit_paddings"
    value {
      list {
      }
    }
  }
  attr {
    key: "padding"
    value {
      s: "SAME"
    }
  }
  attr {
    key: "strides"
    value {
      list {
        i: 1
        i: 1
        i: 1
        i: 1
      }
    }
  }
  attr {
    key: "use_cudnn_on_gpu"
    value {
      b: true
    }
  }
}
node {
  name: "actor/Conv1D/BiasAdd"
  op: "BiasAdd"
  input: "actor/Conv1D/Conv2D"
  input: "actor/Conv1D/b/read"
  attr {
    key: "T"
    value {
      type: DT_FLOAT
    }
  }
  attr {
    key: "data_format"
    value {
      s: "NHWC"
    }
  }
}
node {
  name: "actor/Conv1D/Squeeze"
  op: "Squeeze"
  input: "actor/Conv1D/BiasAdd"
  attr {
    key: "T"
    value {
      type: DT_FLOAT
    }
  }
  attr {
    key: "squeeze_dims"
    value {
      list {
        i: 2
      }
    }
  }
}
node {
  name: "actor/Conv1D/Relu"
  op: "Relu"
  input: "actor/Conv1D/Squeeze"
  attr {
    key: "T"
    value {
      type: DT_FLOAT
    }
  }
}
node {
  name: "actor/strided_slice_3/stack"
  op: "Const"
  attr {
    key: "dtype"
    value {
      type: DT_INT32
    }
  }
  attr {
    key: "value"
    value {
      tensor {
        dtype: DT_INT32
        tensor_shape {
          dim {
            size: 3
          }
        }
        tensor_content: "\000\000\000\000\003\000\000\000\000\000\000\000"
      }
    }
  }
}
node {
  name: "actor/strided_slice_3/stack_1"
  op: "Const"
  attr {
    key: "dtype"
    value {
      type: DT_INT32
    }
  }
  attr {
    key: "value"
    value {
      tensor {
        dtype: DT_INT32
        tensor_shape {
          dim {
            size: 3
          }
        }
        tensor_content: "\000\000\000\000\004\000\000\000\000\000\000\000"
      }
    }
  }
}
node {
  name: "actor/strided_slice_3/stack_2"
  op: "Const"
  attr {
    key: "dtype"
    value {
      type: DT_INT32
    }
  }
  attr {
    key: "value"
    value {
      tensor {
        dtype: DT_INT32
        tensor_shape {
          dim {
            size: 3
          }
        }
        tensor_content: "\001\000\000\000\001\000\000\000\001\000\000\000"
      }
    }
  }
}
node {
  name: "actor/strided_slice_3"
  op: "StridedSlice"
  input: "actor/InputData/X"
  input: "actor/strided_slice_3/stack"
  input: "actor/strided_slice_3/stack_1"
  input: "actor/strided_slice_3/stack_2"
  attr {
    key: "Index"
    value {
      type: DT_INT32
    }
  }
  attr {
    key: "T"
    value {
      type: DT_FLOAT
    }
  }
  attr {
    key: "begin_mask"
    value {
      i: 5
    }
  }
  attr {
    key: "ellipsis_mask"
    value {
      i: 0
    }
  }
  attr {
    key: "end_mask"
    value {
      i: 5
    }
  }
  attr {
    key: "new_axis_mask"
    value {
      i: 0
    }
  }
  attr {
    key: "shrink_axis_mask"
    value {
      i: 0
    }
  }
}
node {
  name: "actor/Conv1D_1/W"
  op: "Const"
  attr {
    key: "dtype"
    value {
      type: DT_FLOAT
    }
  }
  attr {
    key: "value"
    value {
      tensor {
        dtype: DT_FLOAT
        tensor_shape {
          dim {
            size: 4
          }
          dim {
            size: 1
          }
          dim {
            size: 8
          }
          dim {
            size: 128
          }
        }
        tensor_content: "S\210\010\276\327\311\212\276$\256\300\275,\r=\276B\206M>\302\205*>\242Cg>\032\300\013>\000\330\014\272\001.+\276\300\037T=W\237\221\276\000\\\031:k\204\223\276\260\276U=K\n\216>gc\223>PK\271<\342\322u>P\337j=\300\257O\274\212\003\243\275\214l\202\276\314\271\227=\277M\232>\022\221\203\276\016\315$>{\234\'\276\2463[>\320\255\321=*d\372\275\035\353\215>\234N\211\276@\271\342\273\340U\263\274\2015)\276\000\261\250\275x\317\014=\240\257<< \314T=\212\352x>\002\023\003>~7\004\276\336\304G\276\250a\023=1j\221>4g\331\275\254\376->\026__>\034\332\345=P\301L=\344}\243=\376\361\027><*\302\275dd\203\275,5\243=\221@\221\276\337]\216>\300\366\224\274\366\013\n>X\331\211\275\240i\227\276\274\240\307=x\3348>\214\241\317\275B\031|>3\313 \276=\252\022\276`\204p=\246\236\314\275\314\224\240=\370\374\022>\336\376\030>\240+\215\274\020s\256=<\037\207\275q\025\220\276\000\026\332\2730uE>B\234\212\276\340=v\2748=\345\275\314J\357\275!\"\225>\240CC\274\260\022\256\275*,\n\276\327\264\211>\332VK>\240\3714<\200\010\030\276\377\021\212\276\370+O\276\230~i\276 :M=\226]\305\275\344G\266=\030\025\020=\007\257e\276\210E\264=8|F\275\371\236\213>\230\214\037\276F\331W\276hw\206\276\364\301\226\276 \304)\274\350\036L\276Rd\034>\322\200G\276R\035\001\276\247\026\216>\266\274;\276\"5\275\275\010\211\037\276\210wZ\275R\241O>\366\352\261\275\237\005\006\276d\350\n\276\005\205\024\276\n\356U\276\361vo\276\242\2520>\000oF<@\006\372\274D\355\246=*\2254>TU\177\275h\321;=w\"\232>\214](>8\270\017\276\245\030:\276\360\320!\275\230\372%\276n\001\010>\370J\024\275rCP\276\317\263\201>o\236\200>&\273\002\276\026i\023>\352>t>\277p.\276\240u?>\250\234\304=\276\334\001\276\323f\034\276\354\272\323=,\225\234=\r\314\217>\200\013|<P\324\251\274\367`B\276P\233\341<\036^U>\224\255X\276\010\213\341\2750\364\375\274\036\023\001>0\262Z\276\304v\003\276\271\372{\276P\312\032\275\310\261\223\276(\363\023\275>R^\276\"\016o\276G(\031\276\360\370\355\274\t*I\276\211/\217\276@z\t\274<\013\247\275<\304\217\275\255L\230>\272\345?>\333r\214\276\037\372\205\276\260\"\345\274\004\211\372=\212\270\001\276\372:\220\276\234\222c\2762\000e>\005\374\226>\002n(>\217\331\224>\254K\357=\300t:>\352.\313\275\2413\220\276b\005/>\364\300\204=\214\254^\276\232\307\177>\314 :>\216.<\276\325\264\220\276p\262\023>\360\\s\276(cb\275x}\252\275\322\250\205\276\336\370Q>hC\242\275j\272P\276\362%W>RoN\276\266\215\001>\256b\033>\324\004?>X\361\231\276\010\354\366=PcL=\310\026(\276\036\027>>T?\332=P_\000>\262\241.\276\376\000L>\223\031$\276Z \224\276\246\232T\276\245\326o\276\342\322Y>(\"\035>\3446\353\275\273l\210>\210\350\232\276\333T\205\276\021\340\205>r`\300\275\375\370\224\276<\312\014\276\0101/\276\224\375\020>\324\021\000>\346R)\276\304\303\264=\242\347\206\276\362\223x\276\000\273\275\272\321v\213>\344\3169>\303\227Z\276\33248>v\236(\276\000\301C\276\010\347\242=\257\031\200\276\210\351\322=L\263\032>B!\366\275\316+\370\275\202p\370\275qU\004\276B=\226\276\322z\014>\000\016s; \252Q=\357\357\020\276\300v\227;|l\340=\276\254z>B\262\306\275\370H\335=\200\353\330\275\357z+\276\3366H\2764\300\342=\350\t\027>\361B\221>\013L\201>\000Ow<\273a\223\276\320\354\243=\321<\022\276X\207\017>\322\351N>4\263\350=\"\010/\276\304\006\270=S\305\222>\230\344u=:\224\200\2760\233$\275\013t\230>\353\023\207\276N\245\304\275R\254x>\300\235\312=\330K\322==D!\276G\207-\276\276\244\177>\000;\214\273\004k\207\276\340\242\216<\360\023\262<\364W\236\275\000:k\272\263\344:\276\274\343=\276\367\202\230\276|f\342=\031\304\007\276\300\306\003=\257z\200>\310\340 >2%j\276(61= 3w<\022U\"\276\036\002\262\275\275\232\024\276\251\"\233\276<\006B>*g>>\346\256e>\240\304\353<\316T*\276\302\"\204\276P\272\333\275\204\202\310=N\363i>\244L\022>\310y\017=\312\237\n\276p\370 >\000n\220\274\300\311\216;\220\006\247\275\034\203\206\276\000\005\377;\027xV\276\336\025T>X~\030\2762P,>\372\314s>\200s\033;\322oY>\n\223\002\276\035\267\203>\002\276{>>\257\244\275(\266\243\275`S\237<\331\361%\276\37470>\371\241\226\276\3650i\276<\243\307=\261U\215>\2330\213>\376\276\027>\214ZA>\214\266\306=\224\240t\275\244\204\202\276\240\031\036>\244\341\201\275dx\230\276\351\006\223\276*\340<>H\262s\275\300qS<;\007\212>S\300\024\276\354\0316>\3001\375=\246\2402>\336\211;>\325Y\204\276\200\247\016;\275\316k\276\200\301T\273D\321f\275\032\322O> \252%\2744\331\203\275\250\260\007\276\016x\361\275R~@\276\340\005\266\274\3129\004>\330\266(=r\224t>\233\365\216>x8\354\275\003(\202>}0\006\276\260\377\230=\344\3102\276\300Rm\2748U\345=\245\232\225>\321\364H\276<\223\327\275@wK=\212\\\235\275.yi\276\330\233@\275:9N>y{\223>$\251`\276\376\203\365\2754z@>b,\007>ff\272\275`;\203\276\320\002\220\276\344Ry\276\027\244\234>\300\277\333<\332eI>\357\201\221>F\354K>*\344<\276\200\366L;p\242\304=:\317!\276p\242\262<\300\217Q\274\347w\202\276\001\214/\276\220\0007\275\200\221M<:r\022\276V\250\223\276J\025\373\275 >\325<\206s{>\302|\221\275(Y\316=\230\020\010\275`\024G\276K*_\276\010\023&\275\330O\n\275\374\024\201\276\317)\010\276\220\222\201=\000d`\273\000\366\273:\001j\210\276\3208U\276\223\r\212>d\017\242\275\332\256:>\314\2663>\236QQ>\026\227z\276/eX\276\350\347\354=*\214\007>\315\265\230>\260\263\034=}j\230\276\200)\270<\264f\234=\000D\227\274h=k=h\\\017=&O<>#\317\200>\270\217\022>\027\247\214\276\022\255[\276\220\304N=<Ja\276;\001\205>\230\343\267=\332\220i>\r2\215>^\274\234\276\200\234\003\275\260\"\031>R\000\206\276\214\211\222=\246\327I>\2017q\276\353\254\220>\217\023]\276|6\205=\032u_>O\245\t\276\200\235\257<&\334n\276``\236\275])\201>\303\317}\276\273\004\215>\331h\212>\200\334\315=\300\322\232\274\3769\\>Pi\003>c\014\231>\036\272\323\275\315d\217\276\251\215.\276\201>\202\276\"\245->P\177\377=\201m\227>\020\261U\275\320V\375<\212\005J>p\0043\275\360\265R\276\\-\213\2769Xc\276#;\036\276\204\000p\276\014\320\317\275\200%s\276r\257/>q\036\227>\240p\345\274\310\321\246=\240\251\002\275\3273@\276\022\020c>L)a\276\277$\231\276\206K?\276\305\000L\276\035\316\221><\212\260\275X\223f=*pn>\330\325\305\275\2305\302=$ ?\276P\324*\276F\0077>\356\241#\276^\013\024>\254\274\263\275\345n\214>c\020\211>\200\361<\274-o\222\276\010xn=-\326\221\276F\324a>\250\241G\276\211\336\201>\335\232\021\276\316\352e>\335C\234>\377|\213\276o\305)\276\251\'\225\276\332bu\276X@$\276J\355\231\275\301_\210>\230\347,\275\350@\037>\2421b>^\003e>\275R\234>P8N\275J\230v\276\210\025\322\275\277M\203>9w\022\276\2435\214\276&1z>\022\024\010><\202\355\275\200\300\231=D>\362=\000\266\201;\331\t\201>Z{r\276\006\231q>\274r\260=C\213\206\2768\206\333=\320O\306=\200Z<\274q\251\005\276\')\214>\210\351\202=\267\222\010\276\026\322i\276\230\362\367=p\006\342<\300\267\037\274\030Q\006>\262]\020>h\234$\275\325\337\230\276\234\006\250=|\306\342=\020\002\225<8\334\245=\370z\022>\240/6>\325Z\\\2768\370\\\275\304iw\275/\310\002\276\370>\226=\032cA>\374\2101\2760#Y=]\0038\276Xq\026\275\260\360\342\274\017pO\276VW\004\276\350`%=\360\271\341<\271Y\232>0\332\016\275$\301S\276\246Bb>x).\275\326QZ\276\322CB\276Q\023\"\276\240\3060<\240Z\226=H.\246\275\361\375\214\276\000\\\205=&\215b>\200D\327<\001L0\276~N^>\316Bi>F\350*>`\000\264=\257\257\220>\370.\003>Xg~=\234e\270\275Hy\352\275d\307\205=\332ha>n\177\247\275\320\274\207=\251\275\202>\335\210\212\276\022\261>>\304t\031>\016-\023> \000\025\276\220\204o=\222pc>\\\3174>\000\314\007=Q\304K\276r\210\255\275_z\226\276\206g\203\276\324\003\203\275\366VD>\332c8>x\323T\276h\'f=\244\033\261=\246\302\211\275`A\255=\206iJ>\304WN\276\3005J\275l(\013>X\233\016=u\376\204>\020[\243=F\307Q>@\nn=\376V2>p\243\236=F\232\033\276\232\226\371\275\010\331\230\275\213\026\233>\244\031\336=\366\206M>\002\034\232\276p\306\356\274*\261s>\354\356\230\275\376N{>P\005\235=\300]\266=\274\212\273=Z<\037\276$\273\355=$\t\000\276\016\317\204\276\310\022M=\326\354\366\275\373]\230\276dI\350=m\377\222\276\200g.\276\014\300\035>\276\256F>\3135\233>\\\205\357=\254\024\333=\212\340&>>\364|\276\310C<\275\260`\223=\202\333\027>B\342\370\275\246\\\r\276I\227\232>\017\036\206\276Ov\013\276@\030\311\273\370\304\014\275\324\223:\276tQE\276\030\003\371\2758G,=\260#c\275\250\0100=\240\253n=\365\272\222>\274\306\217\276 \376n\275,5\311\2755\364g\276H\344\263=\251\240\"\276lO\217=<\270\273=.\341R>^l\315\275H\354\277=\254&\224=\030\247\352=\320L\216\274\253\320\204>\334\001\341=xy+=\014\\\371=Dz%>\360N\333<\304\236\r>_\324.\276\310\215=\275\223\251\t\276H?\374=\240W\030>\330\272\365\275\345\233\205>\323N\212>\010\303$>\035k7\276@\027\352\274(\'@>b+e>\344\251\'>\275_\214\276T\261\373=@Y\275\274\210\234\254=5\264\016\276\247~\t\276\356\251}>\000\025A>\366\000\271\275\357\207;\276\267\302\227>v\274~\276\244s[\276\364\370\t\276\362\267\003>(\031\020\275\335\334\216>\376?\270\275\344\300\233\276\3164\205\275\365\212\234>~\010\205\276t\326X\276\366{M\276\"\036\200\2750</\2752\347\215\276\001+z\276\200\237\323\274\222xG>\221\325\227>K\006\216\276\362\377o>v\301Z> k\016\275\002\311\327\275\311\232\230>\233\277\017\276\351\345\221>\240\334\274<\000\312\304;i\223\213>\025\373(\276\002A-\276\243X:\276L\352V\276\321\224\217>-\\\206\276\320r;=S\016C\276.\251\204\276\000\016#=\034W->\340\224a=\234\215\016>1X\233>\322\321p>\256\376x>\234X\275=v\177M\276\324^*>\"\267`>\304\337\237=\366\242\023>\306\234\363\275\350\331j\276\250c\202=\354 V\276\247\374^\276\\\310g\275\n\317`>B\0052>\271z\210>\336WO>\211\270\216>\000-\031\274|\233\204=0\330\207\274\000\t\312:\036\262\225\275F\325\311\275.\"\327\275@\323W\276\375\177\032\276\362*\314\275\200\265 \273\300\033\375;\271a2\276\304c >R;\215\276Tk\367\275\363\315\030\276([\267\275\254G9\276hcN\275\374+?\276\226)\360\275>`e>.o%>\014`\331={&\207\276\016\246N\276\017\215\225>,\230\020\276\222\353n\276\330\2462\276\370\263\027>0\257\223\276\300\366R=t\334\212=\316\260U>P\242\016>\240\257=>\212\303+\276zIp>\362\376i\276$\371\226\276 \223\022>x`\225\276\005TA\276T\363\316=^\213l>\330,d=\300\221\333=\270[\214\276\020\342\234=\010s\316\275\334\217\351=\314C\367=\312\363\365\275\000\206\034>\214\271\356\275\224\207\227=\262\350\230\276T\362\302=\020\256\234\276\225\031!\276\034\021+>R\030#>P[\306\274\370~)>@]F<\304\254\356\275\301\361\225\276xY\005\275*\326\r>~\234\006>\2301.>\177\033\205>\256\336\\>\366\217\212\276\212Hb>R\267T>Dx\252\275\000\300\3138\300\367\272;\300w\n>\316\313\020\276\204\010\364=\301\002\227>0\010\343=`\366\\=j\320\014>\274\002\321=\340\231F\274\370\341B=k\224\212>\027F\216>\016tN>\2603\367=\233\355\205>\373\357k\276!E=\276\200\252\016\275\220\326K=J\255|>\304\327z\276)\211\220>\352+\037\276TVi\275o\325\204\276C\320\217>\371`\222>\2626|>\330\223\327=\274\344\377=V\346&\276\320\374>\276\372KN\276\276\016t>P7\342\274\262t~>JiT>\266\025S>\276\224\233\275\013s\234>48\024>\231\321\233\276\262\010t>\362s\207\276\346\024O>\350RA\276\0003\322\274\000\243\372<\256\356q\276\325\254\017\276\341 \201>+\027\201\276\2606\016\275\255\371\230>\005\200}\276\252\305\224\275\340{O=\330\244A=\000^h;\300\001\007\274\006<X\276\177\231\201>\272\2053>\260\312{\276@\030\216;\202\270\352\275v\027R>$\245\317\275c\336\223\276\240\036Z\274h)\245\275 \315a\276I\375\211>\252\377+\276:\257\226\276B\307u\276V\007\240\275uL\201>\3643Y\276\207(\202>\360\355\231\276\n\3716>]6\211\276\t\372\201>\3262=\276\342?r>a3\201>\264\027\202\276\004\300\255\275~^<\276F\247\276\275\224\206u\276\'\004\221\276\274H\321\275@\'(\275@\203\004\274\200\221h;\220\322\362<\032>Q>\300Z\366=\242\272\035\276\362tf>\3202(\275\216r\234\276\261\3432=\210\002\371=\223R\265\275^\251\023\276M\027\037=I\030\203\276\365>,=wT\350\274\003\245i>Z\350\t>\342V\213\276\364\036\002\276\t\246*\272\2200\255\276\202g\204\275\004\375\256\275/\022\251<w<\017\275\321\300\345\276\007\260B>\322#\247\276\3203\270>\327?N\275\253i\255<\240\031\206\276GD<=\341Tp\276\334\244\255>x\213\312\276\213\363\306\276\345\253\"\276\320\337\003\276\203NB\275\014\356F\276K\034\004\275\'\245\207>j7Y>\024V\314>\307F\265\275\3619\370\275W\235M\274\314\370L\275\342\301\236>yv\267\275\251\031,\276y4\337\276\304\367\013>H%N\276\0242\375\275\rJ\n\276\255#\035>\366+\257\276@\0142\276Q\361\271=*G\243\2755\"&>5\2674\276\225\361\233\276rW,=\326\241\006\276s\263\303=_8\006\275[\322\253<>\304\311\275@}\006=\\\350\264\276\343\266\234>\037\231;>\301il>\033\305\353=bTk\276\0029\362=\302\366\237=v\264\220\275\250\376Z\276:\377=\276g/\032\276\255\372\022>\353\216=\273\376T\243\276\326\207S\276\306\207\246\276\310\243\340=>~\377=P\032\014\277f\003\201\275\031;\013\276\022J\274\275.y\214>H\373\267\276\262e\210\275nF\236\275\304#\216\276$\226\212\276Q\2304\276\304\262\205\276\277\332#\276L\214\006\275\364\320\002\277q\202?\276\274\237*=\364w\241\275\226\266x>\267\333\215>NO\201=\343\234v=, \030\276\034\314\217=\033Q\250=N\376\324=\336L\237\275\345\324f>\335\246\237<RPk\276\334\035\360\275\034\343\271=\227RJ\276\265%K\276\255\035\223=KLr\275Z\346-=\277x\207\275\214\241?=\177\265.>\223I\313\276E\356&<^\324\215>\274\320l>\212P\254=q$\300>\026\371\201\276N\331r\276B}\214\276\014\232\272\275\370Ks=W(\212\2763\363\363=\333\316\247=\346I}\276\251.\000\276\206B\323\275\306\241\037\276d4+\276u\322\327\275\207*\205\276p<\210\276v\317\005\277\204\200\210;\315\3719=\232\3074\276\350\277\240\275{v\206\276!\371\243\276$O\332\2764\244\365\275\242\216\201>\014BY\276\031@\213\276H\201o=\367\367\030\276\331\337\014\276\271\376#\276\241Qf\276q\204\362=\243\255\207>\343\3038\276\001y\007\275\375\355\360=\325\377\013\276<)\206=iI\210\276Z\037m\276\0169*\276\302S\203\275\344\3622=\203Hr>\007\204\r>7\031=\276Yo\210\276\204\315L=R\230Y<\260\254\241=\216\374\332\275\027d}>\303\317\304<\031W\030>\374\241m>\264\243\342=\006\352\230;\220\031\203\276\254\3331\276\332\236\274\276\tf\307;n\376\276<\346\234\020>\000\007\035\275c\332L\275\217\030s\276<\2360\276\237\307\270=7p\331=yx\033\276\252h\014\275\026\336\303\275\"j\261\276\276\365\365\272\307\234\343=}\021\210=\350A]\276\034\225\256=\330]P>&\036\247\275\374\370\223=h\002\026\276\365h3>\211]a\276\t>\211\275\024\330\264\276p[\210=B\001\210\276\224}\031\276\323ak\276\337dH=\273\265J\276n\272\202>2\001\271\275\2756\030\276%\251\024>\025\330.;\036\034\213\276A\256\023>\274=\200<\0074\265\274\000.\364\275g\224\324\276\321\353\300\275\347~\346=\037v\220>K\235\017\2764#2>f\212\010>%\207\274\276\231\257\014\276\311~\222<\351\315l=\203a\240\276p\352\311\276\3512e>\215\017/>\364\233w\274\313>\036\274\2106\346=ts\222\276\326\226\204\275\250\366\211\275^\377r>W\217\270=\260\324\230>8\2716\276\274cg>\2441\037\276\337\321s>\"\204.>8VF\276d\023M>\221\340\002>\362\336\344\275C\245\204\275\241(\224>F1\213\276\216:\006\276M\355\370\274K\006\245\276}\272$>\n\202\344\276\243\265\344\275\024\276\225\276\376\016\034\274\275\370\247=\334\222+\276\031\037m>\367\206\324\276\272\363\250\276\363C+>}\341\025>\254\254\200\274\276\351\234>3$\020\276<\n\211\276\207\276a\276Z^\206=\n\203\253\275\344\022\005\275;\276\364\275\332\277\272=w\230Y\275\001\227\020>(\310\000>3\363\261>o\tK\276\3349U=\224\302)>\321el=\371\327\221\276\226\357\301=;&\r\2716\023C=\337\334\200\276\003\343\210>\262\017B\273U\303*\276J\327R>\227l_\275\001\256\031>\254\375\244\275\261e\240=\217\361#\276\253\026\221=\027]}>\200\223\000\277M\304g\276\300\331\245=(\356D\276\234v\024>}/~\275\232F\014\276 2->\261p-=\316\330\266\275\250&O\276\266*n\276\340\213\361\275\326\251S\276\210I\023=\247N\277>\251_\202\276|\302\242\275\363\003I\275\000^\322\274\010l\307=g\274\272\275>$\002>\204u(\276\267\266\020>/\005\357\275H\001\331=\265D\262\276Xp(\276\016\033%>Ql\207\2753\232\231\276\333{\241\276@e\215\276\347\303\365=\017\226_\276\266\350r\276EB\210>\006Yc\276\252\004\266>D\200\261\275$I1\275\033P\322=\324\203\224\276A\304\224\274BiR>=i\021=E#n\276\275\266\203\276\220\026}\275\300<Q>!Q\371=/)\240\275Z\032\r=\306\273>>}n\346=^D;\276<E\033\276@c\202=\033\360e\274{\321\005>\t\362\233\276\233\216X>\310\300&>8\224\367=\r\001\230=\362\236\371>\2658\211>\377F\321<\355~+\276\001\366n\274A:\262\275~u\037\276\014:_\276\330^R=\227ZT\274N\267\204\276\355\267{\276\335\252\243>\355\022\331=\314\316\251\2740\262\200\276G\n\310=\031y\304=\036\r.=\t\000\263\275\205Dy\275\203]\345=9\361N\276j\217g\276P1\014<\003x\020>ec\010\275\340\013e=\360\373\222>#\340\270>\374kR\276\035w\200\276tJ\037<%\212\010\276\333\326\006>\330\032\351=+\202\244\275\340ZM\276?\255\243<G\325\323\275d\035n\275\352\230\002\276\321^z>\243\023B>\000\347\220\276\312\027\226>|\026_<v\351<\276\006\'\255\274W\364^\276\024\333O\276\264U\027>\236v\032:\002T\262\275\364\351\252>\205%\255\275\263\235\234\276\014\221\014\276\325\322\360\274\372\374\261\276\266\016\250<\332%`\276\037\014\233<W\3365\276\374 (\275\t\345\221\276\024lX>\207N\373\275\2528\271\276\231+q\275\263\374\023\276\306\256T>\246\345\275\276\216nK\276\357\234L\276\360\347\202\276T\236\333=\3234\034>_\263\231\276\251\262\303\275e\271\204>\272h\226>\241Qq>\241\346a>*\000\255\274\027\025k>Z\013\230\275]tC\275\010\3023>\273\'\211\275&=\363\276@\234\242\274<Y \275I<r>r\2478\276\240\207U=\347\024\021>\307\245\231\276>\025:>\205\355\006\276E\367\244\275\223\212\272\275\033\207\014>\245T\312<\301\216\001\276\3521$>\254t=>\t)\264\275~\304\366\275[\2462>\0135\306;\352\242d=a\371\215\275\365i5\276\327\2455>\220\023\217\276\330\201\241\275\034\211\300\276\0178\232\276\001W\311\275F\325\260=u\002\005\275\272x\036\276\tc\303\276\235O\200>\rh\213>\315\220\255\274\nz]\276\325\004e=\273\2542=\376\230\274\2753$G\276\347\356\331=\340\264\007\276\320\373\320=K\313k>\210 \t\276\346%\327\275\276\231\231<\360\025\234\276\240\014\003>\320\356;\276+;\355\275\257\305\250\276{:\310\275?\2654\275+\310 \276+\022\220=TZ\335=\254x3=3\251\031\276\310^->\377\353n>\314_$>\021&\232\275E\264\253\275\244K\227\276\316\223\005\276q\013\224>]`c\276\370\177\265>\310go=*\2466>q8T>d\324\346=l\211\350\274D\307=\276\304\311\334\275 \273\205>\'}z\274\007\032\243\275\031IJ\275![h\276\226\371\214\2765\024N\276\207Bk>\021\367\223\275\330\325\037\276c\357\201\274\365\265i=\266\010\274=\324wa\276\020\264@\276\367I\n\276\324\205Y\276<\rF\274\234N\227=\351V\224>\341\"\205;\031\266\214>f\014\236\275\211m\003\277U\354\301=\340\337\r>\026r/\276z\363O\276(\300\276\276\235\212p>\214\225g\275\301\303$>!j\345=\037L\033>\301\003H>\\\273$\276-L\305\276\357\017\262>\241\255\250\275\016\'~>)\240\205>WS(\276I*p=\216hm>T\370V>\360\026\016=\376\0248=,\312\020>\021;\243\275X\024r\276\326\374\006\275^\323\335\275\021\333|>\000\250\365=Tr\256>\3040v>f\306\017> \340\210>xu\364=G\002\207\275[\032\t\276(/?>\372\024d\274kG\\=\350\377?>\240f\036\274(\252P=y\235\350\275\330\243\377=A\325r\275\272\311\351=\256DQ>\024\254H\276\243\262\271\276\025\201\r>\005&*>\302\364\344;\"C\263\2754\246\224\276\257\002\266>\216\023O\276\231\"u>R&\321<3\177\304<\274\332\023\276\344R\345<~\330n\274IT\037>K\362Y>\014\263/\275\216\247\231=K,\272>\013})=\331g\375\272\034\267\275<\320\253\235>\225\370x=\2028\273\276@o\'>x\020\263>x\365\'>V,\217>}\300D\276\007\372\226\2763\366\277=2\033\230>{LP>\217K\\>\256\r\375=\214\373A>\222\274\232;\230o\023\276\364\223\310\275\306\2453\276l2\230>\202\300\232=\307\363l>\257c\017>KjS>\343NJ>\200V\275>\327\323V\275\207%\n\275;\270K>\225N\007\276\374\267\034\276\354_j>!\210,\275<\332\031\276_\234\n\276\341\324\222>\332\2160\276;\032_>\005@k\276\3332\276\276\316\206x\276\025/\254\276W\220\266\276 \001P>\205\2041\274\243\275\321=\346\204\352=1\220\203>\362\340J<\334\332)>\332T\002>\237\354\251<vbZ\276\004\r\005\276~\036o>\240\3004>\262\010\225>\006\343\222\27610\000\276\366\207D>\366\342\251=8`\217\276\2446\n=\255\266d>F\021\321=\216\206Y\275_z\217\275\037\233s>\352\305^>\355\251,>\023 \311=\300\027\352=\212\331\t=g`\212\276[U\037\276\270\003\223\275lc\233>\n\364\340\275\376<F>=k\310<\201@\226\275\365\247\205\275Z\3500\276\333\232\240>\022\026\315<\210\315\210\276\026-\005=\222P\354=\272o$>\001\321\215\275\016z6>B\232\226>M\260\360\275\006T\227>\356\363&>\301\327\266\275\225{8>K[\371\275{\030\264\275\311\231\370\275\374\252\\\276\004j\360=\306\035\324\2721\373\016=\244D\032<\306\001}\275A.\203>O\333<>P\277\004>\364\273B\276\023~c>H\376\002>\264\346J\276\034,\343\274I\336\375\275\250\341\233>\276\330\233>=\250\205\274V\250\246\274;}a<pL\001>\223{\205>\277\022\267\274\272\354\345\275\200\207\200\276\371\362)=v\344v>\276Q\240\274\314~\025\276\3423\230=\306\341\010=\3469\304=x\361\210<\372\345\316\273\223E|>\346\207W>\215\363\377\275\204z\202\275\000`:>\361\224j={\200\020=\251\231\206=5Iz\275\216\244\277==~\224=\254\302\033>\223\261*=\205\215\332=\323\257\t>E[\315\275\227k\304\275aj*>TC\267=\341\231\313>H8\307\275\032\202\024\275\275\313\217\275\240H-\275\266q\271<\211\377{=\022Tm\276\022\353%>^\016\025>\362\373S>K\243\235<\017\3321<+\027\244>\002__\276c\334\206>\220\334\245\276^v\024>R\213\352\275^\026\217\276\316$\277\275\272\010\355=\210\233\240\275\265C\344\275\345?b=\206\210\001>Mz\036\273\240\323\326=%)\225<:\311\n\276u\255g>\216{=\276\033\360\320\275\007\0023>\025\305\032\276\321\202\264>\260\001\\>&v\006\276\020t\363\273\031\262B\275\224\347\007>o\252h=\016\312\364=\2747h>\2126\204>C_\007\276\276[\">\317\202\326>r\216\371=BbV\275\336J\022\276\016\264}\276\032]\223=\236D\353\274\370\256\227>\010\376\316>\265J0>L\266?>a<#>\217\2701=l$\020>\270\260\330>~\342{>\354\275\322\274J\364n=xyx=\223\311\346\274Q\365\r>vC\2309\216M \276\236\276\302>\r4\372=Jrd>\232\354;>Z\3170>\274\3139>\211\026\000\276([\000\275*\346G>N\026q>\303\rV>\\\313\024\276q\026\005\274\325\221\366=`]\374=\375%\007\276\037%\304>\024\317\366\275\340\031\274>\257\206\310>\272\241\214\275Q>\240=C\021\264\275\211\237-\275\250\337(;1d\010\277\371\242\252>\374\217\r=T\320\267>h*$>U\210\220\275\2540\266\274?\324\232=\226\324\253:\t\355\010\277\225 \020>\365\"\325<oR\222\275\237\223u\276M\245\376\274\215\310\270>f\333\263>\t\\s\275\250\372\210=\244\347\003\277\001yB<\026<\033<\210\204\343\2769l\341>c.\334>:|\235=_\035\213>$J\343<\177B\216>\306\262r>-\360\275;\250F\007\276\0277z>V\354d=_\267\276\276\221\340\261\274.fG\273\242\255\220\273y\323\355>\244\370\277\275\314\032\302>\265\tL\273Em\261\274\036\024\205\276\374.{>\314h\252>y\374E=>\250\236>I\274\334\274\245#\306>\363\336+>S@\314>]!\315=L1\001\277oXK>d\252\017=S]\007?\200&\234>\325\360/=\263\023\t\275\225g&=\342\247\275>q\2319\276\340\264\221=\213^\000>\213.\005\277\204\236\336>}\226\025\277 M\355\275&&.>\336)j\275\000e\022\277\306\263Y\275\275\356\232>h9\336>\013\236\334\275\231\234\215=\353\324\003\277\023T.\274\343.\311>\236H\265\275P\337\377\275\314j\202>M\236\262\276\336\332\241<H\211\252;A\330\244;\313\263\207\275@\037\312>C\235Z>\r\351o>\001l\000\276\376\264\276>\310)\336\274\367\020\313\27508\240\276\213\207\367\2765~\375\276\t\307V>\271\034\247;\216\337\266\274\223\301\013>\267\357\230\275}\007\335<\3039\023\277T\247\372\276\341\336\315>H\325\324\276[\264\021>\272~3=<\321\313>y\2555=\203\377\224\275@\317\246>\326\020\203>V\344\213<\370-\323\274\207\002\270>\264\220h>\330Y.=bqr\274M%\324\275\330\010\223\275\247\210X<\035\376\201;=\333\243=\266sK>\365o\354<*\222v\276\016Q\277\275~\245\223\276jp9\276$\360\341=\351,\211\276c`\035\276@]\326;@[\334;\020\235\331\274O\363\214\276\323\030\001\276 \"i=\265\210\231\276\000h\001\273`QD\274gAy\276\002\220k>P\366\316\275\211\332\211>\0303!>\334\014\245\275@\212\312\273\275\260\231>\210wg=iO\203>\233\216\211>\222\342\221\275\"\314x>\027\020\213\276\322\365c>\347\347\204>\000\277\276\272\322p\216\276w\033\227>\366\351|>.@o>\242\331{>`%\342<Dy\374=\240\362<\275`\245<>&9\271\275N\270v\276\3600\355=\370\371d=\340\302\256<\264\271-\276\230O8\275\242^N>`s\251\274\227\312Z\276\240\376=<\026Ic>t\'6>\360\037\014=\202]k\276\360\0004\275\241\341&\276\000)\023=\002\251q>P\303\357\274`\000\030\275\236#->\240vN=\260n\235\274\034\3507>\264;\210\276\260\027/\275\220\222!\276\232p\314\275\243\275{\276\211\370\214>\304NH\276\200\000I\273\036\030a>DNY\276\230ps=P\306\306\274?\027\210\276t[\374=\000\203S;\234\322\221\276\240r7=\360l\337<\360\004\322\274\020a\207=:\237|>U\313\210\276hI\235\275\330\007\034=\346*\227\276X&\226=\240X\025=\255\233\224>\340\376\323<\264\271\314=\200\277\023\274\271\251D\276\277\034\200\276\\\033\206=`\031\t\275\202\246n\276\352-g>.\300m\276\274OA\276\336s\256\275X\023\023\275\3161\233\276I\027\004\276\2542\n\276r\332x\2760\023\347<\372\274\\>(\2100\275\347\220\223>\202k\274\275\324\277\333\275\260\270\362<8,\003\275\225\016\026\2762\274{>\014\243]\276q\020\221>\017\016\227\276\222\002Y>4AT\276\0000\216\273\220-\024\275\370\325\006\275\300\212\216\276\007\262\225\2768\275c\275\014=\327=4,>>\024(\333=\315a\233>\354\266\305\275\211aO\276\270P->\340\302@\275\01041>\234\255\020>\245~\221>\374\302\224\276\317^ \276\024\315\321=\324x\251\275\327\216\032\276\250ua\276f\325i>\2529X>\244\032\241=@+\237<8\346\330\275\304\013\252=\206,f>\266\254\201\276\250\"a=Q\346\205> \234%<\022\031\245\275\256\006\276\275\224\3433>F\014]>\333\232/\276Pd#>\313r\227\276\377s\227>F\032W\276\005o\017\276\372Y\211\276\200$7\274\200xH\275\361\002\231>\225\363\200>\005\035A\276=;\226\276\237\263\232\276lP\217\276t\216\026>\231p\223>\022\325\207\276\030\303\275=t|\201=\277\242?\276\250ml=R\017\275\275B\265s>9w\030\276\366\025b\276\376Q\002>V$y>\200A&=\200\3270;\310\212\242=\251\350\224>+s\225>\302\'*\276\330#)\276\257\332\215\276\030\336\322=\371\007\230>\246-*>\354\362\020>\313*\205\276y\364/\276\3408\204\274\360\025\376=\315\233s\276\350N\277=\030\311P\276\020\215\321<B\245Q\2768s/\275\250\352\271\275V\363\225\275\264f\276=\014/k\276\240\031]\274\260\003\227<\244\303=>\320\313\344=D43>:(\200\276(\324&\275\374\363\206=\027\034\214>\234\303\307\275L\327\222\276\212\243\213\276\360\255\267\275\033\315\212>\000\261Z=0\237\016\275\264G6>\006\342K>\364\311P\276\212\177M\276N\330Y>\314G\241=0\000\321<\014U\210\276\230\352\216\2764E=>\210Q\275=H\365$\275\016^W\276  \020\275\204\244\214=\220\276\327\275\300{\353\273\240`)\274\210:Z\276\240@\n>\236\301E\276\005\367\224>aca\276\203\301\201>8jT=\320\350\203<\030\217,\275\032\277\203\275\343\010=\276dH\237=\036 W>-w\207>]\325q\276f\273y\276\"\263`\276\020\356\007>\000\003F\273]\331\\\276\360\214\361\274\032\367?\276\350\272p\276p\321\221\274\340\355.=\317\315\206>xq\034\275\2247|\276.\315t>\236A\n>\230\362P=\220\023A=\010\014{\276{@\223>@|\206;\373m5\276\323\376\026\276\237\303\217>)m\220>\305\354\227\276\323b\225>\211\272\231\276\260\301\013\276w\300\212\276P\t\211\274\000\2138<tX5\276\210\256U\275@9\300=\270\242)>g\024\230>\306u\246\275G\316\206>\300\331\266\274\242\203\223\275Gk\215\276\341\320a\276\314\376y\276\004\326\\\276\243\205\005\276\204[D>\020\2707>\223\026\202\276\021\274^\276\3562=\276!p\215>\274\346 \276|\203+>.\277\007\27648\230\275 W\'\274\320\365\345\274\020\256K\275\350a\301=\344>$>\376\324\300\275`\237\007=\340\251\037\275H\226?=\340\246=\2750x\342<*\307A\276YR\223>.!\342\275\000\214\2519!\031\233>0\323v=N\321\">\250\3613=c\013[\276(}\232\276@oZ=\036\300m\276\233\353O\276\3474(\276\000\000e\270\204\014\337=@\263>\274\350\3158>t\225#>\322\221!>\235\313\215>@p\330\274Lu\323=N\371u>0\257\241<\362\210k>\256\206\006\276\010m,>@C\320=\020\033.=.\2305>|\321\335=\nl\004>\260\373\307\274\200\241\336=zoV>\250\267\031\275$bT\276\000\2253\276CX\201\276~\241l>\"-o\276\316\016C>\337\017\221>\212E%\276\320\327\267\275\206\203\216\276\340\004\371\274P\363\005=\322\221\221\276\214as\276\030\226I\275\243\020\202>c\262\202\276\260Bp\275\311\320\005\2762RJ>@iG\274~\337\177>\314\201\200\276D\023\253=\251\265\203>R\001{>\204\324\001\276\340\222\030=(Ns=\362\214W>~\361\003>\365l\225\276\351\253\220>F\256\014\276\010D[\276\255\332\203>\230\030\'=\325\314\004\276\000Y\247\273R\257\326\275\231\010~\276\032M\220\276\240\347\002=2\364Y>\346Zg>n\245K>\360+\227\274=\264*\276\316\345\004\276\200\363\014\275D\262\250\275`\205\016=\300\265\210;4\333f\276\242qx>\310\343\000=v\325\221\2760\017\242<\212-O>\010&\034>\017\013\216\276\376\035X>\014\204\212=U\232#\276@B\034\275\312\343=>:\335\357\275\200\315\214=$\246Y\276\252\324n\276P\252\022===_\276\260+\024>\250b\335=:\3522>,y\375={j\201>,]\354\275\300\325m\274@\203\334=\254\356\264=\217\371\215\276e\366y\276<\335\233\276\300\\\200\275\000\315\324=\226e9>\372W\263\275\352m\365\275\276\017f><\036\022>P\346\362<\2579i\276*\261l\276*Dy>\332\004(\276\000\035;\276\360n\337\274\252\"\351\275P\303\021=\266;=\276\270\353\332\275\376\311I>\220\035u=@\007\204;2/\201\276@\0217>R\240\375\275>mE\276Sa\232\276^\273S>D\333U\276\200Z-\273\232`\245\275BS}\276\024\305\265=\310A\326=\374\252\014>\262\315K\276:\274B\276x\356\013>\032SU>pcS\275\020\204\247\275\310\272M=k\023\004\276\226\257\025>9\r\232>\350\370\305=\316\2230>\200^\177;<\321\322=\215Z6\276f\210}>\003M\r\276\211Xs\276if\203>X9\222\276X?I\275\356&\206\276tO\212\275\\\275\224\275\213\221$\276p\224\331=\010(\014>\374~j\276\024\235\324=\234.\206=\014\364\377=V\207\223\276\274\260\273=\005\347J\2764\007\347\275\330\275\357\275\224\302\365=\217e\213>\371\024\201>\272\022}>\340G>\276<\367=>p\322\344\275\034\212\234=#\273\233>d\274\200=vc\355\275\033\351\001\276`?:\274\223j\001\276@\2278\274 \005\301\274uL9\276\007f\220\276\310\263\315=\246\221\220\2760\267\304\274\"\272?\276*u\216\276\215L\001\276\360\270\335<\n}/>\345\344\233>r\240L>\240\370\005>,\327l\276n\366w>J\324\005>G\215\224>,\3224>\223W\003\276%_\221>\0007/\2732lL>\002\375\034>\374T\220=~\255@>\366\332\212\275D\360;\276\031\350Z\276\260\030\261\275\300\003\360\274\300\264\306=\200\252\313\275\210\277\201\276 \202\035\275\360\377w=\214\036\"\276\306z\352\275J\264l>\347O\203>DXk\275\340\314\213\276P\203\222=\260&\203<@\233$=X\362\207\276\356!\223\276\020\034F=\350q\242=\234\360\036\2764e\r>t\321\211=8\333\244\275\350Y\357=<\214\271=\213\036\232>K\337\214\276\002\351<>\\\202\203\275\370W\211\276B\372g>\300\010F<u\260\215\276r\212r>\372\355A>\332\026V>\000ap<\232\301M>L8\212\276$y\032>\035 \227\276`\347\n>\240\2018>\312\266l\276\361\255&\276\274!B>C\276\232>\315\321\212\2764:\312=\260\215\320=\216!,\276\034\371\361=\365\005R\276\245\342\r\276\026\0325\276\250\377\212=t\214\">\324\355\270\2758\212i=\320\370.\275\200\177\023>\236\346\341\275\205Fz\276D\343n\276j\2128>\313\220g\276@&\313;\030\245\200\276\202LG>Ax\020\276\346\320\314\275\232ex>\370\363,=)7\220\276\226\034\000>\240A\n\274\327\016\220>\305F\221>\207v}\276o\225\201>\000\037\240\274\360\241\372\274%\002D\276`\177\243<0r\324< \t-<(\354\017\275\377\236,\276`\257$>\243=\014\276\022\2577>c\202\021\276\312\311\021>x\252\376=\306p\022\276z\0324>\341\002\214>\200\345\337\273j\033\204\275\210\210.\275#S9\276\200\310\371\273\250\354>=\324\234$>\374\323\316=h\246\014>\243I\225>J\340\\>\336\365d>\303d\220>&\334z\276\350{\350=\224\266\253=4\311\026\276\002\374p>\245f\037\276K\326\201>\032.m>\032\230\207\276\010<`=\016sz>x\243\024>\304b@>\000\364D\272\207\025\230>\020x\262<@\\\007\275\000\330->\332\330w>Z\306U>\252\200\023\276\220\261\211\274k\307}\276C\3457\276\360\256,\276\276\004f\276m\205\234>\021Q\204\276\"\333-\276\240\232\014>\370\001\321=\\\364\321=\0103_\275@\010\361=p\365\342\274\032\013h>\342/\205\276\224\205\362=\020\316\247<\325\276\224\276.\202\210\275\000\037u\273\300\241\037\275\320\264s\276\254b/\276\030\nC>\006\361->\350\031\251=\356O\302\275\000\004\236; \032\024\274\360\243\026\275\266\026\004\276\036\336\006>\032/\351\275XA!=\300\310f<\274\266+\276r\t\027\276\016Q\231\275[\353\203>{\211\230\276\020\245\220\274H\205\014\275\374\272\227\276@+\231\274%\311\222>\364x\310=\2640\341\2757\214\200>\266)m>\202\336\207\276\276\341G>B\035p\276\306m\234\276\306\362\005>\314P7>#G\211\2765\364\232>jj!>\016x\235\275\367\255.\276\261+\005\276u~\024\276fdk\276\302\361Z>\322\343\212\276\020%\027=\224\265\276=\217:\221>DNp\276\274C\365\275\304\024\302=h\320 >\nc\r\276\355\010\216>\324\204B>\273Z\227\276X\203\352=\340\201v\274\300\332\202\274O\n\225>,