node {
  name: "inputs/observations"
  op: "Placeholder"
  attr {
    key: "dtype"
    value {
      type: DT_FLOAT
    }
  }
  attr {
    key: "shape"
    value {
      shape {
        dim {
          size: -1
        }
        dim {
          size: 2480
        }
      }
    }
  }
}
node {
  name: "inputs/actions_num"
  op: "Placeholder"
  attr {
    key: "dtype"
    value {
      type: DT_INT32
    }
  }
  attr {
    key: "shape"
    value {
      shape {
        dim {
          size: -1
        }
      }
    }
  }
}
node {
  name: "inputs/actions_value"
  op: "Placeholder"
  attr {
    key: "dtype"
    value {
      type: DT_FLOAT
    }
  }
  attr {
    key: "shape"
    value {
      shape {
        dim {
          size: -1
        }
      }
    }
  }
}
node {
  name: "l_hid1/kernel/Initializer/random_normal/shape"
  op: "Const"
  attr {
    key: "_class"
    value {
      list {
        s: "loc:@l_hid1/kernel"
      }
    }
  }
  attr {
    key: "dtype"
    value {
      type: DT_INT32
    }
  }
  attr {
    key: "value"
    value {
      tensor {
        dtype: DT_INT32
        tensor_shape {
          dim {
            size: 2
          }
        }
        tensor_content: "\260\t\000\000\024\000\000\000"
      }
    }
  }
}
node {
  name: "l_hid1/kernel/Initializer/random_normal/mean"
  op: "Const"
  attr {
    key: "_class"
    value {
      list {
        s: "loc:@l_hid1/kernel"
      }
    }
  }
  attr {
    key: "dtype"
    value {
      type: DT_FLOAT
    }
  }
  attr {
    key: "value"
    value {
      tensor {
        dtype: DT_FLOAT
        tensor_shape {
        }
        float_val: 0.0
      }
    }
  }
}
node {
  name: "l_hid1/kernel/Initializer/random_normal/stddev"
  op: "Const"
  attr {
    key: "_class"
    value {
      list {
        s: "loc:@l_hid1/kernel"
      }
    }
  }
  attr {
    key: "dtype"
    value {
      type: DT_FLOAT
    }
  }
  attr {
    key: "value"
    value {
      tensor {
        dtype: DT_FLOAT
        tensor_shape {
        }
        float_val: 0.009999999776482582
      }
    }
  }
}
node {
  name: "l_hid1/kernel/Initializer/random_normal/RandomStandardNormal"
  op: "RandomStandardNormal"
  input: "l_hid1/kernel/Initializer/random_normal/shape"
  attr {
    key: "T"
    value {
      type: DT_INT32
    }
  }
  attr {
    key: "_class"
    value {
      list {
        s: "loc:@l_hid1/kernel"
      }
    }
  }
  attr {
    key: "dtype"
    value {
      type: DT_FLOAT
    }
  }
  attr {
    key: "seed"
    value {
      i: 1
    }
  }
  attr {
    key: "seed2"
    value {
      i: 6
    }
  }
}
node {
  name: "l_hid1/kernel/Initializer/random_normal/mul"
  op: "Mul"
  input: "l_hid1/kernel/Initializer/random_normal/RandomStandardNormal"
  input: "l_hid1/kernel/Initializer/random_normal/stddev"
  attr {
    key: "T"
    value {
      type: DT_FLOAT
    }
  }
  attr {
    key: "_class"
    value {
      list {
        s: "loc:@l_hid1/kernel"
      }
    }
  }
}
node {
  name: "l_hid1/kernel/Initializer/random_normal"
  op: "Add"
  input: "l_hid1/kernel/Initializer/random_normal/mul"
  input: "l_hid1/kernel/Initializer/random_normal/mean"
  attr {
    key: "T"
    value {
      type: DT_FLOAT
    }
  }
  attr {
    key: "_class"
    value {
      list {
        s: "loc:@l_hid1/kernel"
      }
    }
  }
}
node {
  name: "l_hid1/kernel"
  op: "Const"
  attr {
    key: "dtype"
    value {
      type: DT_FLOAT
    }
  }
  attr {
    key: "value"
    value {
      tensor {
        dtype: DT_FLOAT
        tensor_shape {
          dim {
            size: 2480
          }
          dim {
            size: 20
          }
        }
        tensor_content: "@7\203\273\005./<\020&d<\364P\210\273}\202{<\375\234T\273\276\350D\274\337\350\233<[\004~\274<\310}:\304\237\315\273\211\316w;\013A\007;\033\325\213\273\312\341\260\273\204\324E;\002\265\226\273K\310\311;KZ\271:FC\210:\256\275\235<p\265\2619 \371-\273u\365\276\272p\336\223\274~\026\373\273\001\212\376;\206\345\221\274\320c\277;\264>G\273\204x\212;\345\332\016;\r\'\216; j\227\273w\305\177\274\222\307\340\272\371[\257;0\025Q9\311c\355:\275\263\t;W\235\236;y\025\310\272\357\367\254\273\312\200\224\272\026\352\210;\025\017\206\274\301\353f\273\373Z:<m\254\221\272\365\345V<&\003\227;<\025*:~[\333\2724\013\270\272i\316\350;\014B\016\273\300\343N\274g]}\274y\245;\274\331\326*\2748Z\307\273\2116c\274\026\177\216\274\311\241\014\274\206i\364;\253w\305:\336\305B\2734\005z<\206\303A\274\356\024\345\273~x|\274\331\304\246;d3\240;p;4<\306\267U<g\241&\274\364d\234<\364$\234\274]F\243\274\020\327D<@9\224\273\375\355\023\273\217\344\270<%\232B<\256/\345;\375\357\226;-\263\244:y:\274<\201t\311\2728\324\205\273\227WH\274\034i\364\271\364#\002<vJ\234\273@/$<>4\341;\000B|\272TD\206:0\3719<\000\231\353:%\322\\;\033Q\014<&e\326\270`g\2559)\326\004\274\017\213\000\274b\213L\272\316\352#;\211$l\274 \327\223\272)\t\304;l\250\343\273\260\3127<N\024\273\273\324\313!\2730\337/\272Xn\374<\245:\003\274N\277\304;\360\262\257\274\037\340\013\274\014D\353\273\347N\341;j\217\275\274p\340\276\273\340B\210<\207C\035;\207\317\326\272`\256\":\371Q`\274\342t\305;\307p\210\274\332\252\r<\304T\220;P\375=\272\233Gm;\327\336L\270\007h\016\273\027~\006\274\207\312\010\272\341\227A<Llu\2731\216\231<\202\n\t<\315Z\245\273n\212\207\274\372\225\201;\016;,\274B\250\217;\311C\007:f\260\210;\325\236\363;}\rv\273:G\027\273\006\374q\273\364@\006\274\264|=<-l\274\273\tHn<\234\016\252\271a*\245\273\013,\023\274\227\376\000:\243\375\204;\214}\221;\246,\271\273XH\225:\240l\035\274\310[\233<\356\253q;\016\033\013\274\245\"?\274\261{\243\274\247\210\265:\220\265$;}q8\273\357\350\3469\317V\334:\376v\301\271\231\332\326\273\266c\027\274\327g\236;(\301\013\275\327\227\316\273}\002\253< \201\250;\031\177\235<\026P\236;\010*\216\274\377\241\224;\351sS\273\"\254\214\272\006\210a\272\275\177\204\274\251\244\352<\204\262\007<\346\241;;\362\333#\273R\001Y\274/q\237;\207d\207\272\315\304.\273B\020\'<\274\017S\274\312\327\266\274\334\325m<\330Qs\273\365W\341;g\220*<\\aX\274k\'\365\273\331\202o\274\r\353\206;\300\270O<\334l\272\272\2471\313<E\234$\274]\330\017\274 \025f<\254\334\330:\257\266+\274>\007\0269\373~\207;\266\331\221<\'::\274\263\367U\274\022\260\254\273\036 \n\274\035+8\272\220P\252;\360\215\355;\036\2569\273\340\256\307\273\376L\333\273\344LH;\263|2;`\t\375\274X\260G\273u\264\323\273\312v\332\273\252XD\274\355Y\240;Y7@\274\206\001\260<\333G\272\272X\033=;\271}H\2742\211\364;\204\264L<J*&\274MS\200\273\227y\274;\306G9\274J\331x<\370\\$\273\211c\324;>Y\034<\r\034\003\274;?\353:\010\032\t\274\322\rz\273$\260\024\274\376\014\273;n((<\216\002\342;\352\360\363\273yt0\272\315\016\235\2745\224\263;~\307\033\274I\341]<\000\202#\2730\345\031\273\324Y0\273\311[~;\016\320>\273Q\027 \273x\0216<;_M;\006\267\271<\2022U;\034<;<D\311\203\273\373\004\203\274\202\203\030<\005\271\256:\305\016\364;\322W\245;\324\3606\273\347\025\021<`\243\007\274\351\026\005\274L*W<\330\234g<\024\177\010\274\262C49O\2637\2739\302\316;\355\'\n\274\226\226 \274\364\266\252<\211\351\327\273\242\031I<\376E\017\274\324\266\244\2738\t\032:^C:\273\205\232\301\272\363\344\307\273\000?\253\273\257\214\300\273\342eu\273\213\004\220<vn\220<\027\304\215<A\2610<\302\'S;R\3423\274\253\247P<\026\257\016\273\207\250{:T\350\201\274\035L\264\273u\375\265;Wm5\274\245\376\271\272G,\375\273\206n\367\273\021\323\003\274\361\246\007\274\302z\r\274\352=G<D\303\253;&\255\207\274\252\371\002\274\017o\233\272o\360\010<\353\001\361;\251X\024:> \353\272\200<\025;\217L\313;\3473\241\274\246\374\252<S\315\031;po\200;\235\316\r\274\202\327[:\334\251\333;\317\021\200;\241\213\253;\353\214\210\2718\323\317;;\021,<\202\310`;[\254\023<\316\367^\274\267)\255\273\331\331\026<$\360[\273\2234\344\273\271M\314;P$0\273m\344&\274~R\002\274m\037\017;\270uZ:\374j\334;b\273\326;e<\312\274\'\353\006;\302X\252\273\352\243\355\273\314\022\345;\255r\275;\0355\242\272\013_\220\2729\243\261;}\035k\272\276\266z<i\243Q\274\240\010\002<\316\251\305\2733{\353\273\233S\366\272\356\244>\273\255\310\231\272\007\017\023<\360T\233\272\n\202g\273\357 \340\273\211\306\013\274\001\211\345:\342\025\223\273\304\235\321\273\251{\200\273DER\274K\036;:\n\016\010;t\216@; \346\n\273\270F\213\273\005b\205\274n\304\037:~\2548\274Uc\270\273m\300\241\272\300\221f;>c%;F\362\334\272\323\214X\2740\341\370<@\224\201<BY\016<\344\226\200;\211\243p\273\354c\215\274\375O.\274\236\361\351;\346\216b<\257\343\004<;\000\214<\2251\320;\027\356\324\273?\177\002<\204&\251<9\230\211<\320l\035;2x\340;\322eh<\315\242\004\274\331\263g<\216{d\2732[d<\315d\237\272\341\377\232\273\226V\0009]\022o;\200{\233\274\330\307J\272\007\205\232;]Y\034:{kQ\274\367\230\320;\300U_\274^9[\273\200\373)\274\355c\210<\234\322\215:\300\321\337\273Q\350\021\274g\336N\274\206v.<\251\217\367:o\345\270\273\336(o<[\353\241\274O\252\024\272\303\236\217;\0241\201\274\357kG<\037\363\022\274\033\356\203<\264\242\215\273n\024w\274`\0375\274e\227\245\272\224\027\334;\324\365\361\273/\321\024<nG\024<\357\000\356\273B\030p<!,=<+\217\235\272\005%\\;<o\215\273\375\030\2739-\303\215\274\256\367\311\273\273\311\314;\202\201&\273\036\3224;\353\000\357\274\374\373+<\356\255z;M\375;;e$\366<\234\'\355\2738/\033\273\207\301\243<\224b5<2\344.\274\352\254\254\273\260M)\273\327n\261\273\206lT<\023\213w;\020V\330::\373\032\274Y\345\256:\263Iu<\365i2<\024\320\024<Z\206\002\274\240S3\273W\241\254;WA\366\273\227\206\023\274\336\002\247\273\367\215\270\273\323oT<\344Z5<\364\232\n\273\242\320\327;\177\226\221\2749W\324;C\362\216\272\242\273*;\324\"\004<p\2605\274;Q\220\273\334\277\210\273\007\270%\274\305\035s\274B\030o\274\006\2464\273\364\203c\274\251s\215;\344B\275\273\376\321\304;\245<\340;\254\310\315\273X\350\345:\213\202\016;$w\327\272\216\353`\273\253\017B:+\343\024\273\016\343\303\273w\344g\272\234]\305\273=\\\242\274C@\237\2744vM<\302t\017:\334m6;54!<\230\245><\271U\214<\275\242)\274\001\377\312;T\233n\273\351\302&\274\316\371i<\217\236\305; np\274\207\244M<\322\245:;\215\177\035;\247Uc<Y\313\324;\354\375\206<\375\310z;d\245\201;}\330/\274\037a\026\272\373\221\333;\274v\0369[\200x<\211K\232\274f\023O\274x!\235\274\220\006\2608\356ZO\272\nfx\273;\226\202\274\345V\273\272\241i4;\331\323\337\272q1\227\274\020\271P<\264}\353\272\367{\233:\006}\037\273\205Wy;s\002w\273\333=\035\271x\202\355\273m\036&<f\250\310;\320\240\034;\200P#;\242\342\n\272\373\255G<)\316Y\273.eA\272\342^$<\252d]:\311}\234\273vr\224<\274|\341;\331\313\021<\244\377\034\273M\034\002<{\t\207:l-\213;\257\211\001<\313\313\315;t\271\250<}l\000\274Wx`\272\026\031\210;c\211q:\346\216\344\273\234a)\274/\347\017\274w\2347\274\334\215D\274\275\231A\274\345\310_;\375\360\274\273a\n\177;4r\316\272\304:]<\201\277a<\033\257\003\271*\345r;s\036\217\274\316\335\344\272\\\370\331;\316;\027<&\002R<\353q\266;\267\026\320;^j\313:\301\323\244<\266x \274\026\361\247<\317\205.\274\277%\037\274\020:\030\274\177L\t<kmF\274\335X\034<R\207\245\273\200\360X\2748X\270;K:\221<\375\341D\2747\016\221\2748\330\271;\237\242\006<\341\275\021\274<|\n<\223\237$\274\217=\373\273\362\345\013<\204\265\342\273{\3347;\330>D\273m\272\007\274\2566~\273\375\3572\273\216-y<TH\242;\364\364\032\273Td\304\273\304\300\343:g\377\204;\026\317\253\273\216\342\270\274\273\326h\273Ya\333\273x\010\366;\274\261\204<\336\357\245\274\204Z\021\274Y\013\'<\305\013\245\274\260\354\335\272\035\356x<\236#\252\273\216}\2329\033\177h<\311$\247\273\373\217@;\200\255:;\265\271\366;\206a\352\273-\203\2449\351\2401<\327n\'8\262\223\\;\216G\301\273\223k9<\356\364i<\370\322\223;\304q&\273\224k\322\273\326\270\017\274,a\341;\255\324\312\274\370\226?\274\234=\263;x\2221\274\342\331\332;\007\005\336\273\357\2029\274A\306D<\006\351S\274\34292\273\360\360\324\273\315\372\016<\234\311\2039\'\313\336\2735W\345;\263O\357;\362v\327\273@\362\362;\'r\201\2740%Y\272%\361S;?\333\210\273\213u\235;\245\201\372;U\312\322\274\240I\035\274Yc3<\276\220X\273w\306\235\274\327\376\'\273\365\334]<\251\017S<J|\200\2747vr\273\366\226\213\274g\016\025\274\232*\035<R\225\220\274\307Q\324;/\204\220<\306\203\235<\0262\245\273\3063\247\273pW\361\273\346\217\255\272\256I\\\274\246h\201\272\360^\234;\370\275*\274\277\026\216;JrM\272\224\316\364\271\216-\267\271w\215Y\274\236\345h;:\270\003<\357\022\216\273,*X\274e\'\216\273)\343\013\273y\231n\273\330\2122\274\037\032\001\2742<\n< \221\315\272\373\372\n\273\267<a\273\302\336B;\271\206\233\274\24067\273\035p\267\272\211\355!\274\322\230\271\273d\335`:\031z^\274\206\024\264<N\320\034<2\363]9\3335@\273xbv\273glp<\333\322T\274\037\033\010\2740\004\203\272\323\256\252;\034\006@\274\023\262\2169\'\324\375\273\245H\273;t5\033;\334&o\273$\'\245\273\222B[\273\002f\365;\336@\3569d\321\014<{\327\030\274\255\330\210;\233\207(\273\321\245\235\274\370c\275\273\274\324(;\316\273\300\272\034\366\007\274p\333\217\2747}e<\367\236n<\330\025\003<\371y\003<\227J\207;\242\035\332:\222\223\305;M\261\203<\303\376\351:\246\367\210;\231\210T<\320\367h\274\'\235\036\274\000G\r\274\277O\216;7\323\211\272A\3613;\211\216\240\274\t9.\274\204V\303\272\324q\314;\352`\270\273{+X\273 \021\314:\334\337\331;\245\341.\273b\312\325\273J\356\324\273)\024\334;\346A\227<D\215D<\267hj\274\365\271\024\274]j\346:\211\267\227<\'\2502<\353\032\214\274\275h\204:\257\275\313\273J&a;\324\'\\\273\225\037^;~\344^\274\270:y;\203gh\273\027\305\224;N<\276;\273\305\'\274]\312\016;K\235\201<\337\017\232\272|\3428\273\363\200\343\273\247\307\273;\204\300\016<\331\206\000<}\247\t<\303qj<]\334l\273\360\016\327\273s\273H\271=\2475\274\264\223\005\273\273\273\313\273\262\227\263\273*#\005<*\2612<\322\317X\2730\\\021<\330qM<\000\002W\274b\374\372\273\321\260\016<\300\345\331\273\3072C\274\355\361\246\273\336\'\217\272\'*d\273\206fl<]\333Y;\365\2413\274\240\035_\272\207\300\273\273s& \274Z\376\212\273\322#\213:\375\217\340\273=\274\007\274\337\016\003\273\306\276\030\274\023L\2779\327\217\241<\333\2617\273\232Y\237\273\356\213E\273\320L\264\274\324\362\323:\023\026\367;y\025S;\346\213\306\274\002E\276\2738=\201;\007oi\274\022E;<T7C\274\007\221\250<\3555\207\273\325\231\264\274\013nc\274`(\213<R\260\331:\017K+<\217\371\310\272\323\002\374;\330\312F<:\354\0169g\331$\274\250\366\216<$zT\274wt\033<A\317\013<%\223\244\273G\237@\274\366\304\"<\006n\244;B\217\205\273YO\220\274\305V\255:\314(X\274\031\271\271\273\267/D\274\302Y\020\274\355?\n<\253\036\211:\016\002\267\273#Gk<w\\\206\273\317\017k\274\240\253\344;6.\032;\220w\177;\244\016\032\274\016eU\274\235\241\t\274\342\352\241<r-\372:\365\307\351;\302E\315;\317\202k;\337\220\013<\223H0;\005\210O\273\335Uj;\247\266\250;>\3235\274\273\305\211\274H\216\020<H1\035\274\026\000\034\274}R\3749\275\230_\274\206$\';\324\273\235\273\2569\340:\347N\332;`a\240;`\305\257;\002^\373:\235\305\001\273\013\222!\273\022\231y<\376&\237;\260\245\t\274W\364\276\273g\006a;8\363\254\273\204\336V\274u\326\204\273\202\3202<\036\036\271;\264Y\265;\216\014/\273\227\223-\273\254h\215\274\233\331^;\'\365\336\273\373q\315;9#I\274\233\365\321\273\307\013\022\274O3\360\272\357%\271\274bP\r<u\346\336\273\216\017x<\261y\216:\373\353\352;t0\010\273\313\262\n\274j\002\254\272\356p\010\274\320\365\022<oqz\274o\252\356\273\202\312\300\273t\200L9B\"\270:\331\006<<\355f)\273\033\205A\274P$\301:\233\000\226;Y\256\221\274\244\340)\274\027\242\344\273\264\352\004\274Uf\341\273=\005\252;Jsf\273\200\236b\274c\320\215\271\325\023z\273\024V\351\273$m\264;aV\350\2730\264\245\274\365c\3319Rr\201;;!H\273\345L<\274\026\355\236\272n?\260<\323\226M\274\360\251o<\356\267\244\273O\264\362;^\017\241\272\334\221\327\272\022\242\204\273\312\007\010\274\364r\004\272\340\300\236;\022\374\302\271\311\023\2329\330AQ\272T\232\344:+A\302<=K\230<\222\302j;iE\204\274\020YA\2746[\201;Fx\326\2727+I<\004lg;\3078\203<\244.\000<\334W\323;\025\233\276;\320\232n<S\317\267: \344\005<\371\307\031<\356\263\242;\205b\343:G#+;W\254J<\3453\313<Da\257;\204\253\204\272\264M8:\223\366\270\272\233\221R\273=\242\330\273\337\365\023\274\376L=\273P>\311;\312\342\266;\315\020?\271\200\317A\2734\242\004<b\310\236:\207l\224\2739\302\352\273\367\266Z\274\243\271\372;\024\365;\274\245FB\274\306<\366\273O\223$:\351H\242:\336\214\360\273\207\305B<\36732;\005\222\263:\246q\036;X\327\323;\331\325\306\273\231Vo\273\220\037\215:;$\256\274f\252\254;\303[\221:T\321-<\335\0177\274U\204\331;\265\034\303;rkB<!\233,\271P\345U<j#1\2727\327\023;}\024G\273\231\302\030\274P\336G\274\025\3163\273[.\245;\315l\200\273\316\230\347;\034\203|\274J\253%;\0316\240\273\273\013X<6\200\223\273)\332q;\330\036,<4\366l9\260\325V:*z~<\247\325\026\273\333\347)\272\362\204Y\274\n\201\263;\007\257\2679\370qB\273\200\217\345;\230\234\337\273\270s\322<\313\ru\274\315e\224;\242\341\205<\302%\226\273\201\017\201;{\301\253\274\211)\r<?\205\206;]\004)<\215\352\231<\262\307\304\273V\003\204<.\362\232\273\270$\366;\007%w;\263a\342\273t3\257\273\327\270\001<\031\007\216\273\214W\017<\357\026p\273\370<F9\212\241\240\273\363MZ<w\323\3239\245\265\361\272\241\252\373\273\360\355\222<!I5\273\247\324\000<=\033\204;\2755\033:E1\r:<\313\276\273b1\365\272\\3\r\273\025@3<\244\253\267;\030v\214;\273$\214\273\342\316\347\2735\3114\2742\037\327;\216..\274\207\264\306:Y\177$\274\213M\302:\331\343\262<\013x\204\273\257\304\332:\240\"U<\213<\301\274\243\002\232\273\346\275\361\272u\303\261\2734\342\002\274\347\216\315\273!-\217\274\206V\032\274\271\006p\273\253\241\302\273-\003\037\274|rp\273\345\314\350\273\305\222\021<\315\0040<[a+\274\303\271\036;\302\037\254;g\257\370:$\036T<xPa<\317xY<\351\337;\274\244\024\302\274\'\024\370;LW\r\274W\336*\274\001u\017;\352\345\343\273)z\013\274\007D\215<-_\t:\364\272P\273\347\255\225<\234\353\331\274|]4<\027\303\313;\275\212\256\272\035\364\244\274\030<\314:9\311\"\273[\245\3269\326.)<%\'D\274\346\335\357\273\372\346\035\274#\376\377;\333\002J\271\313\270\305\274\t\311\013<G\377_;\031\362T\274L\370T<0\231\275;P\254\245\273\266\323\212\274\267\215\321;\213\330N<\323\201\330;\345\221\337\272\022\\\277<\320\202\347\2735:\\;\322\275\363\273\251\330\024\274\354\010V</BH;\tx\226:\253\032\034:\252y\214\272+\342\250\2720\022W\273P\345\035<A\254\267\273JW\025<\330\345\341;\222?+\274\302\025 \274p;\346\273\313\212};\177\364\003\274B~\035\2742\255\361;@\237$\273\300I$\273F\265\334\272A,\256\273@\224\205<\224\010m\267\340\325\245<_\216\216\273\031\322\001<\024\226\010\274\235\211\263\272\341\367(\274d\010S\272\000\260\202;\007\276\311\272{\036b\274\317\320\206<\265+V\273\3461\367\271I\010\260\273\227j5;\006\250K\273\001\325\027\274Q!\024:IU\2639\241\017\367;\201\320\312;\324(8\273\365wW\2737C\264;\314S\177;\241\267\366\273\2403P\274\357L\267\273G\335l\274J\370U:\320H[<%N\031:\351b\027;7\366\366\2733\004\370\274\303\377\033<\003\033\3529\024\3710< \312\304\273\233zi\274\024\221\355;\026\346\225\273\347\014\243\273\271H\220<\034\376\263;\351.\244\274\nA8<\n\213\204\273\271\"\311\272\355\336\023<f\205Q<\007b\026<\246o\200\274\347>\374;\334\271\332\273\006\332\222\274>\272\377;@\252\236;+\301*<\006\005\230\273\341\315|\274\373\215\321\273o\363\306\274\000\245\214;\302\273\323\273r\'\001\274\\\017M\274MiI\274ai+;\211p\267\273!\030\364;\260\330\010\274\252\333\037<i:%:k\261c\274\373\202\312\274\245c\363:\004\216\201<7J&<\206\211\246;\353r\364;r5\n\273\276\244\240\273\246\262><\013V\246\274\346*\310;\205C\330;-/\241\2730\333\033\274)Gp<9iZ;9\364\307\273\364\222\254;\312us;1\271\204;\334\276J<6\265\022\274\364\007l\274.\3415<D{0;t\3370<+\023\220<\020\203\273;i\257\311\274\033\267\213\274e\026\026;~f\022<\016!\022<\234\203\324;gZ\212\273\304\332\327\273\016\334\274:\3528]8~\336\216:\356\020\266\273\252\334\3309p\375*:\246\365\':\262\374\345\270sA\224\273\333IB\2743\014\302\272\223\244\213\274\336h\002<\240\355a\273\247*\236<\006\351\036\274,R`\273\211\242\3428\245\226\300<\'s\231<x\037\000\274k\000\225<\344\004=\273\262X\264\273\266j\033\274\353\334U;rh\034\274P\005\232\273%\036U\274u@\306\273\342b7\274\264\023\201<\204\342.<\274\3265<\370\345\223\274\346M\"<\353\2748\273\261\366\224\273\251^\241:\006X\243;\027\236,<\274\335W\273U\370\024<t\376;:f\372\"\274`\201W<\266U\257\273\363\035?\274\276\010=;A\026\025<\275 \010\274\304\031\022\273\327\334&;\377\273\004\274\212)C;\347\322\021\273\345/U<\227\002\031\274\216\252\3359\004\347)\273\3113\273:.\322\034;\331H\005\274\376DB<\333\331\271\272u\262\024\274}X\365;\022\004c;\\\320\250\274m\270\202;\215\216\000\272\316\346\360:\335\004\322;F8^\274\306\336\272;\000\223\355\273\256+\273\273\334\221\264<h\257 <Y\2302;\270\257c\272\205\325/;F\2036\274[\007\003<\331<\":;\266<\274v\324\'\274\276\276\030\274\253\305\367\273\274\237_<\340c\217\273i\277\007;\320&\027\274\'Bl;\211\221\221;7\016v\272\370b\375\273z\\\203\274<Vq;\362S\375;\253\3657;\270\342\031\274P\303Y\273G\227\266\273D\376\006;\364{Q<\023\035m;i\372\240\272\014> \273\212\271\313:)\352\314<&@\272\273\352\001\222;}\177\330\273\235\010\325;\244\262\212\273J\341\336;kH$<\231{\270\273\'\202\031;\370\3525:x\007_\274`\317\022<\031qf<\207h\263;\346\230\360:!1(\274\301\013\334\273\201\034\264\273G\253\274;\301\020X<\0066.\270\317\276\205<)\010\354;\000D\302\271\351\214 <\333\202\257;\251\312\204;|\265M<\333\202e;g\261\300\272\023\2232\274\224\317\317\273\333\315\234;\030\317\340\271\217\215\030<\2650\n<n\256O\274\367\312\316\274\244x\000<\316\016\031\274\2578\005\275m0\231\273\336\273\006<l\353\335<\257\210@\273\340\003\\\273\222v\371\273T\335\'<!\216Q\273\336\371u<N\210\020:lAl\274F\r\037\274|\225\3209kM#\274\020\037\302:t\361\276<\022\240\220\272\331\r\021\273\251\351\351;K\n\373\272\330\2775\274\245j\346\273s\033\211;\024\215\177\2733;\277\273\264\006\335;\211\231\202\274H\333\240<\002h\342\2730\246\271\273\201\037m:\267(\271:|\376k;\200^\r</\376\221\274\034m\200;\t|\3539\030\363\305\273\274\367\216<\200\333\024\274\231\352\177\274\353\300\236:xy\334\273\002\323e\273|\235)\273\3013\224;\302\215e;\267{\330;e\226\244\273b\332W;\220\375\013\2743\243\211\274W\363\241;\241D\311\272\313|\306<\236\223\352\272\347\311\035\274\312\361\353;\245\311.\273\177\256\r\273\376\025\254\271\036\274_:\2717\016\274s\273\321\272\027\336%\272\322\302\354\274bj9<\3074V\274>x\246<n\234\327<g\335\220;eTW<?\260\006\272\271\320q\274\241\034\307;^\220%\274f\360p;\275a}\274\364s \274\237\363\206;$\361\003<\336\303\364;\006h\205<\254\rn<c\317n\272\'\217\005\273\367V\006\273\307Mz\274&\211\273\273p\376\312:yt#\274\243}\211<x[\375;\364\230\213\273<\20529\3636 \274\346\032\215\272 \357\221;\274\316I\274!\006\004\274\247\210\212<\002^S\273\010\004\243;t\232s<g[\246\273\320\344$\274\363d1\273\341*\202\271q\016\213\274\267g9<\341\267t;O\327%<m)\036<\"\343\032\274$\335\t\274\256\367\334:p\344\003\274\213\371\220\274\343\304\004<0\353\350;\013\353,\271\364\244\023;pf\271\272\320\032\352;\360\017\231;m\243\313\273\236\253!<\'\316\224;v\325(;{\027*<*\365\3679\216F\000\274w1/<\346\365\013\273\220P\353\274@I\r\274\023\357\033\274\331\2433\274u\205\313\272\205\342\007<Y\247l\2747;\325;DG\243\272w\351\t\273\262\252\214\274\270G$;\204\020\240\274x\005\017\273\320f\005\274\322\306\005<\375/\320;\3239\323\273f\374\034\273\253\032?<\023\014~\274{\036\347:!5\030;RW\275\273mS\310\273>oG\274{\002\0028.)\357;\371\016\267;&\362y\274\005\"\231\274\235\207\362\272s\010\310<\010.\226<{\345/\274\211\366\250\273\361&\003;\205\n{<\036\305*\274\226\016(\274}\273p;\330~\214\273\342\301\271\273\267{\021\274\306\317X\273T_\364;\262)\302\273\322+b\274\322\016n;\037\255\024\274\201)\2319\302\332\316;\374Z\273;\020\225\362<\327zh\273$\336#\274\234\271\247\273\022\362\002<\205\024a\274\r\324\014\2748=\337\273\332[\027:09\353:\352\'6<\031\377\251\273\252\313L\274\006PN\273\"\305Y<\3011<\274\034\r-\273\251\032+<6\024\013<!\300\246\271U\366\366\273\342PZ:g\347\014\273\211\206\236;T.):+\342U;&\303\200;\275\200\315\272\322\270\331:\217d\222;\016(\315;\004\225\337<\213\276\322:\t\273\032\274.x\372;Fuc\274N\342k<\nqW8\204-)\273\335Vp\274A\353\222\273\222V\342\273\335e_\273\204\231a\274\223P\266;1k\203<@u\301\273y\r\014\273*\2662<v.\210\274m\371\006;\353\250\005;\353M4<\322\315\331;\302V\203<\262S\006\273\0172\277;\347\003\377\273{\353\323:n<|<\227@\036<p\372\013\273-\324(<x\364\372\273\302n\203<J{L;\t.\320;\273/\335\273\300\310q;\000\312\324\273\333\244I\274;\010\303\273WT\r<y\306U;\352a\033;\034\314E\274\347\r\245\272\240\236\202\272\t\277U\272A\003\230\273\264`~\274-y\304;\247\034;:S\213\025\273[t\210\273\230l-\273w\"\312\274\007c\022\273x<\247;\326H\221<\023\021Q\274\340\212\255;\234\362\016<\307\275L\274\257S\031<\360|\033\274\0300\3149=3\325<\320($\274\336\327\311\273\324\242\203\273\244\257g\272\3273u\274&Y\037\272\370p=\272\"]`\274\030\237\323;R\242\302\274i\t\260:\010\204\231<A\343\206<\332\004\227\271\367mo;\250!\237\274t3\004\274\311\206Z<;\226\242\273x\221\335;\211\356p\274\"`Z\274\016w\236<\235D3\274\332\300\022\274\226\203\023\274\235\361\371;\253\247s:\3450/\273\024\025L\273\013lJ\273\023\234E\274\300\n\207<\323E\256\274`-$;\263b\331;\0258\206<\363\330t;\"]\217\273.\006\374\273\177\031\000\273\275\345\272\273\013\265\035\274[\337\200;&\006\312:\252vh\273\226\266\232\274\035\2305\274\235\365\303;\033A\235:\\\0172;\017\006\264<5\3019\274Ak\311\273o\005\214\272\212\312\307;X\326\354\273\222\361\013\274\270)A\274\323\362\261\274\0062\222:m\370)\274\013\035\022\274.\361T;\020|B\274!26\273\313\273S\274\275\3413<\311\255\177\271\242\323\311\273\017\363\241<\257\211\336\273\347tF\274\305\377\274;\300\311\213;\213\354\214\273O\021\256;\364^L\274\2625*\274\341\320\005<,`N\274R\371d\272\"\3360:\250\205\031<i\242\200;\224\300_;\257ob<\250/\001:\201\235\002\271g\023%\273\213\024\230<\234Q3\272\226o\202;\370K:<\215\375\037\273\263\261/;\356\237\271\272\374\024\246\274\335+\237<VX\236:\234\360t\273W\354\274\274\232\022\200\273\244\356\201\273\251\3539:\220L\234<pN\374<\023\247K\274\347\354\347\273\320>\250;\275K\032<\005~\360\272\346\257g\272K>\204;TT\347\270\304\371)\273i\324\214<3\313\373\2739\357u<\220\360\r\273\242\337c\274$\301\264<}\235.;\004\n\237;\345X\253;S\237\202\272\215\270\274;\370\\\271;_G\036<]ue\274\322\007^<\355\006\260;@\204\001;w\312t;!\362\226<<\375\304;U\362Q\274W\223\261<\231\305);\274M\301\273\263BV:\343\003\231\273bIe\274\263\351\267\274\344\343\273:`LF<x\361?<b\324\2338\020\3328;\024\001e\272\007D\230\274L\215\213\274\0243u\274 \216J\274\260\035\275\272\270A\326\273jn\373;B\220(<a\017\245;\374\332l\271\201\371;\273\225\265\300\273\327\033\235\273\320\214\256\273\322\212\313\272>A\250\273\334\261\334:\353\362\034\274\347\"\216;\236\264\374;\233$!\274\252e5<a\341N\273\344q2\274\262\277\277;\254\341y\273\335\372\351\273\006+\221\274\026R\037\273\335J\224;\352\"7<aM|\274w\367\211;+\271\306\270l\212X<\306\235U\274\363\211Y:\345?:<\302\242\014\274\201\227\356\272\007\347\312\273;]M;\022\020\323:\3452\302;F\t\376;A`b<\227\373\331;\262\356O\274F~(;\320\340\373;\334\244T\274\376y<<\363\336\203\274i\377\002\274\336uj\273~$0\273%-\252\272\353\355\202\272\373\311\226\272\022\312Y<r\351S\274\213\342\221\274\346\" \272\371e\272<\200\222)\273\333_\363\272\357\273><\370}\241<\031D\213\273\031\026\260;]\266*;\341^i<`~\352\273\267\203-<,\026\341\272\034\307#;\311\241)\274d\216\212;2\207&\274\334\022-<\265\271\3469\262\344\n<\253=\365;\327\334\306;\241\205P\2746!\200\273o\260\033\273w\303\022\274d\337a\274\306\006\313;\n\036/<\220\024\220<\241\027M\274\200)\023;\371u\357\273\223i\277\273\334\310\255:\027\202F<\201v4\274i\215\256\270A\222p\274\205\325\210;\352\207\363\271\347\354t<\273\357E;\017fR;\034)(\274\364j\t\273\273\252\334<d\306\276;\245\311\363;S\013\247<\202\243L\273\215\302\017;Ki8\272<\236\341\273\320\324\017\274n\314:\274-\023;\274\377*\007\273\366\351\033\274\360\201\231<\364\374\030\274.\301\3768,\336\325;\270py<\353\277\240<\235)x<\244\372\002\274\355\264\207<\224B\373\273{ \\\271rWH;\004V\343\273\355\233\231\274\265\234R\274\212H\262\274Zi\007<9\t\215\274\367\221\\\273\227\331\020<[\326\"<\021\231\007:\340\277U<\006\344\267\272t>\254\274\024\204\260\273f\240Q\273\014\300Q<$\311\271\274\344\346a;\311BJ\273\305mp\273I&\363\273\014\370\037\2745\301?<\003\223\"\273!\351\t;O4\312\272p\355\2719r\313\033\274\300\310\304\273\264\342R<\211\330\016\274\271\336\272;\245\265\006\274R\333!;r)\272\272\322?\207;\234U\264\273\022\267\203<\016\344k\273\326\316\256;{m!\274\253C\315;d3\204<\330}c\274F\362\230\273\017\225\301;L\325[<O8\346:\342\323\'<\351\336\265\273\316\016\331:0\216s<\211\264\361\273\223\032U;\327i\314<\240:\377\2739\260\t\274\331Xb<\237\035\013\274\251\266E:\317\202\013\273\371\207\207\274\006\020\222<t\347\320\272\035\354\370:\327:\';\353\016C\274\023|\026<\377\373\026<\312\240Q\273Y\207\010<$\204U\273\031i\327;-{\212\274\264\315\224<\265\023\000<\212+B\272\276O\033<\347#s\274)\237F<76\330\274\205 \357\273\370\353<<AKf\274\000\240\253;\263\'\375;\267\3626\273\267\215\014\274n*\214\273\357\037(\273pK\245:\312\344S\273\345\273\325;o\240\356\273\214\370\332;N\322\302\273X,\272\273F\224\311\273\377\007\010:>dv\274x9[;\373I\201\274f\211\355\273\0059d\273\200\274\374\273\205\270\323;\224\031\246\273C\252\242\272\033T\n;\3471A<\035\206$<\346\310O;\007\320\002;\326\n\004\273H\300\004\274@\313T<I\326\001\2732W\213;Iz\243\273&T\341\272\373\200)\272o\"\214\272Y.\252\274\225V\271\273\216!,<Ba\226\273\210:\213<\001\026.;\275T\030\273\344\0322\274$\314\261\273\333\307_\274\336`\206\2743\225<;\262R\334\273\240n\243\273\251Hr;\017\377,;O\030\024<TG\270;\234L:<\3233C\273\330\207\364;\353\304\016\273`\225\204\273\240\322+:\230\312\314;\264T\352\272\230D&<q\213\220\274\302V\230<\253\353&\274\224%S\274\277\360\202\274X\353\3109DV\030;\255\326\274;!|\261;\251[7\274\020\334\0259o\013@\274\317w\221\273@24\274!4Y\271\357\033\235\273\023e\327\273b\013\346\273\316M`\274\277\261\225<`\t\306;\014\204r<MB\001\273\323K\204\272\355S\006<\211I\211:3\301\315:B\306M<\013\205\215\273\001\330\357\273%m\025\274\233d\271:<Y\247<s\360\010<\227(\222<\276\334\236\274K\n\027\273\202\\\257\273\304h,:\237\227\024\274\014m\374;\364x@<\220\350\243;\360\263g\272\353\243\203\274\016pu<\336\243];\'\306\000<*\024\320:\347Tf\274\241\226\346:i\016\222<\024\200=\274)\336\275\273\204\204;<%\201\272<\231\203\327:\312II<\3560b\274\240\270\204;O_\005<\0062\340;\240\363Z\274T\240w;_\205\010<\373\226\241;\276\030\034<\367\204\317;\357\364\3339\204\220\206<\2718\336;\206\3527;\371\n\305\273\233\340\022\274\267_g<\233\360\211\273\220\2562\274\200\000w\274\357\367\003\273\252\260\276;o^\213:\333\355\033\274\346A\215\2722\013\032;\223\201\005<\313\372\n<kD\374\272\246\240\017\272\203\000\240\274\345\026&\272\262f\227;\311\307\231<H\237\037\274XLb\272II\341;\351\2020<\230\177\006<\023\022J<Au/<\211\273\214;%\206*\273\271e\351<^\001\323;\341+\315;}\342\t<\312v\237\273\317\215/:\327\224\023\274\373$\375;\273\234\370;\035\t@\274\306\216\177\273\375\264\234;]?\341\273\213w\217;E\004=<Ppp<\r\313\001\274I]\252<S#):S+\267\272\203\320r\273)2\034\272\246U\236\2723\220e\274y\035\333:\260\013\\<|\336\377\273\376?~\274\227\032[\274\007\274X\273\\M\303\274\331K*\274X\267\247<\374\3744<8\330\321:\216\323_\272\347\325\222;}3\022\273F\324U<+\034\022<\304\n\202<7LX\274\224`\340<\3716\017<\300\275-<*\201\031\274}\376/;\004\300\225\272+&D<\226\347 :\317\205Z;\334\0277\2747\223\322\273\n[\264\272\273\035\2147\244\312><[\216\322;\361.\232\271\354\222u\273\013\357\237\274\330\322\363\273bV\242\273 \t\r\274\"\002\221\274A\2167\273\245\242\267;\375$E\2744\212\332\274~K%\274`<\014\274+\n\330\272|\004D;\305\260\306;\315K\010;\224\"\322\273\236[\251<\030x{\274+{\027<BZ7\274m\000\006\273\311n\200\272P\334\261<.\313\347;F\tg\272\370\306*<\031(+\273\202\257\323;\024?\3708\340\\D\274\331\332`\272\301\227`<\336\214p;\354\336\370\273\267q2<0\216\214\273\271h\215\273\362@\013<4V7\274b\010\210;\264l\216;\006\372\374;\311&\276\273\004\372\n\273\346\321\251\273<2\205:\276l\323;$^\225\273F\2028\274\235\326\322\273\022\322\014\273yD\236:s\362\366\272\323D\366:\234\353\207\273\3342\304\273\245\007\201<\362\r\261;\362\3620\272{t\016\274\357\212\364;\t\351$\273\261\376\203:\205\344\353;\316\035\231<\257f\245;\265\213N<@)\247\271\n\201q\273U\370[:\234\343S\274r\271\276\273J\321\255\273\267\230\340\273k\031\220\274[ \031<3|T<\370\264?<9\334}<a\341\214\273\346i\022\274\0271\332;\020\262\023\274\027@\325\273\257 1\274L\202z;\304N\263\274\326\231\025\272\035\346\241;}a\021;@\007\030:\274wC;\017\306\307</I/<\252\036A;7\251%\274\235L\305\274%b\336;\032r\202;>l~\273SSM<_T\031\270\227\230r<<71\274\224H.<e\217\177:\207\206\013\274\335\027\221:\374\365N<8]\226\274\375/7\273\22229<\017 \037\274v#\202;\236.K;P}w\274nE{<\340%C\273R,~<\244\235\231\273\224\025@<\226\255\027\273\276z\231\273\227#\274\272\226\320\202\274\035\276N;\257\020\227\274\233\305\017<\347\210\030<t)\354;\275\370\251\273\322iV\273G\276\t\2746;0\274\347\037\222;\212#\220<wc\r<!\267L\274p\371|\274p\271\324\273>\310<\274D>\262\273\366\013\035\272E\361\000<\274J];\211D\226\274/`\355\273\"f\362\273\273\023\371\273 \210H\2740\230\037<\333\003*;54g\274\302y\215\273N+\377;\265\311\342:a\014\367\273\026\243\030\273\360\233\005;\376\310`<\345\263q;*\344<;en]\274^\013K<\024\200\207<\277\222\2349\376\222\210\274\273\337\200\273\341z/;u/\020\2746\361\031\274&&\t\274A\310\216\273\336\224S8\220\325\223<\266 \245<\371\366\313;-6\277\272\235\211\017<|\001\316\273\263\201\256\271\356J:\274\307R\032\274\356v\235\274&\215\216\273\t\242z\274E\235G\273g\253\016\2747#\022\273U\010U\272G\311_<\266$\202;\'\351\377<b\241\326:\305\236@\274\347\266\026<o9\t<\013\"\244;\240_\232;\246\177\277\273\202\202v\273\360p\263\273f\036q;\230]\000<\376[/<\233\256#\274\027\262 \274\315\245\033\273\344TF\274\216\346\'<}\267\360;\240\362\213<oU\020\274\003\360\225;mZ5<\344^\231\273\n2?\274\025gg\274\351\316\025<T\332k8\004\036\036\274\234\224\270\273\327V\027\274|fz;iF\277\274\005\006\333;Y\357\317\273.\037|\274\231\306\013\272\335\265t<\353\332y: \2114<\230\005z:\256\326u\274\370i6;p\026\336\273kz\253;\301\027\220;.\217\361\272\316\257\217<\253\270\327;f\3505<\240\177\256\273\360\255\374:\0037\005;%\324M<\316\205c<\274,.<\302[\000\274S\220\2579\256\252\227<Y,2\273\006\323#\274\217\276N<8\ta<26\225<i;G<\031\202;;\377d\212\272B\365N<>\261\352;-\274\003<\273\2151;>|\204;\334\3368\272^\30419\276\356\275\273\025\262\003\273\336A\356\273\362;\324:\233\231\206\273\257wc<k\217\004\273\313dv\273\231\227d\273\3603\200<\322#\344:\333x\316;\365H\353\273\024\"\035<w\224\366;O\203\017<\240\223q<\"\260\307\273\251\357Y\274\n\307\257\273@\341\252\273\002~\256;\357\2342<\367\274\005\273\215T\254\271I!\236\2749^\r<wuv\2736\336\210;\256\004\232;a\356\343;\006^\264;\304\315\235<.\2652\274\374\371\346\273WH\306\273\271D\032\273\345\330A<\233#\005;\252\261\376\273\033\274_<f\016<;\273j\357:\260\231B\272\206\355\337;{<\214\272\340\262\240\273\336\024\264\272K\232,<\215.\221\273\217\352\304;\"\212\363:\230,*<\023-w\272FL|:\340\371X<E\201;<\033\'\215<<Z\030<\335\371\023<\236\000\032<\311\267\207;>\306\223;{\302b<\317\272\314\273\334\031\322\273n\265\243\274\355:\231\273\\>h\273\315\322\223;\245K\363\273i\304\027;S\253\350;\020\351\253\273\301\233\371:n\324\022<0h\231\271\253\363\030\273)\2575\274\363\356*\274h~\236;\367p\253\274\306\320\343;\242>\214<ic\224<\035}#\274\005\034O<k}\257\273%#\232<g-\233\274a;u8m\344\257\271y\031\t<\340\177\273;\333\365>:\316\034p\274\234\314\361\273rq\223:s\220m<\216o\305;`\216\321<pD#\274\251\334\214<\240\336E\274}\335j\272\241\206\260\273\206}\341:\226Y\203\274\214\341U\274\n\002i\273\205\304*\274l!\240<.&`\274\275\213!<\252>4;)9\303;Y\225Q<\345\231\274\273\252\014\241\274\234\3776<\016\300\353\274\247\305\376\274\300n\311;\002\353k\274 \347\013<f!-\274\244i\204<U\3253\274\334\r\021\274l1\025\274CL\022;\320\270\260;}\237\223\272x\352A\274\034\214\217<\373@\242\273BF\\<\374mt;=z\345:x\325o;a\021\253\273\n~O<y\226\350\273\202A\226<\376\037\032<\025\306B<\333\373\006\273\216\215{:nD?\273\017o2\274\333\014\266\274xh\305\273\231\031\200\273\267\332\r\273\027N\216\272\000\246\263<\004\355\203;\3652\n<\231F.<\317W\261;\013\024\217\273\374\360\256;\333r\207\273f\372\177\273A\202\001\274\230\374\343\273\026\361\217\273\"\341\347;\275\325\204:;\\\367;,\005R\274\317[\265<K\242\317\273]\373\307;\355\317\017<\025\01469pq\210\273#d\027\274\341\252\252;\024Ee<\242\246\313\2746\037\2029?\321\031\274\226\345\227;\033\324\033;\356m\273\272\304\2564\274\335\257|\273\264Bs\274\007\266\013\272\\15<B\362\210<6\312\255:c\254\376;\230\327%\2734\206\202\274D\337L\274GkG\272@D#<\375[\215<\267\000l;k\210*\274\270\376\177\273*%\313\271\244\307\320\273\252\t\022;\331\340\230\273\273\220\332;\373S\204<\327OO<\004?\232\2731\r\026\272Q\031\003<\020\324H<?k\223;\346\337u\273\314\353\353;Y\371V<\007\001Y<\256\333t<wL\371:\324\272L<\"\322\216<\n\n\325;\223?X<\353vN\272\213\356\201\274\205\2137\273\242D\357;\270\376\261;\353\345\037<\'\305 ;\034c\247;\033\210\372\273 \356S\274d%\216:\007I\004\274-3\001<J\275\203;A\237\324;\252O\326\273IE\237:o\327\251\273\247\354/;\262V3<F\303<<\0356r\274\031A\003<1p\013<\0278;\274\256u\242:\276Y\376\273D\227;<?\230\n<\271\"o;\212\027\332\273\022h\302\272\201X\004<\240o+\272\214\226\334\271n1\0317\257T\225;\231R\245\273tGc\274\340\200\230;$\366\235\273!C,\2740\320\034\273\313\026\203\273FF\365\272\300\'D<JV\027<s\273\363\273\"F|<\320p <\303\220\r<\235%\227<\244\213\252;M\326\242\273\242}\205<\370\243\035\274\314D\236<\356\\\312\273k\217\222<!\372g;\317\316\211\273R\013\031<+1\374\273\026D\221;\036\002\213:9\254\252\273\353 ];\304U%<\027r\255;\366b\241\273V\242%<\017 \314\273\300\305x;\002.\010\274\347\027G\2732w\200\274\016\2652\274\256\260i<\365\241\223\272P\224\'<e\217\363;T\333\261;7\221\016<\271\316{\274\247\302\223<)\365~\273F\233K\273V\332\241\274\202\226\213\272\366h\226\273\261\267\225\274=\304\240<dn\242<u\236V\274s\261\311\273\270r\312;|\335\250<o#H\274bEW\274e\350\374:\262\314\035<\365\235c<\275\201\332;\374m$\274\236%`\274pQ\027\274\26494\274.\270\237:\371\024\231;$\030\035\274P\373a\273<\265\017\273k\200\246<\373(\207:73\200<\t\272\213\273\240:\033<\234!i;ZE\020<\275\374)<e]E<\2460\000<\233{E<\374\322\357;B\353\0319\2424\377;T\336\322:\211\314t<@\370\334\273\377\010\022:\360\303I;\023\264\204<\013\240\203\273\205<>\273\005n<;\267!\003\274R\3277\274@4\376;\031\366\001;\216\026\266\273\275,L<\253\004\357;\307\306\005\273\233E\253<\371C\027\273\'h ;n4\217;=\334\234\274\007\257\216<\361I\004\274o\221\036\273\262\3515\274B\372\225\2736\217\020;\237H\017\274\302\005\n;\371\325\351\273PU\'<\335\231\241\274\322q;<\'\310\007\274]\377\025<T\375\242:<\342i;\005V$<\373\207p\274\"\334m\274\024\270\317\2730\037\367\273O\224\356\2735v\267<PY\250;\335)\\;\311\250\236\2737\265K<\260&\224<\230\2020<c\n\017:\263\361F\274w\356u\274j\203<<L\320e<\302\007\002\274\360\330\034;w\275\311;\376VH<U\224i;\336\332\027\274\201V\343<\371\036\235;\247\355\336\273*\217-;\377[\204\272^?\372:\240\007\003\274c\026\225;\340Z\007\274\217\211\211;\324\022\305<\327\247t<\335\014\343\273\264}\331;<\323\215\274\324\232\005\274\351\'\3269XY\272\272\023\340\310<\000\260\026<U2n\273pR]\274\235$\033\274\t\010\017\273\253\266/;\250\224 \274 \323\251\271\320\310\223;\331\211\230\2732\2428;\'6\224<\301Gg;\333\245\346\274\025\273\242\273\002\307\200\274Y\324;<9R/\274\347X\007\274i\245\242\272r\311\251\273\260F\317\273\361\331\010;\307\367A;[\217\314\273\267\263,<\213Eb;\257\375\241<+\305\3469r\300\204\272\300\342L\274yV&;R\017&\274E\310%<\327\214\356\273W5\262\273\304\322E<&\t\241;e.\216\274\302\206*<\317s\245;\360\2152\274s\340 \274\302\322\n\274\307\257\264\273\316>I\274K8-\274\222\305#\274+\271\232;\346\340\202\273\224\355I;n\252\035\274\363,\027<a\335s\273\202E\234<)\270)\274EVW\273,\230]\274\343\007s\273\037\332\206\271\233G\244;\200b\205\274dO\261\274\253\304{\274\266:\030\273\003Th\2722n\367;\335\211/<0\214;<${$;\300\025@\274\377(\210\273\312\203\250\273Vo\200\273\217\204/\273\0246U\273\002\375q\271\255\0315\271\255O\214:\305p\"<&\025\251;.\327X<e\025\253\274\020\"};[\262T\274\274\232\254\273-\006\272\273I\267\375\273k\233w\274\376\033!<\360\345Z\273n\376\232;\366\"\n<kWm\274eOK\274\007\376\230;\212\357\334\273|X\200;\204\020><\232J\222:\2012\003\274\307m\227<k\313\230;\275\256\220<\271=\316\273\206D[;\212\235g\2732\347\033;C\334w\274\204\205\024\274=\0279\274\202\246X\272+\355\233\274\3057 <\263\2640<b1~\273?\034\217\273\341:\206;\257e\221\273}\215\242\274w\345\230:\322\343\231<\022G|\274\373\036\247;\212\212\211\274\235\234+\274\370_-<\346\035I<\2548\350\273S\0059<X\035\232\274\005\\\370;\353$\002\274\251\372\032<JS\370:DY%\274|\324\277:8\235\257;;\025\2158\225p\303\273\207n\316\272{\'b<\224p\020:\016\323[<upg;\344\272\213;\t\001\351\273\007;\233\273c)\2418r\375\221\273\300\355\223\273\007\352\215\272\014Y\354;\020\367\254\273\371tY<}C3\274\307C\021\274\364\366\214\274\363\217\371\273\242\313c;\006\237F;\345\311t\273WE\340\273i\371\226<.\347\021\274\373\323\336\273g,\003\274\234j\212\274\304t\337\273*\225\004<\030\203\264:\362\2667<\205\232+<0\217v\273\320\311\212;]\n9\274d\364\262\273\027)\3669\376\206\177<d-\211<\276cQ;\020\371[\2747\025\r\272u\027\214<\367~b<A\247\354;\2222[\274\354p\034<\314P\026;\0338*\274\223K\305;mD\245<U\3355<\321\300\022\2739m\204\271\034,R<\036\275\267:\320iU<\347\320\301\273Psr;\036n\322\273V\t!\274\260\210e\2747\007\003\274$\226$<\344@e\273\265\0146\273ba\267;\'\266Z;\216\036\n<cs\005;t?!;/\265|\274\237\211\230;8\202\343\2714\333\001\274\035\356\324\274\247\'I\273\342\373\311\273\375\244\267;\316^A\272]\215\334;\364J\261\271#l\203\274\303\301\364\273\333NB\274|%\252:\2201\2129\360\032\350\271) ];\357]\306\273\317\205\245\273\013w5\274\3630\323<\230\222]\274+i\273<<\306\323\273\260\r_<yC.\273\352\362d\274eY\216\274|Nt;e\301B<.\312%<\006*9;d@\262\272\227\300+<k\016\301\273j[\206\274*\300a\273\354\321Y<\336\235W\274\'\227\016\274;\360&\274a\350\\\274\345\373\006;\006\365\276<<\326I\273\336/}\274\367^\221\271X\313-\272\365\035\274\274gtm<\3654\357\274\340?\366;Ns\026\274Xm0\274K\007+<\367\232\310;\311>\301;8\251\033<`\020\347\273\030mZ;\3470,\273\230\222|\274\020\335\377\273\246_I\274\3521\345;\312\343B\2744j\330\273\316\357\306\273\306\270\021\273N\365\236:\202\241\342\273Sy#\274\035ls<\024#D<\r\227\007\273\036\217>\274\362^\246\274\256\"\377;\276\265\302:\351\260+\274oY<:\017]\227; \014\376;B6\017<\017\253\2249Rl\002;/\321L\274o_M\273\3052@<\002$\220<\']\274\2749\332L\273\272\323\214;\375\213\267\274|hP<8\277o<\304\332\214\273\"\3667\274\265$\333\271;\316\227\274\217!V\273F\261\201;\351\370?\273\324\340\314<\001\224\204\273\027\351\014\274\253\232\000\274\005Xy<i\354\231\274\354W\363;\344\345\240;\245o\374\273\376Y7;y\336\205<dz\000\274\305\345\312<\201g\255<\353\263\262\274\256\303\177\273\244w5<\230\n\275<\213T\234\272\255\351C;\221\331\027\274\033\037\016<Y\004N<)6`\273T\323\3768\301\214\346;\035\363\234<\334\354\033<\300;\263\274\375\026\310\273THv<\035\003\340\273n5\321;=*O<\034\217\002<bUz\274\374R\254\274 \206\021\274\177\261\026\274\310p\221\272\375\2065;L\237\215\272\374\230\207<\017`\223\273k\303\'\274\367\001a;\020\"\237<\327t\315\272a\221\244\271\265p\314<e\300\205<\223w\275;\3009\013<\242,\230\274\240A\304\270\364Y\"<\351\260\313\273\213m\264<+\343\214<\216\016%<\267\010\334\272|\307\215\273\r\3475<%\2648\2733BN\272g\350d\274r+\226<\362\024c;g\330,\274A8*\274Y\322\003\271\273\345\026<\000\"\307;N(\330; ,G;\016b$\274C\340\366\273\031\262_\273\036[ <II\251\272e\251\003\273B(k\274\007\375\352;\367\363\201\274O\252q;\305\234\244;$%&<\342\036h;\225\274j<\340X\022\273\315\322B<\335\372\271;\225\272a\273%\0169<\244\276\220\274\305!F\274\271#\004<+\300 9\304\276\034<\330y\031\274>\342\001\273\214\242V\274\013E\371:\313\270\020<\252*\305\273\305]\276\273\204\371\262\272\271U\341;\237n\201<t\t{\273\0243\273;\215\354\024<\353!\001\274&\331#\273\244\233a\273\362\334k\274\303\233s;\374\365\244;\243+\227\274\007\323\037\273\033U\"<IH\250;~\232\265;\324\321\366\272\220O\244\273R\325<\271Yo\232\271}\025O<\364S\\;8*\300\274!\364\005;Y\\&<u\013P\274a#1\274BLR<\004\275<<\247\036\t\274\241\2260\273&\344\307;.\000\234;\375\327\335;\227\204\252;\013\316\306;\266\310\005\273+\345\"\274\206\246\206\273\240\244\300\273\356\352\010:\346\221\371;\262\223\362;%\272@<\376\3661;\207\274$<\374q\266<\376U!<4\215\360\273\235k\204<\274\224\251;\317\270\3648\361|\022<\327\263\243\274Sv\207:4vp<\031\345\037\2745u\000\274\224\007\"<x\317Y;\t\010\207\274C\225\220\274\333\345\264;\223OS\273\317\367\007\274\251\362:<\025G\006<m\366\226\274\016`\266;\226X0\272Xh&<&\374I\274\354R\201:\005\353\336\273\321\254#;[\344\303\273\025\030\323;\262\246-\274\364\313Q\273w\226\263<0A\214;\264j\030<\"g\310\272tB\260\273\036+\360:\006v\036<\317\217j\273:\306\212;\335b\360;y\022\020\273L\322j\274\211\235\241\273\213`\004\273\341l_\274\357\320\361\273\255\356\005\273\220A\211\273b\251\272\273\274O3\272\342f\246:|\017O\274`h*\274_\216\222\274\207\326\320\273\275\317\206\273\324h\2619\302\347\215\272c\234o:\220R\000\274\276\307i;T\252B\274\211\207\215\273\240\232\264;\t\2622\274\363\307d:\311Zp:\2739\304\273j\350\266;\320}\371\273\224\301:\273R\333\005\272y\036M\274\034\333\321\2744n%\274\nX\211\273_\244\023\274\3376\210\273N$4\273B\202\017<\342\r\353\272G\272\037;\325bL\2747\377v<\350<\035<\225\3333\273\353\274\366\272r\203\243\2737(\305\272N\323g\274+\246&\273!\264\207\274\230\244\365\273\364\032\254<b\205s\273\246\002o\274\007Y\224\272u\372\304\272\230\010\253;\246\330\333\273\263^1\274N\371B\274\025h\207:{\233\344;\344\264Y\272\036pJ;\263\316?;j\271\363;x\322\233\273\016\301\271\274K~~;\030\rh<\372@\"\274t\276H:\222\026\033\273\311C\027\274\335\374R<\200\344c<K\256\035;\242\244j<\013\225\244\273\263\023J\2740\362\277;\347\325\347;/@%<\007\245\210\274\262\342\230\273Jo\033\273\311\205\037<\3718\007;M\245\275\273L\225\2008\225\3056\274\315T/;\005\266\302\272\207J\266\273\265@=<\363\362\255;\177\271\224\272\263/r\273~\217#\274OV\247\271\362dB<4\245\342<#\\\227\273\376#\315\273\274E\354;?`\2139\330\356\275;\362\035\307\273\340g2;\225\325\n\275\273\303a:\357\230\375<\034P[;7\323-\274FL(<\340M\305;U\035\345\273\320\317?\272\355/\240\274\247\240o\274\3339\230\274\016\222{\274\262\244\030;Y\336:<\314\336u<a\204k;\234\261\034\274\333\253\'<8k+;\234\201\306\273I\177\256;/nF<\371T\263;\006\226\331;Z;\206;\326\247\036\274\333\320\342\274\024\214\227:(\300\211\273r@\321\272\235\367\035;2^\273\274\200O\223;\307\274V<\344EX\272\316\023\320;`\"\225;x\3008;\300t\231\273\030:^;\241\312t<j\n\317\273\227\300P\273\3156\274<\311[\215\273\224\274R;L\021\022\273\260xQ<\334S\024<\276\241\352:\307\2767<^\357\264\274\3168\232;\313S!\273C\216\236\273/\312\267;\\\334\262\273&\002\372;\021c\216\274\027\234\\\272\200{\303\272\263\334B<b\233\251\274\023^\033;\027\360\271\273\355m\257;\020\354\356\274&\225\224;@<n\274\013\354\307\272\207l\\\273r\252\215\274\373a]<\275\0014\273\n\257;<\366T\032\274\375q\304\2738\260\254;\007\352\246;\300\037\377\272\000\230\263: \307\021<\\M\363;\342\213\345\273Bv\006\274K\324;\273\273{\274;\341y\004\274\213RE\274\244\236\323\273\317\345z\274\300\362\027\274\302\331\002\274\230\264I\274=cB\274R\n\014<x\237\256\273j\273%<>\245E\274\233,+<KS\307\2739&8<[\013\277\273\021\013\n=\311\365\254\272\370\334\335\272\223\332l\272\305I\240;\362O\211\274,e{\272\220\306!\274XIs<\3042\304:\036\031]<y-:\273\275\035\275;\227\221z<\271\\\013<n\017I\272\236\302\237;\346\373\005;/}\\\274&f-\272\371@\020\273\375\304\023\274\n\224\302;\327\2706<\265\2507\274o\362\323:.fh\274D\234*\2742\241\233:\216\256\334\273\367X\371:`f\217\273\263\362=<\326c%\274\206\254\325:a{[\274S\336\246\273\t\302\033;\232T\006\273H\234\234\272a\3122\274\231\373\202<\215<\301\273\336\226\333\273\214\376\325\272\255>\207<~|7<\353\n!<+\033\232\273Y\033j\273\036\304P\274\340\034\220\271\361-\223\273\340\020\2009@L\037;\237\017\202<\330\241\020<\326\242\235\273\376oR:o\247\340\271n-\246;9Sv\274\235aT\274\333m\232\273\347\3707<\224)\270\271\243q\177\273\227\317\';Kf\002<\314T \274\275C*\274E\273\331\273\327*\206:\360\316\307\273\307\262,<\013\311\313\272\3300\005\274{\353\301\273\231\217\247:\233G\031\274U\343\025\274\204\314\261\271\346$8;i\222\001\274\246\212\366\273\305</<\206\264\3449*\307z<F8\277:\225&\001<\223\007\256\2738\312\270;\252\177\234<\027\021\200\2722\010\270\273/\367\007:\240\325p\274ev,\274f\0339<W\236\341\273\220<\272\274a\022u\273FsR:T \304\271\231\203G<\024\223E<\303\235\204;\016\210r<d\202\022\274\346\310\023<\334\376\373\272\373\264\037\273\362E\034\274\313r\246;\016\335G\273\006\220\302\273\n\010\203\274A\213;\274MQ\233\273\335et<\220\014\364\273\0226\037<t\270,<\214IQ\274\257\376U\274\324x!\273\022\276\217\272\316~\205<0\230\036<[\312\355;\250V\025<v?\240\274\245P\332\273{\300\247;Ix\245;\344\232\206\273*\013\355\272\244\033<\274\351\247F\274\201%\344<\t\026a\274\304\235H\273O\373\364;E\334q:\234\246&\274\375\256\025;{OX\273\'\255\253\273\352\225\327\273R\303m<\360\002M;p\206\331\272R\254\020<\335.\007:\013\243u\270\230;\014\274f}\226\2748\263c;\357\2667\274\360w\032\272\252\271W<\027\277\324\273\244\003\204\273\370Qc<\335\250l\274\344,\313;\360\371\254\273U\265\201;\317\372\327;i#\304\272\222rX<\321\n\204:\356E\203\273\231?\222\274\35125\274\030\221X;\345\251|\274\005\311H<\335!E<\214\241T<\236\021P<\357\030\277;\267\300\222;\267\243\001<\371\2003\273\233\230\343:\274w\334:\023`\212\273\364\335\217\274{\353R<p\271w<\020&\211;\'\212\233\271\320Do<\320w\351<}\337\336:\'\002\022\274\253\362\352\273\330\010\337;\304\374\320\272}\003\335\274D\323\004\274\212+A\274KRD<n\2730\273{\226\302\274>4\263<b\033\300\273r\277\022\274\0314\256;-Q\033<$\310\264\274S&\223;\003%\027:\206\330\021\274\007dj<\300\260c<\234\371!<\235:\271\272ye\030\274\360 a\273\210\323\022<X^\331\273\306>)\274f\204\273\273~\003\177;|\010o;\355\032\212\271\346\"_<\013\010\246;[-\361;\"Q\r\274^[\375\273<\003\237:\255\271\266;\344\360\031<\3276\t<\\1[<u\3647\272\262\033\370\2747\304S<\360\'d;\342\371\244:\024\231\251\272\346\000\360:\354\374\352\272s\321\320;\217WV<\305\215)\274\320n\017\274\200\212\235;&\237\017\274G\344\002\273\324N\006\274\036i\312\274w\225\256;\232\250\t<n\033\236;]\306\210<\211\351>\274\253\035)\274y\010E\274\006^\006\274%r\252:\334.\007\274\236\312\227\274\267\277C\274\230\232\336\273O\307\212\272\374\216\'\274\025O\336\272\"\263\223;~S\317:`W\016\274d\2026;\225\362[\274\363Sf\273\217\002\270;\334\331\'\274 \032U<\212\326\217;\t\355\001\272>\nj\273&\375\322\274\264]\276\274m)\233<^\032a;+\001{\273\346\250J\274.\212\362:\013Z\024\274\307\331\236\274\316\325n<\270\237\307:\346\246\'<\3003\024\274\314j\216\272\307\247\375\273W\325$\272S\003\212;!\206\276;\004\024\014< C\243;M\020\272<\314\351\3719\366F\231;D^\244;\343b\236<=O\357;\275\201\372;\346\005\314\273\242/\305\273\006\306\212\273\356\003&;%T\307\273\247W\202;2\236<\274\007A\375:\224\377\010\274\333([\274F\255\272<\326\261\235\273w?W<~\244\206<}\3155<#\302s\274\013(\352\274R\334\002<\224,\234\273\270t!:\032\371\215;@\3261\274S-K<\275$\327<\246\304\362;\020\027\232\274%\275\372;\333%\220\273\253\202\024<\2601\343:\017\341\211\273B\370u<\013G\304;P\366\t\274j\323\030\272=\316z\273Tu\326\273)\310\321;t[\271\273S\231\374;\213\314\265\274\025W\265\2734}\210\272\260P\233;{\357g<\360\230A\274R\265\262<\276\213\3607\256\002\370;d\034M\273\224\343\345\273\0315m\273\267\324\3679\323k\224<\3751\'<\203\335\230\273\262\010\243\271\370[\376:OA\032\274\357\240>\274\232\006\031<\212M\027;H2\t<\243\340i\274\023\"\027<\\\375$;\203\304\354<\357\217\275:>N\315\272\215\217\005;\344C\232\274\334\260p:\327\331\321;ab\353\273\030o\332\272\001\336\216;\375\367\025;\305r\361\273\367[\025;\236\366d\274\031\346`\271\367\213z\274\376\240:<\265\014\372\273\201I8<\306}\217\274\274\221K\274\020\2545:\017\254\343\273\223h\246\273\003\225\214\274\300\231\236\273\363{\017\274<\330k<\376F\016<o6\323\273p\244\000\274\226\322\037\274W\375\304\273\020z\241;\200\250M\274\264\205\2438\304@\247\273/];\274\200\321?\274 \226\014\274\322\273\240;\260\351s\274|Z\264\273\002\026\365:\331\270\004\274J\335\334\273\031\030\200;o\275\371;\352\327\\\274r\355\234<\004\202:\274\tl\020<U\311\004\274A\027\'<\320\332a<\313t\036\274\002-_\274T\273\267\273F,b\272\314\245\233:2\220\340\272\304v\346;6\377\007\274k5\307\273\"\260s\274Go\357\273\222\256F:\371\326\337;\3079\274<b\243#;\006\347\376\2739\025N\274\251\014\035;\260\333\216;\\\260{\274\215l\033<!\254\271;K\245\273;>\246\315<X\343\251;+^\025:D!\303;\t3@<\257-1\274\236/\2309\220Y\202;\022\355\222\273\3538c\273\024\001\2078r$\253;\004m,\273Ts\350;\217M\362\273e\353\245\273tP4\274>XS\274M9\276\272\224dT;.&/<\375>\230\274\371\027\301:\\\007S\273\204p\027<!\031\271\274[@\241<\\\\\331;\035\216a<t\353\354\273\014\017\214\273\224Q&\274N7E;\027\307T\273\264En<\317\334^<rC\331;t\0062<\330S\006\274D\034\254\273U?\355\273\273\320\031:\013\220\334\273Eo/<\224\\<:\367\030\2478\323\247%\274\364)\241;\335\355R;\361\003\214<\007d\363;3\237-\273\235V\325\273\276^\325\272\211\234+;\340\277 \274\315\313\005\271R\237P;\262\274\027<\207N\343;\264\254\265;\022\210\210\273J\022\252\274f\204\225<\324V(\274\017]I;^\034\336\273\t\205\233\273\251\257 \274\233\207\025\273\t\017~\273$\353M\274J\026\277;\241\001W\273\216\353\303\273.\263\266:#\210l<\341\251$;\033\262\036<\224\307=<\365r\207;\027\313\200;\305\375\357;t\027z<>\264b<\320\001z<M\027\307\273\'\370Y<[y\000\273\234\022\246;\222\033\"\274\035+f\271$\360\'\273\205\273#;\347\300\236\273\252u\256:\235v\234\273W\014\361;\030\313\322<\356\'\236\274\215M\277\274\020\200\\<\200\247\374\273\224\034\275\274\363\245-\273=x>\274\022\335\312\273\216\355:\274B\001\037;x\235\2149\336>\346;\253\256M</\356$;X\262\036\274i\370\334;\265\350\220\273$U\016\272\227\2477<\255\233\271:fGh\273\303\\\007;)\224\240\272\\\023\027\273\314\256d\273\252&9\273\322\311\352\273%\372\037\274W+\363\273sh\335\273\006\030\254<\026g\033\274\322s\246;u\002R\273n\226[<t\223\020;p\232\361;EJ`\274\222R\227:\302\253\006\274iMA\273P\222\020<N\013\334\272b\325C;Bb.<RR\230\273\214\321^\273\357c\215\274Et\223;R\306\026<e\212\301\274\025\245o\274N\030P\273\346\226K\272W2%\274\235\277\211\274\260\006t\273\312\276\333;\223YV\274|\000\216;\316`&\273%%\255\273Y\361\362;\376yo\274\242^*\274\300\n\007;\200U\335\271\224UG\274\366\3120:^\347J<\336v\'<E\333.\273\315\336\005\275\337\335\014:*\033\301;@H`\274l\337\331;\240\341Z\273<\202Q\274\017\233\177\272\326~\n<\020~\311\273\324\017\353\271\022\006#<\002\n,\274F\016\326\273\271\316\214\274\344\2278\274\016\252}\274K9\230:\267\264\006;i\255^\274x\335\227\272*\"\251;X\300C<\327\022^:d\264\237;\353\367l\273\252\335\003<g\222\302\273\251\343\221<`\202\336;\327\2201\274V\332\217;B\365\200<DS`\274N,%<~$\223;\217\271/<\033T\036\272!\t\354\273Yr\255<\204\314P\273^fp:\226O\232\2731\276\204\274\360\246\005\274\241lr\274wh\035\274lYn\273\263\303B\274$\340\206<\'\2002\274\267\276\351\2736\231\206;\007;\320;\2319\001\273\315\027\002\274G\362|;\220\341I;\007\r\352\2736\000\004<~>\373\273{\244\341\272\273i\253\274\302\243\272\272j\001\335:\226\201\006\273M!:<\000:g<0?\007\274\333\333{\274\307\363\245\274jf^\274\2708\260<\227\314\210;\266 \014<^\025\024;\016\350(<\016\017U\274s\024\317:\275\003]<\206\354\005<\222\332\377:fB\021<)\205O\272K<%\274\004(\224;\233,\027\274\024Qe9b\254\246;\240h>\272g)B;\254Q\347\273\036\027\355;\202r\264\273\035Q\374\273\204!\2018\267ob\274\265\224j\274\375IF<K\"\025<\231)\\<\257\270\211\274\204\237\010<}\rU\274\245\256\\\274d?f\2748Y\254\273\242ib\271\214\340X\274\035\354\037<5\341\021<\225\260\351\272gd\305;o\002\377\273p\301\022\274w\217O\274\275\005L\2730\032\300;\266g\224;\357V\203<\225Xo\272\200\304.\273\240VP<\250>\026<\235\337\266\273\2469\333<\311\037\221\273\200\272[\273\035\036\034\274}\232\357\2733sA\274\320\014.\274oo\024\274\243\261\205\273.\240\243\272\213#B\274p\207\324\273Y;\367:\t\177p<U\3054<!I\017:\234\3564;\374\226\3439\252\363M<\215y!<\366\203\216<s\031I\274d\271\031<bz\221\274\373\361\344\273sa2\273\002\265s;K\001\337\273\312\003V\273\224\261\310\273g\232p\274F\273a<\2061\204\274\177C\023<\376\371\245\273\257\264g\274\324\266\227:2M\272\273\234#,;\017ep:\344\206\211<\225\274:\273/\376\244<\362j\204\273\300\261\336\273\232\361\213;\302\"\232\273\245\264C<\354.v<\235\237\252;\002k\032<GD\252;\325\022\335<\331\317\027;\263\254\006\273o\327\262\273k\270\201<\'C-9e\352\306;\3366\023\273\202\021B<NL\3728!\241B9]\202\313\274\270]A\274\267\357\275;\333$\257\273\024\026\366\273\334\360.;3\241\261<--@\2745\214Z\272\t\351\307;\344^\255;\342\271\225\271\022F\276:\273\353U\274\266\346\005\274\243\317|\274\022\354C\274,\353~<\026\243\217\273\330<\220\2747\037.\271\346,\2339\271\230\270\274=@T\274*+n<\360\237Y;\352\250\317\272{\276\275;\251\366T<\304\256\224<J\224\016<f8\361;\360\367\220:\271\360\303\272m~8<]\377\n\273A\234$<\023\351^\274\014#\364;\252\330\204;\317\377\017<\334\030`\272\351\254\240\273[8\246<\230\334\324:F\225w\274\224Zc\274W&\006<]\336U;t\026\227;6T\n<\027\267&<\325\023\370;\225\321\204<\360eA\274h\314\210;9\211\342\273\246\336h<\307\217\225\272\364Y\232<]\313\252\273\311\3626<\371G\352\273\356&\342;\221G\220\274*B\251\274/k\202;y\200\276<\036@\027\274Dg\213:\217\360\303\273^\333\336;8ai<\024\3446<\265\030\001\274\375- \273\026\302\217\274\261\025\023;\356b\361;\304\345\334\272X\234\204<\215A@\272\223%4<K\032+;E#y\272z\300\240\273\374\371\360\272\'0\231:o\237c<\267\255\003<\004}\267;}\022\323\273\206\267\034<\016\253\252;RH\306:N\340\330;\016\035&<B\335\025\274\025i\276:&1\240\273SI0\2714\001\366\273\202\207\227;\271\274\344;\217\276};\3116\274\273\342\216\340\270\026d\227\274|\036\t\272\315\327\004\274\235\026^\274 \033o<@\373\337;\331\222\325\273~\254\362;\222\034^;\006\317\272;\357{i<\364%\177\274\325\3679\2739Sc<\000\320\026<d\366\256;\366\270\017\274\370\367|<\017\326\023;\376+\030\274\267\214s<\025\023\010<\355\371\211\272p\224\r\274<\365&< Ne\273\251jt<bI\220\273\352\302\332;D\"\213\274\314\262\003\274i ^\274\331\n5;\335\217\n<\316\340\013\273>\245n\273kP\273\266f\356\277\274k\027\216\273X\2376\274\355P\025\274\204\275 ;\301\251\311\272\022\027\032\274x\320Z<\203;\216;\2406o\273\034\257\366\273\033\330\032<H\030\237\273\352\037\254;\357V\024;JF)\274\224\300\014\274\2201\214<\260\220\2338\213\247\257\273E\023_<\334\247h\273\342\032\215\274\273\360k<\304R\t;s\232h\273\346\325\321;\216\345)<\331\'+;K\0172<\344\377\346;\320\337\334;\017\216\367\271\231\247\305\272\277\'\202\273\311\204L\272P\207e<\307[\277;\353\234\216\274\352\311b\274/\360\235\272U\257h<=\313\202\273\345\214\266;\370\321%\274=_\272;(d\205<\\\347H<\262@\376:7\355\303\274<\302\243;/\031i\273\262\360\272\273\361<\200\274\244\327\223\273\362\271\334\273\352\305Z<\373\204\026\274\036\030\225\274\336\007r\273\260\306)<c.\202\274\000\037\263\273\267\2349\274\247\034o\272m\264\036;&\210I<+E\177;\353\314\312\273\241\2557\274=\315\005\274\325\036\014<{\200U\274\300\351S\272 \254\202;0\301\027\274\306\177\025;\336\342\211:T\310\245\273%\321\002<\341\0323<\333n\206<\214L\215:y\235]\274@\230\351;\2021\227;\270\0130;\327B\033\274\026+\201;\330\350\013\274\2168\216;\225\201Q;~\tJ<\371\246>\273\374i\370;\020\005\317\273d\320\225<\2226}<\036D\275;\3440\031\274\312Q\342;.\371f<)\210\343\272\0146\372\273M\350\3049\032\251\241\273\302eo\274\334\330);7\250\254\273\234\235\374;\206\274\214\273\264h\211;\220\376\214\274E\262|;\002\206d\274\374\330\362;+\3232<\024&\r\274KFa;\203\246x<\231\307\336:\360d\271;\006xE\273\346h1<\246\200\310:\211O\010<\247P\377\272p\311\003\274\255\265&;\200fa;-\277\313;\227{\027<\302\341/<7\357\037<\251P\3269\367\247\247\271\202\316\255:\311x.\273W\226/<\337Q\t\274=\207\360\274\234\343\270\273\370g\267;\273\341\215;\274f\356;\356D\230;\370\334\376\2717\277%;\325\036\005\273)\251\367:\302\335\311\273\365L\216\273\330\370\032\274.\272\030\274\035\030\002=\224\253E\273\224t\277<\260\0038\273Ac\276\273\016\237\212<\240\010\207\274)\036\330\272\030\362\2567\200\\\302\273\007\022S\274\205S%<\017\023\222;\347\226\2638;\317\321<\024q\320\273\326\330\224<\265\253d<\200\234\001\273\307VQ<.\365t;\245\203a\273\273\004\304;\320M\235;L4k<\274\210g<hF\225\273\'W\026;\235\351\313<\006OB<\177\202\201\270Y^j\273;3\017\273\322>W<\330a\014\274e)\'\273\202\236\035<\200i\225\273K\035\034\274=\317Q<^\213\036<y\206\314\274F\275><)\313\200;\263\265\250\272\0245&<\272u\037\273\302\351\210\273\023,\237\274\251\022\212\273\375\304\353\271\306\002\037; \320\"\274\217\024V\274\267\207\342;\372\346\233\274\233\000\017\274T\226\256\274\331\201\334:U\034\332<\275\214%\274p4]\274\231\331,\274\316\226n;\306%\021\274\351\327n:\274\231\240;7=\013\274\246\372\200<\207\376\205\274\375\243\205<\276\360\217;\222-\024<\201\032\232\273A\302\322\273\324\017\203\273\224]b\272\270\226\030<\031\377\201\274\360O\023\273\205e\212\273\216m\330;\301~{\273\002v\243:PQ\235;2L\312\273r\030\270:\'*\016<\263\261\334\271\024{\007<\336\013};\256\373b8\345=\300\273\320]\243\273\205P\2139\335(\377;\222\275\254\274c\346\230\2738v\353;\316\344\027\274\274\200\351;z\307\206;2\273w;\317\035\232\273s\206\211<\302\3538\274A\300T;\005\350\311;\342\332I\273\316N\261;|)\305:\222\351\003\274\000\354O\274M\032\313\273w\213h\274`\374\347\273N\002\205\273\253\355\013;1\222\"\274\362T\302<\227\217\221;$\265\027;\267\226\221\273\201\235\"\274\343\230\206<\344\355\241;\260w\226;\351\235\242<Im\000:\364\262:;]\301\375;\242\324G\274\304I\316:t\346\242\272\'\026\n<\213:\234;!\3201<o\240c<\242$R\2732f\325\271A_\247<\'Y\302\273\t\222a\274+V\356\271\262\346\331;\257\300\202<\035C<\273\204\365\347\271>\005\023<=Y\007\2744\014K<\002?\200<KI\177<\3663\023;\312\365\213\270\310-\t\274\231{3;\360\020\021\273\242\010\004\274\026\034\236<\231B\255;\346\\\272;=}Z\273\374\t>\274\307,v\274\0027\237\2716q\022<M\372\202\274\360b\032<\'\001\020<]\016\222<\313\313\223<\231\343\305\273B\227\210\273_\006\236;YT\3357{\201\263:\264\"\304\273\306\235\002\272\016U\237\273\340[\237\272k<)\273\373I6<5\003_\272\000Nx\274x\032l\272\357\251\251\274\260\345\241\273P\340\304\272\206\342\272\273[\027=<\260\314\311;\260\241\255;dwF;\006\036\375\273\327-8<\334\241G<\270\n\320\273X\366w;\240v*\274NE\010<\347\374\304;\354~\001\273/\320\250<\305e\315;\317\264\024:%\362U\274\353\247\260;\2125l<\001z\322;\375\033\312\273y\265F;\375,|\274\273\220i\273\007\263\272\273?e\010\274\353\341\302\271b\257=;\027\361\333\273Wy\200;\342\025\'<u\277\023<4\350[\274qf\036\274\267\360,<./\354:z\277\204\274\255\211\313\272\334\371\326;t\210\177\274I \212\274\220\033\244;G\377\014<\023`\017\274\033I\033;\304c#\274\005\352h<x\002\356;\236j\302;@\205\366\2739\t\243\273\225\3774;\276\365\035<\030\032\300;\251Vj\273\241\031\210<g\231\277\273c\013\371\273d\343%\272\363\254s\273\217\274\363\273\223\264\"<\002\362\033\274}\'3\274m\016\202\273x\267\342<\230\001\201\273\312\335\321\273\334\3056:\235\344!<k\273\341\273\255U=<\034\240a\274\237\262\005\274\355\177\243;\317\212\032<5\366\324\272\336\256\363; \246\364\272\tn\306<X\276\244;K\362_\2738\240\253\272N60\274NQ!<\036\343K<\3675z<\323\241?\2748\007\353;\217\025y<\344\311\217\274\222\343\202<\376\0206\274\035\361\007<{\367\027<X\217\265<\330\210P<.Y\263\273]5I\274a\342\021;\306j\321:N\036e<\240,\360:H]\027;~\016\321\274\305\025\371;\234<\241\273\227\203\221\274C\375\003;0\336\352;\330\010b\273$\261\212\272\330\236F\274\207\217\205\274Ei\317<2q\235:\'\350\324;/Hs;\215l\247<\200\024a<\256\230:<[\275\232;\311\242I<=~J\273V\030\217;}\227`\272.g\233\274\233k!:O\222\357;\275P\252;3\"\026\273Tf\213\273\002\200>\2744-*<<wA<2.\332;\304\206Q<\216\366\217<\3276\235<\370\274\351\273\340W\256;\205bL<\322\371\022<S\363\363;\270\016\363;\373>\363\272\245\217\034\273\357\370\371\270\202\254:\273\325\240y\274p\007\332\273\274\354\\;\024\324\255;\\\303\370;\231\034\304<\t\025\226\272\2721\030<t5\202\274w\333P\274`\263\005\274\307AL;j?\327;\005\331\322\273\255d\216;H\223\032\274?m\013<U\257\302:\225\231h\273&\324\225<\220\333\223\272\354\242R;\277\327\002<3kP;B\214\356;\371\364\357:R\217\234\273\320\256\250;!\021\252<\364\264t<Y\262(:\353\034\201;$\266\315\273i\014\026\274\346\026\327\272uB\n;a\240\246;\217\206F:\232\202\005<\305\013\201\273\341\300\320\274U\222\331:-o\215\274\301\317\333\274x\327\372\272\257\002\326\273\n\'5:-\263\006<\017\303\305\273\252I\362\273\204m\200;\001\360\326;\035\343,<\377\253\007<\371\255\036<\177\013\010\2747bh;\234\251\335:\235\354f<b\255\355;\235\361Y\273k\371\353\271\034\350\375\273\034\267\246\274X\223\007\274|\251\237<\260\345+<\374\022\265:\003z\363:\335\235\022<+\334H\272\346\301\035\274:\031\034\274Ye>\274\244\200\270;P\256\204\273\306\222\224\273\212\221\003;\307\316;;Ax\223\273\2737P\274\207T\031\274\305G\t\273H\356\025<\254%d:p\221\366;\005-\2709\327\005\t<!09<o$\226;U\354E<V\315!;\376T}:\177\227\224\273\205\001\346\273-\326\260\270.Iu\274\346m\311;*.\366\273+<\255\273G$\025\274\020\302\263\273\2638\304;\266E\"\274PXN\273\000\224\305\274Y\017\024\274t\235\245:e\000%\273\345\235`\274\267_\277<\316\311f<B\301o\272%k\253\2736g\250\273.&A\274\372\336\006\273\324\354Y\272\'TE<OM\207\274\3675_\272~a\262\272\271\022\220\273\300\321\020\274\3555\263\273\034\366/\273[\312G;Y\217_<\001\t\026;\r\315\204<\222\325\016<\202\317$\274\211CL\274^\r\216\273\246Q\321\273\316ky;\366}$\274\030z1<\301\217\271;\231]\256;\320\261\242\273Ew\224\273&\350e\274\201FL\274\024\270\254\272\265\210c;\"WH\272\250\027\017:b\346\343;\022\350\363;\030\201:\272?\236\225<\353\004B\273\262\263\001;U\032\225\273\274\270\325\273\0334y;\007\303I\273pU#\274\333R\366\273[\325\304\273Z\000\021\274zi\231:\324\362)<\t\341\002<A\243\301:\373\331l\274\354\243h;\362\\):\371G(<4\273t<\271\007(<2\266\322\273\253s\245\274\343s\351\273\241YE\2749L\205<*?~\274\212>%\273Z\316\202\273\240\017\332\273\241\373\323:\264x\2419C\306\241<\362~\255\274\215\224L\274|\304,<\201~P<\244\350\200<d%\277:\206\256\251\273\246\326`\274\016\234\315;\256\355n<\177\240\n;\200\301\037;\364\242\355\272\\L\273<d\035\341\273\005\031\010\274\2613\220:\260\30199!{-<IT\036\274yo\217<\300\224\256;\224\230l<\202\313\317\273\367\033\0279A\211,\274\037N\031\272\341(O<}\245-\273\310\374\003<\017~7;\342\220U;\373V\024\273\373\'\320;\206\245#<\000\013^\272\345\010\376;\265\235f\272\014\255x<\271\343\241\272\r\327\013\274|\343\203\273\222\010L<\327\022\n<\"\264\316\273\000l\313\273\366o\020\273\242NF\274\267\3539<I\021\200<\027\340\006\274Z\247\022\273\nHb<5\341^<\220\266\201:\017=)\274\357W <\372E\205\274+i\025\274\252\341L;B\215$;\262\347C\273\364\340\223;\2452X\273\336\3247;\302f\306\273\252q=<\376\323)\273G\273\227<\000\013\';\252\222\333:\274\2404\273\306\344E<o\265\362;D\n\336;3*w;\252\t]\274F\303L\274e\310|\274Rv0\274T\300\312;@\367\232<\035\350\360\273\360ED\274\220o\237<p!I\272\355+\206\273\n\377\244;\001[1\273W\222\t\2739\252@;\'\016\030\274%\035\224:iUR\273\347\215\372\272\257\013\207<\344WZ<O\035\016<BEp\274jGD<\342\020\214;\014\206\024<\001s.\274\271_;:sL\245;\373\002s\273s2\212\273y\005Z<\001\024\344;\215\363\003<\233\340\006\2742\366\023\274~f\003\274bs\305\273{\240\002\274^\224L<\233\233f;]9\342\273<~\n<\233(\340\273p7A\273\221M\202\273\257\037\247<\357\202\350\273Dv\r<\230\312e\274\355\241\257\273\216\244z<i\357y\274\267\005\t\274\344\223\277\273\273\264\3428\3005\262;\317V\222:\373\356\266;\2016\334\273\327\307\243\274\327\216+\273\300\2209\273\341\000\010\274\005\010P<}\332^<P\255\303<\206XU\273*\363<<cm\034\272\020\225,<\225\353^\272\020q\025\273\263\214\246<\376J\256;\224\t\264\273D\313\252;|\357>\273\031\214a\274h\226\210\274I\207\3159\273m9\272+\031\3449w\004\237\274\234C\310;\341$!:\307q\315\273;2\336;J\360f\274\207\276\330;\3000\3709Y\247\325:\336\032\336\273\242_\016\274\247oU<*@\344\273\003\302\210\274\t\254*<\276\010};&\207\360;\253x\037<\325A\313\274\005\355\206<\303\032\210;\346B\335:\342d6<\nr\332\273\347\257\332\274\267|\033;\275U\224\274YF\243\273\034>\253<\017\225\005\274w\356c\274\3204W\273x\022\020<\345\016\355:\217\014\000<\334a\031<\251\207\370\271e\321/\274$Q2\274\023\377\312<\362\335\315:\370\236\221:\270Lu\274\"\254\226<\230\023\3739\224\314\327;w<K\274\247\333\241\273\206Z\200\273@\301\017<@\235\221<\005j4<e|\326\273\300\025\246;`\256\030\274Em\262;b\336\305;\256\256\262<k\020\316:\336\337\317:\304$0<\202C\202<\371IJ\273\200\200\203\272\207\377\224\274\260q\033<8X\016\273X\327U;7\355+<e\316\274\273Xte<Ou\347;\225\324C<\225<F\274\357\005P\2742\337.;\006\033\345\273\256\213\370;\201S\304;X\332\251<R\022\021<\353v[\273\331\235\255;y:%<\2332!\274\351\036\326\272\276\200\374\273\366\340\037\273PH\316;\356\3103\273G\353\245;!\"\226\273V\227%9\236e\277\274\033\253\327;\317I\310:\027\325\215:\227\260\336;\222\361$:_\376\007<\306\337\361;\236:\201\273\266Y&;\213d\206;\344\243\025\273\027\356g\273\030\264\367:\346\007\346:\216\2159;\253\\I\274\374\335\210<{\357\233\274p\365\301\273\340\320\022<\030.\255\272zy\003\273\364\233!;\0073\320;8\201R\274\030\206\260<\335-\215\273%\235}<\025\274!<u\217\r\272w\335\360:\334\356\242;\177\374\236<n\006\2659\242\004\271\274\347\265\243;\036\220\230;\240!\367\273*\005\177\2730\033\257\273\023h\245<TP\372\273\342\nI\271i\204 \274\257\001\005\275\3426\206;nP\034\274\036\365T;\216\336H:\264$$;\275\346\034\274\301\235\243<\024\277\313:\262P%\274\311\030\255:\301\230B;\322\177\242<e\344.<\303av<\205\365\022\274.\350\246;f\265y;}\262g\273\305\327\311;I\213\372\273\312nF:\217\237\250\274\240\275\235\273;\367\322\273\371\336\000<\"\271\'\274A\240\252\272\036\350\n\274\376\375\343\273F/\007\274\234VJ\274Yw[\274\346\005\266:\302Cm: \227\320:\346\315q;\304[\242:<]X<n\034\374\273\255v\204<\253\232\300;7RH\274\352\355\021\274\204\033\034<\270F\301;/\3013\272\252\325\320\272\247AH\273\336\203I\273\255\312\200;[\002\361;F\220\324;f\316\223:\330\000P\274\327\210\333\273\305(\006<\231\373\342\272\370K\341\273\216x\206\274\312\347\254\273\236\352}<\nkv\274\305Z<<k\314\177\274\336\356E<\374|\223\274n\204h\274\316\225!;\275\355\341:Jat\273\231\232\007<\234ph<\351p\247\274~\343\025;v)\016\273\276X%\274\"p\220\273GbI;\360d\316<\324\211`<XP\220<4@\032<\274n\353:xzL<\374\217+\274NE_<I!\275<\027\n^\271AwY<\215\205\'\274\002\263\360; \256Y\274\371&\021:@9T\274C\013\370\267m<\205\273 \372\023<\035l);\200S\336\272\231\272\235\273,*\201<b\310\217\273\225\330O\274b\227\264\272\026(\026\274\034\206\344\273\262y<\274\t\334\336;\320\376\033\274a\327\2339\356\334.;\237=\212\273w\026\257\273\271\355\023<n\223\004<\246R/\274/?\206;\226\352\034\274\327\320\236\274ANf\273g:_\274\231\035\017<\224\323\206\272\310[\231\273\336\2063<\216>\360;\330\241\310:\305K\271;\006q\013\272\000\202@\274\257\003W<\033H$\274\237n\225;4\265\366;n\347\034<\357\227\331\273dV.\274\302\370\213\273\252\035N\273\257f\':S\262K\274\376\006{\273\302(\002<\204\2011<\375\201\275;\317\335t<I\234\257<\357\205\026<g\014\320:\346\206\302;!B\210<\373\225}\274\3636\221<ku\347\272Gs\'<\360\271\277;\016\347\034<\335r\224;\367u1<\247\036\206\274\274\277+\274\346\262\n<\274\211\354:bp\226\271\304\035\342\273\222g\347:\207\207\360\273\344w\027;\212f\351\271\316,\037\274\371\023L\274\210e\200;\207\243\026;\034\312\211:\213\225H<\256,y<5\225\234\272\375\245(9G_\335\273\014f\367;\257\324\336;\031\311Z\274\016\240\240;\346G\007:\252\264\264;\022C\272\273;\205h\274\2518|<^\200\245\273\003\201\361\271{/\r\274\002\312\223:5\002\377;\225\314N;\204\026\240:\007\237\266;Fu\026;\312\233\266\272\302\320\000\273\356kY;\264*\227\272\227\006\256\273+\272\213\274\213\354E<T\021 \274\244u6\274\025\200\2038{\377G<\321\207\010;\253\006l<\375H\016\273\263\004\255;\354\277\361\272,\020i\273\230\241]\274\331\014\360\273y\2333\272G%?\274\235\013\017\274[0\200;\035\232\0379\207u\344\273\306W^;u\341`\273s\221*\274S\010\367\274\211h\037:\315k\207\273\3072\335;!Jz\274\244O\021\274Q\267\033\274\256._<P\003\036\274\307\201}\274U\252\026\274\023\337\026<Xt\032\274\317a\220\273\017\342\035<\230\300\275\273*\310\355\271\234\322\247\274\360\320\376\272\036\354\354\272a\215\363;\\\2262\273\2551\306\273\002\257\226<\212:y\274D\300\314\273\323Qo\2733g\246\2737\3573<\021I\236:\267\331\3009i\003\340;d\010\'<\371\344\010\274\336\261\220<\270^\2749\244NX<\305\224\035\274)|{\274\374\337\360\273\201(2\274\356\330\332;\020\253\r\274\024L6\273j7\021\273I\230\010\274\335>\211<[\003\302\272\312\321\227;\362\177\004;\201\273q\272\306`]\274-\227&;\363\001\n< \177b<\0029\302<\245]_<\025\271?\274m\361,:\3070\221:\352\303\363;\274K\031\274\345\0239\274\311\203\250;B\252\017\274\036\301\202;t\342\003\274<\330\354\273q\227\243;\200\347$<\253c\";\t\304B;s.\034;E\321\213<\247\324\203\274\346\327\255;x\362w;@\303\252<\322\244=<\016\254\317\273m\357\222\273\317\351\000<\352\226v\273UV7\274\346\034m\274N\264:<\234\203u<8[\310\273\013]\211;\375E\035;.\202\330\273\307H\364\273\341\365m\274Z\376\202;\313\020.<\211\364\352\273M\010\222;\315\276\217\272X\370\304\273@<p<\016\243\371;\002\375\233\274A\307\";\"\226@<g\002\313\273PtJ\274O\214\014\273\025j\214\274\002\177J<\217\247\240;8\177F:\257\037\005;\256\261\243<\023k|<\\C\030<T\325I<\207\202\224\272a\321\274\273\035N4<|\343=;q\357\004<O\024X:3\360\r<\323\020N\273\265K\235\274\202\357\206<\251uo\274\264]g:\033\022\013;\267|\032\273\375/\201\270\375%d<\233fc<\312\025\337\272={\303<\341<A<O\225\303\272I2\005\273C\244\226\274s@\341;\244\356\032\274=;\013\274l\n\016;\347\240\277<\213o\001<\275\257_\274N \2419\235\323!<\360\243{\274+2\344\273\257\351M7\234\251\242\273\t\026\035:\234\032\321;\027)\347;\027\363\206<\362\222\371\273\330\305\274\273\270=\303;\257\341\260;R\274\201\272\"\370R\274f\205\016\274\245g <\033\242\356<^\335\315\272\223\365|:I$\2779\357Y\333\273x\251\251\274\371\010\243\274\330\257\210;\220\353g\273t0\202:Y\n\215\274\320\037\240;\360\253\037\273:(\006\274\230J\013\273C\335\237\274&1\233\273\336dV<\207\007R\274w\305Q<\330\232\354;x\343\266\273\220\227\266;oz\024;\274\2138;\235Om;\301\320\342\273\033]6\274t\000}<\375\"\"\273}\013R;\337\010\225\274\333\313\362\273\013\342\246;\2577\273\272\205\371t\273;\225\023\274\326\240\233\273\005\'\3269\367\275b:|PB\274\275l$<\013\032+\273{\306\251;\342-j<\242\275H:\331t\225\274\265\233U\274|\330\024<\3627\3636+(\025</Kj\274\276\337\300\274\347\260;<\017\215\264\274\215\224\233:l\304\037;$\343a\274&\213,<\313\207\241\272\211+\346\273\360\221\257\273\240\267t<\036\230Z;\256S29p\204\246;\2114r\273\375\345\216\273\217_\310\273\205\177A\273b^\267\273\311\036x\274i\346x\273M\202\001\273j\365\274;\225\362\t\274\207\344\232;\004\002\264\273;\320#:\341\227\373\273\327H\325\27330\247\274v\324\033\274\274\227\273\274X$Z\274\253\r\031\274\336\361\033;\206\037\347:\216\n\274\273\363zB\274F\002\n\274\"\021\031\274\305\345p\274\251\375\265;vH\230\2739%\212;+\223\342;=\r\336;\300\257\311;\373\3446<<\3434\273\212\335\034<\247Az<]\315\004<\223\267\355<\240j8<\366\272\252;*\357c\274A\305\271;*\0068<a\267\341\274&\032j:\327%$\274d\211\215;\tJ\223\272\353\215\2018\246\241\000<\035\377\214\274 Z/\274\277O\013\274\004\216\225\273[\016\371;\305\266\360;+x\373\272\320\367\"<{S:\274\206\372\272\271\353\312k;\375\230\337\273N\332S\274}\027\214<\225&\345\273\006\237D\273ji\265\273\215\212\034\274\307\2608<\031F\303\274\364 \233\273\233\353\016<nE\260:\252\263\303\274\341\313\345;\214\270\363;gq\245\273\257U\266\273\316=h<P\376k\271\003@\224\274\356\312\352;;.\237:\031a\023\274U\013O\274\360HO\2730XM<\341\013\2319\236\331\275\272f\366u<\tf\360:\243Rm\274)W\245\274]i/<\202\010\306<t$\265;\231:\024;\035\177\373:Wr\303;\036\016D<\304\274\252\271\317\232[<j\035%<\267\016\020\273\267+U<\202\311\034<+\025\245<-q\231\272\224\204\030\273^<<\274\000p\364:\352\037x\271\025\346\364\273\256\304\010<&}\206<\r\340*<\316\361P;\353|\270;\331\227\027\274AF\302\273(\357\222:\330\221\275:m\342;\274\351q\300:{\267\256\273F\362\277;\316\323K;\330\274o\274\273v.\273\031\355\227<\243\311\242;T\371\203\273kb\247\2733\342\235\274\244\343\267<\376V \273\306X\030\274=+;\274W\242L;\000\256B\274&\2765<\262.\234\273\356\303c;N3y\273/pV\273\334=\310;\257W<<\017\342&;\262Yb;\335~\004\274\264D7\274\003\231\205;\342\360\227:7bO<\207z\321\273u\227S\2742\3100;\260\303\n<\313v\303\273\340\363u<]\351R\274\212\3702\273y\243\260<\317yz:\307\330T\274\251\210\217;m\t5\274\331i\365\273\000UJ<\227R\375\273\207X\215\272|xb\274\000\203\205\273\353\006\341;;\034\261\2714\346$<x\376$<\245Y\326\272;7P\274\313\372\316\274U`i<\3364\366\273[\224\025\274\332\035\010<\342\214\016<0j\212\274\315z;\274\2018A\2743\240\003\274\312uD<K\352\206\273Kd\000<\030\244\305<\n\tZ\273\006\"\243<\260\024H:[\344j\273\271\334};\317P\226\273\346\200D<[V:\274sjL;\211\206Q\274T\177\241\273<\202y\273\201k|\272\006e;<\030\"r\274\364\324\250<\376\253\004<\365\356N\273\375\371\031;\000V\253;\216\342\026<$Y\312<x\237\'\274~\375\340;\200\315\025;$\211\020\274[\007\004;\262z6\274\000\203;<F\363v\2745\223\261\273i6\322\273>\235\237\274\320\236\016<@O\355<g\323s<d\032\256\273\323\3102;s{1;tH\225<\033\272\332\27449\207\274}\301V;\006\003\300\271;\226\2779\271\016Q\273\303\213\235:\225\325G<K\330\214<\024\267\325:i3\203<\301\243\227\273\202\357\000<\013%\262\2747V/\273\342\303\220:\375\362v;\000\361=<i\026`\274}G\346\273\324\255\334\272\204~N\273\2174[\274\333\007\006\273\234Q\2729T\340X\273T\244\357:\256\325}9\365)\343;\202\326\004\274\240{\030\274\363e\275\274(L\212<\001\307\353;\253\337\006:\002\257\261;%H\254:\264_w\272\352Qd:2\317A\274\016\324\337\271\263\330\341\2732j$:\2313\202\273\342\036N;\302=\302\272\211\316\201<\225=V<\262\311\037\274\206\367\'<\024\344\257\273\241\006\031\274\220\211\223\274\257}\001<\345\330\014<\275pC\274\177\302\000\274\347\325\217\273\323Ol;^wh\274\200\337l\274\247\266[\272\230\232\277;\244\016\221\273\220v\205;\207j\225\274P\230\354\273\033\232\244\273a\352\032\274\320\240\273\273D\010\033<\320P\267\273\320]\004;;\203)\274G)\353\273\001\245<\273\356\377\032\273\271{\025\274\300\330p\272\240\332i;\312\341\326;R\203#\2749\266\033\273\225\316\267;\372\262 \273hN\020<\305\347\323\273\236\201\025<\264h\277;P\021\256\273\274\215\255\273\235\003\031<H\332\217\273Fa*\274\3245\270\273\372\342\222;_q\203\274\262\275\006\272\323`\"\2724\355\352;\010\252\000\274\347\025\255<\263\210\204\273\302\2461:K\350\270;\271P\005<\237\206\006<\353\231\212\272\307!1<\322\364\370\273x&\"9\002r\323:oa\214<\271\026\212;\306?\3128\330&\336\273\207\346\023\274\315\364\202<\n\213\254\272\024\332\311;!\327\027\273\0200\260\273\360\213\003\274\364\367\215;\376\201\337;\200O{\273\236\273\035<*\235\330\273\000\202\360\273\'\270\213;\327\337\226<\306\377\033\274PRT<\241\031\305:\341\003\206;\355\213\277;a\210\253\273\322|Q<\022\261\373\273r\364\224\273R;3;\370\220\375\273\000m\246\274\376\205\227<.\023\320;\035\026b\274\253\364\375\273\243~\354<\375L\271:g\230\245;\317\205\030<\027\265_;p\342\273;\247bX\274\351wh;BR\361\273D\227)\274b\352\036:\254\007\351\2730\367\010<\320\017\351;;\353\205\2739\374\243\273I\326G\273xh\006<\254\250\233\273\3060\n<\201\356\221;|\377\344:\371M2;-P/<\345\303;\274\346\357\346\273w\016W\272\357\225\030\274\204%\230<\333\000i\273\367\"\223\273S\2068;\327\013\301\271\033\002%\274K>\222<\017\301\226\273w\001\337:U\226b< )\";\3029R<U\261\206\274\246\\R<\020C\204\274:b\002<\313\r&;A\316\243;;\266\205:k#\025\274\036\255\"\274\275B\016<\3000\344\274\001\237\356\274m\206H<\013$S:2`G\274\330\020\242<\327\020^\273|t\016<`$m<\nx4; /5\274\\s\272;\213rM<\234\277\231\273\356\314#;~\252F9\313Z\213<g\323y;T\225*<N\036\3179I{\226\274\306&C<\273\353\245\273\311\262\270\273\320\013\364\273B\313V;\222\364\363;\275\237+\274\"\327\225\273\227J<\274\024\"\271<j\251\334<y\rE\272/f\226\274RH,;\275\205\307;T\\\252;\316\033\253\272L\330\210;\315\3004\271\312t^</k\345;M\352\022\272\331w\036<\211Mr<\264\347\020\274]\006\303\273\022e$<\010\020#\272\235\033\250\274\304\235\312;\023\177Q\273S\375\312<\346\325M<\374;\305;/\023\220\274\313d\0179\316\332Q;\335\025j\273#\261}\273\371\251L\274\374\202>\271\271\357\236\273\313\320+\2745U\037<7\273\321\273G\265)\274\204p\204\273e\0062\274\234Z\226<\026\023\"\273sLS\274v\317\000;\\R\373\273=\016v\274L\264[\274\001[\004\274/\000\335;\256\033\231\273\313\350N\274^AP;\200\300z<\340\002\317;8eW\274\346\221\257\2720\257Y\2749;\243\273k\316\201<9\215\220;\250\213\013\274\317\353C<F+\336\273o\211\023\273k7\361;,\020\354;\356o\217\274w\375l:\26231\274kR\240\274u|\3029X\302\351;i\271<;\371\355F<\036\226\377;\356\243\322\273\337K\005<\262\023\226;,t\352\272P&\021<p\340\001\274\323v\\\274\300[\353\273r\t\223;\036\200\235\273!4P;\323P/<A\360\367;\220PK<VE\007<\322\025\224\271b\302*\274X\265\254\271\354jZ\273\263a\214\27333o;P?\340;\224\323\005\274\216\320\021\274\207<\241\274\267\353\201<OL\010\274\271\214\202;\273\344\255:No&\273y\366\261;\222\021~\272\322\302\233:\310\260\240\273\362Ql\273\031?\007\274\025\242\273;\272d\237\271\202\301\002\273\337\357\204\273\r\212\r<\300\221\215\274\220p\'\273.5\234\272nu!\273\324@\242\273\260\343\n;&H\311\273\327\210\216\274\352\215T<\340Y\361;2\274\2469\\\344\243;x,\264:8\336L\274\0258b<\275\274\273;8\320\317;\376\323@\273P\026)<\227\347\256;\302\267\276\272\007?#\274\341?\022\274\222\223l\273\276\0339\274Wgv<\225\014\352\2735Id\274\235\275W;\363\024:9\367\022\277:\276\014B<7|\271\273\317.%\274\271y\r<\022\223\203:\220\376\272\273k\274\266\273\375t\014\274\370\316y;\366\307\260\274\302\374F\273}\016\343;E\265\337\271\016_\361\272y\nn\27463\016\272\355\252K<\276\306W\274\013\244\215\273O\221\201\273\'\366\320;\013sJ<K\025\'\274yt+\274\273}\372<\241\242\331\273\336\376\036;;\311\301\274\262\245\313\273\t\254\377;\264\376\026\274\356\233\244;!\325k\2744VW\274]Z\202<\364\303\007\274\002\333\203<`~\266\273kB\225<\317\276&\273\317F}\274\311\240\234\274\300\340\244\274\354\226\365\273\t^\337\273\257\3648;!\341D\274\023\303\341;\257:\005<\204\3678\273]Y\005\274N\373R<\262\207\250<E\2637\2739T\301\273\224\027\030\274\r\354\271;S\301H\272\352@\352\273W\235\021\274aY\005\273\236C[;/N\253;\243\307\352\274X\262\016\273\247\242\205\274\315\032\211\273\025\033c\274\275\303\217\273\324Y\327\273\262t\235;\357\231\311\272\312^F<\204A\206;r/p<p\315\002<\242\271\203\273\356\207;\274{\022\t\274\275\016\026\274\316}%<\204\347\324\272\3264\n\272\347i?\273\342y\261\274\305>\272\273^\324>\274|\217\255:Od\211\273\"\261\247;;\241\003;\031nc<\024\275\026<\356\346\253\273]|U<B\213\017<\262\345d;\371\376Q;\340|k<[\210\253;\025\004v\273\351%\274;\005{\010\275\333\332:;\251= 9\215B\246\273\006Nz<\226\331\214\273T\277\320<\"s1<\274\245S:\030\346\310;{\222\200<\345\"\332\273\233\277\246;\217\3206\274\205\264\032\274\311k\223;\024\333\000\274\000\350\034\274\377\217\241;w\274q\273\265\320a<\262\010:\274\362\344\206<\314{i:\357W\003\274\233\210]\273r\212\324\272\353\230\303<\276\366\020<d\206*\274\207\314\010<@+\\\273d\027\324\273\013.z\273\240\035:\274\376\314A\272\212\320\253\274= \205;)1\024\274i\250\243\274S\026\201\273\264\341\257<\362r\025<\322#\220\273;\343\323:\373\274\016\274i\211\030<y\321]\274<K\376;4\002_\274A-\t\272\236G!\274\337y\t\274\233\303\013\273\312\037w\274b\351\326\272\315\350\004\273N\243\331\273s\202%\273\212Ed;BA\02790\250\206\273\204k7\273\321\266\005\274\253:\217\272*\'O<9lf\273\300\231\021\273o(9<\375\261*9F\336l<>K;\274\267\214\300\273\354^\206;\n\342\034<\313\262&\274T\320\247;\340\253\337;\016|\025\273&Nl<\036\226\246;\031\254\344\271\202\233\262\273\300\222\0339N\223\220;}\001\t\274\246M\"<\263\'o\274(Y\232\273\233\3325\274\014n\352\271s\'V:u\030\325\274B*g<\240\341\227:~bs;U\037`;C\336\020\274t\177/;\027\006X;f\236\322\274\346\272\306;\311%\267\273\201^3;\335[D<\327\n6;\036r3\274\357\321x\274\026l\241\273\006\027\203<\000*\317\272KI_\2737\205P\274\002\233\266\274@\346Q;\003\264\200\274\032\272\006\274\036\234A\274>\037\347;7aC:\273\335\326;)\346\216<\007}/<\347\241\005\272\262!\035\274\373\307u\2727\005A8xgN<\316\314 \274D\241\024\274\356U8\272@\257\313<\244\265$;<\333\317:g\014\367\274\205\304[<\256\306C\274|q\005\274\224\235*<\373.\216;)P\010\275W\235a;\332~\n:\020\210\216;\271\223\276;\324\003\002\274\251\372\005;\322\253s\273\276a\005<\007\033\222;A$\211\274\204\370\234;\017\214\316\273_\010\n\274\340\375\202\273\354\021\326;\'S\351\271\004\212\313;;P\374<q[\021\273\023\343?\274I\324%<\001\365\274\274S=\307:L\354j<\327)I<\351E\224;\036\304\013<\327\364\027\274\007\350\344:\025\360\272;\204\2374\274\0226\206\2738\303\221;\276P\':z\032\202\273\331E\341\273\023ey<\211a1:\331*\257;\235\207\245\274\373\227\201\274\213\n\243\273l\310z\274s\321%8\374\354\211\274\347\203\372\273\204\372\260\272\370?\037\274g\373\251;\002p*\274\001\n\3509)c\234\272\254\224\214\274F\020\332;\234\256,\274\240\337\t;\230\224\252:^I]\274\252\221M;\017A\237\272M\235\023\272)lw\274\207\231V\272Wf\220\273\'\206\017\274\260\307\316;\211\240\246<\013A\266;\033vU\274k\323K\273[\351p<\332S\004<\355p\275\272\307\255\316\273\327\263\227\273\027\341\306<\377<\216\274\224\2466\274X y;O\216\265;\333\206f\274\223j-;=\224)\274\347T\275<|\370\004\2725W\200;\177\321\"<\240\377/<ff\201<SwK<\255B\224;7\017#\272\025\002\200;\273\245\000:AL\315;\341G\357;n\221P:\267\033\240\274\347Q\324\273\230oN;\323\257l;\033\273)\273\314(\200\274\333\274^<\031[5<S\263\331\274\361\352\007\274\365_\303\272\016\351\245<\333\324\273;>\353\002<r\353\234<\270\375\205\274{|\250;*\341p\274l2\335;\220\t\331\273s\\\241\273U\210b;\3114\"<\274\216e;k\354:<\000\024g\273[\002\213\272@\2155\273\374\346\230\271\252\351\231\272\330\036\204\274\373~\211:\244\323\217\274\034n\t\274\236\2734;&\t\007\273\240\252\244\274\317\316[\273\367=\313;\365v`<\023\303\334:8\360\252\273\257\257\215\273=5\347\273\373\351\n\273\005\353\302<\376>\347;\274\364\243\273O\211\017<Yk\216:\311\270\003\274\021\r\r\274\200\2449<;\316Z\273\362\303\333;w\225\303;\373\322\354\273\327\220\322\272`\325R;;/\333;g\202n\274\205\037>9\026\232\027<\317\210F:F\004\355\272\257B\214<\341\2421;W\357\331;l\342w<\214c\317\273\231M\271;[\366A\274\230\234m<~H\320:\3760\321\270k\276\216\273{\177J\274p\027\035<\312\027\272;\223=\361\273\300\200\372:\024\274\000\272\300\237u\274t%\261\272\340z\253<\020\2245<\360Q\215;\225!\203<4J\232;!Zx\2734\nZ<\262\325\320;{\351\035<y\227\251<~\247~\274\334;\346\272\035\267\362;\033\347\230\273\0224\347\272p\037u\273\2716\001<\034\217d\274r\277\337;\362\267\223\274\352\343P:\356(h\273\352\204\360;!\333s:+T\324\273\222\n\262\274\2661\034\274\023Nj\273a\315\252<f\270X;\275\211X\273.\026A\274\231\214\004<w(\206<\367\'\322;X\034\010\273\375g\207\273\3334\225\274\227\363\232<oJ\016\274\210\357\213\272\017\354\020\274\2715\323;\235[v:0\033\243;\002\212\t;\351\005\220<\241\255S<\336|\363\270\016\034\221<\242\253\245:^y\224\273\274\2401<\312]\255<\215\312\203\274sw\306\273\203\326s<\260\000\237;\353{\347\273\273\267Y<\363sx\274\341#:;\220\311_\273\017\002\030<e`\321\271\326\364*\274]\376\016\274\205\355\357;\270\237-<\371\366\010;\276\367\2339G\346\327\273o\375\322;\205\014\021<\234\207\306;\352\236o;\3712\305;i\031\r;\246\344\325\273\017\360?\274\004D\240\2732iS<\362\235$<&\210&<\030\206+<\345\306\340:\373\035+\272\200\004\205\273nH\035<\226\032\025\273\223\n\030;&q\027\274\217\345\267:\247\007\227:\226\347\205<\217\330\377\271q6#;)XC<{\3575\274Y\"o\274\274\024\347\273\323\r\'\274k[:<\273\001v\273\317v@<a\356\344:\215F\201\273e\310\001\274;\267L\274KQ\333;\323\254\252;\302\201+\274\334\302\233<\265\231\231\274\206\300\277\273\266\302\037\272\276\211\031;\275v}\274r\332\007\274`\255;\271\013\356\236\273p\354\213\273\312\004\215<\364\231\3266\252\256H\273o\0257\273\363\037)<|\013\220;\253\305\374\273\213\230\033\274w\342\256;\246\261\000<\304\210 ;\037G\202<\374`\255;x\0043\274\022\354`\273\307!l<\253>7<\024\304\311;TS\236:\r\207\002<\212\373(<\212\354\331\2712\035\022<\002\0014<O\374[\274\260\006Y\273\005\014G\274\274\'\313\271m\335\213\272\377R\016\274]\314?\272\276Vd\273\273\241\253\273J]\352;\346\250\207\273\032\030\205<\331\374W\274\230\334\r;\320{\002;T59\274\234\024\343\273\034\350D<\236Z\226<\013\245\210\273\370\270!<\211\350z\273\367\324\353\273%O.\274A\317\242\274s\215\337;\307.\312;\007\271\201<\271\3463;v\010/<\313N\355\273\205\222\247<\302b\031\274U\215\364\273l\211\340;\254:\325\273v\004\211\274\246\274\352\272\316\362\004:G\221\031\274CF\223\274\002\326\204\272\353\'\227;<\024;\274aY\'<\215\363;<\300\243k;\213q;\274DW\332:9\201\016\273l\377l<)\237k:G\223\026\274\222n\220;\2026\023\274\256\016\320;\220\271!\2727\326j94\r\377\272\255<\213\273\222\027\222\273,f\317\2732\215$<\253u\014<\r\344\013\274\322\220N\274F\024\'\274\265\207J\274O\037\252\273\263\366\005\274\355=,:\n\244\374;C;w;\301\2007;\\E\256\273\t\304\377;\344\017\325<O\202\221;a\016=\274\374\031k<\212\272w;%\035B\274\335\244\336;V\344\246<;%\244\273\006\321\327\273YDV\274\356\277\271\274\360H\334\272\212X\207<=\230`:\'v\013\274x\363\265;\242\331\311\273\231\350\355:O\013\023<\275\215d;\202 x\274\220^(\274\240H\013<[\331\250\273g\2248<\031\340X\272h\005#<\326y\225\274{\rR\274<s\250\274\005S\255\274h\351\224;\007\321\356:\244\344g\273<C\277<\253\023\360;e\017a\273\200\336\033<|DI;;to\274\333\t\377\273\367\352\376;\373\374M;\336\021h\273\235h\362<\207G4</\243\370;j[\327\273\327\324s\274\3159\272\274\213\265\203\274;\336\325:|\013\342;>\334\006<?\262\221<7\233;\274\231l\260:\271\2469<\353\253L<\352Uk\273av\006<\313\336\314\271\254\322t\274\373\300X\273\333\343\200;~\353\267;\035\036\234<x\312\257;\260\231\257;Nv\355\273M\207I;\001\265\226;U\007\233<\351\202\275<-\240\035<\305\014\337;\037\307\214\274 j\037<\222\t\017;\227\3365\272}\244\027\274\360d;<)\023\257\274\224\344)\274i\203\301<\251N\206<\302\334U\272\313~\323\273t\033M<{\252\217\274\035\340\217;\001\363q:.\272\265\273\244\264\325;\375\347<<\\\351F<G\256\311:\205\207\246\273&X\250\273,\035N\271N\371q\273\024\220\273:\357;m\274\230D\031\274\254\334\010<\311f\033<~\205\231\273\"[b<I\225\'\274\3418~\274\324\322\370;\202\240w;i\301\313\272\022se\274U\271\035<\325OA\274\352N_\274\371\313?<\3067\036\274\315\311\201:!O\300\274N,\031\274\202\027\300;\020\223\2528/\374\022<*\034\377\273\202\305\366\272\207q,\274\235\2525\273\336@<:\3277\211;\376)\231;\002nG\273I\0067:;\2269<P\304\207\2744\215=\274\227\241\264\272\241N\360:@\346\344\274\251\374\020<\314\253P<S\340\200;\017\0079\273\0168\006\275<\237\207:\306\003\'\274\363\315\003\274\245\014\267\271\357o(<\217\'\253;8\\b\273\365V@\274\204#F\273y\261Q<\230\335\022\274\212q4\273\223\010?\274+p\037;J\034\261\272\031D\0259\030f=;S\302r:x\310\356\271\344wg<<\335\233\274\341\032@\273Xh\250;\'\310\261\273\324\276\033<\242`\267<\353X\310<\347\251\236<\355\0313;\232\215\016\274R\335\353;\207\264\216:<\205z\274D\311\\\273\256\022\277\272\013\236\264;\211\377S\272\210~\n\273\026O\255\272u\361\3019@\005\315;D\360\257\272jl\336;\354S\206<\267+u\274\253y\233\273\2406\345;\367\333&\273\333\342\n;\365(\310\2737\214\304\273\034\221|\274;\324r<\204\020\317\274e\023o<O\324\261<`=\265\273\320\330\022;\217\023G\274i\023\021;*\324\004\274\327\300F\274M\250\003<\224d\212\273\260\271\376\273o\323\257;{\016|\273\375P0<)\375 <=J\215<\331\340\333\272\020\366\267:6\367 <\"\275\257<\317\320*<\007E\320\270i\260O;\301W\036<$\222F\274X\342F\273=-\214\274`\303<9\253\202S<\007\243K<\013\216\262;\361\340\014\274\375Ca\274\007\005\313\273\205\nK<\0148Z\274\277Z\236;2\177<\274F\016\026\274\335q\022<\025cd\273\326\313\253\273x\352b\274u\234;\273U>\024<\233\363Y\273\246}\247\272\255\2379\274\353\001\267<\'\027\371\272\206%\r;!\251f\272\334R\261\273V\203\'\273\231w\022<y/Z\274\232\006!\274\224D2<\313+I\273\210~\221\273X\222K;\215K\264\272At`<\262\203a<\206\243\243\273\364\242\027<\251%\374;3I\225<0b\200:\233\2450;\370\340\360\273\211y\337\273.\027\3469v;\213\273\220\272\312:{\333w\273l\300c\273\033/\262<BxF\274\224\237\366\273\220\271y\271bxr;\323\341=\274\374\340\360\273K\203\254\271\t(\005;\260\035u\273\024\210\255\272\202\271F<\354A\363;\351\276\370;X\204\005<\202\244\t<\r\374\205<\231m\377;A\275\302\273\001\024D<\201!\241<\376\241\\\272\233D\272;\306EY:\247p\006\274\340\204\221:\276\315P\274@\3363\274\nQ);\324\200H\272\312F\351:\353\370\307;n\224!<\356\233a\274IP\217:%\026\266\273\255\007\203<\364U\253;E\352\252\273D\3600<j\204}:\000\211\323;,ly\274\242\231\267\2722\315\234:\342\311\010\273\355\322\'\273%1\247\273\242^\317\273.\346s\274\020/\311\272\rg\222<\346\300K<&T9;\357\244\255;D\207.\274\224P\270;\016\003\272\273\306\370\201\273\247\316\217<+Q:\273\346\220\352\273\3364\361;\234lk;\206:/\274\023\302?<\261\261\000\274-\3762\2736\370\0109e\315v<S\307\320:O\002\013\274\344\372\023<O\177M\273%U[<\370~-\274Q\275\025\273&\353\035;\267\264\204<5\300u;\356\227c\272\222\006\020:$\213\025:6\022\005<\024\331?\273Pb\027<\225\230\274:\334\316[<\217\332\236;E\363\205;\316r\265;[\252\312\272\270\022\n\274\317\374\220;\362\031\355:\245\306r\274\202\347\31283\343~<\316\243w\272n\005*<\234\'*<\272/\202<\244\356g<\223s\203<=C%<t\320\023<\271\221\210;\246\276\023\274\227\336\216\274\273\333_<\033\223\315;W2\313\273\245I2<\340m\200\273A>\277;\324P\202\273\316\326/\274\313g\200;\242\314#\274\231\016\206\273\024kL;\033\305\277\273\tM`<\005\007\225\273\316\"\032\274\311\246\201\273\374\277\305;\025\030m\274j\301T<\030\361P\274*,I\274Y\n%<\002Fz\273E\020\257\272ru\030<\35259<\374\022\310;N\023d\274\225\225\273\273-\304\010<\t\277S<\322]H;\301xo\273m\242>\274p\203W;\267\327+<\327\357\311;%\266U;\247\346\021\274\371^\234\273>m^9\021F\200\273\022^V\273\233\241\003\272\313\016\367\273\265}\315\273\n\257\321\273\035x\014<O\t\350\272\240\331\264\274\363\r_\2732\r\205\274\370\034\363:\351\004\202:\233\202Y<*\031H\274\000\324\234\274o:O<a\007-:!\310N\2737V\236<\273\275\361;\265\345@<\300\005\356;\241O;<\244e\2049Z\312\212\273\225\350Q9\342\307%\274\3760\362:j\370\3108\002I\252;8\001\335\2740\037-\274S\276\'\274\230!D<\215oC\273\r\372\t\274\327%\034\273\245\355\017\275\352}\'<\322\3642<\321\274\207<oS\277\274\371\207\374\273\035\312\235:\221\201\212\274|T\244\274tg\316\272\330zh:\302\377^;x\237\252\273\344\356f<\t\277L\273\351-T<\323Z\336:\364s\260<\2336\023\274M\363-\273\"J\317;\245\025}\271\253\336b\273\\\177I\274\222l\365:<d\305\273\034\303\365<y\364\205\273\0022G\274\271U\010<\316\375\006\274\352[\241;\343\362\217;\327J\202\274\r\314\207\273\330\036\030<\033\223\227\273f\366\315;W\270\224<\373Jj;!\354K\274\007\303\312;K\262W<\t\361\030;\331\203\037<\020\0233\2747\2126\274!G6<\317\232\270\273m\231D<\035_\314\272\243O\232\2731#\034\273\276j\024<\364\244\235;e\214\362:\327\274\274:\033t\\\274!\232\260\274\267&%<MC\005\274V\030\r<\323s`\274P :\273\013x\265\273\035\360\256<\244\037\3129\213\322\007<\004\230\254\273n/\314;\336{*;\013\312\036<\374\276\010\274e\256o;4\220\024<uv\211<-\2563\274\"03\272~\357~;f\203\216\273\016\304C\274\017~[<.8\037<$\013\323\272\246y\\<>\270w<_+\003<\216\004\337\273N\252\261;\207\021\244;p\030\236\270\251\361\222<\347\340T\273\240@\"\274$\304L\274\320j}<\322\035\302\273K\202\274:\ra\002\271\'l@\274\361\330\025<Vm.\274\2273\374\273\255\351\007<]5\272\272\332\272\215\272S\331-<]3\215<\333\270~;\034%/\2723\034@;\225Z\220\273P\274/:\252\213\236\273\275\223\216\273\016\021\037<u\301\324;\216\347\323\272\275\265\242;o\362\023<T\341V\274\020~\304\273#\376\3519\213\2134<\263\252\r\274\304\241\272\273&\013\253\273\204\n\247\273\034\346\272\273FM\215\272\205b%;\307I\213;/~\261\273fbv\273\344B\204\273\270U\361\273\225U8\274\346P#\274&\270\'\274\241\215\235<\033:n\274A\351\251\274\241\340H\267\362~\000<Rk\353\273\375\214Z\274m\304\2059\301ab\274zm\202\274.7\370\273\353\325\023\273\036\024\233;9g.:\347\337\262<=d\310\273\276\260\t;\304\355\033\274\263\1775<%\250<;\205s\004<&@\2449b\265\235\273b\322\000<t\266r;\314*\220\272\256\264\246;N\334P\274\rn\267;\244J\267\273\323(\360;~\344x\274\351\341-<s\237\300:\300\321\352\273\013\246\2338a\236\263:\202\321\334;\001\331E<\260E)\274\001)7\273$\216+<{C}\274-\233\203\273x#\010\274\017\257,<\374d&\272\027\266\t\274\257\341\355\272\030\254F\273i\317J<W\361\004\274\240\270\370\272\251q=<yY+\274j\247\037<P\245\363\272j\317!:h\001\036\274b\177\237<\336\247\275\273\311~\016<RO\340\272\002\305D\274rn\201\274\331\216\214<\322\263\204\274R\271I\274\306\273\016<~\234\216;\260\307\360;t\277\317;\322\034\017:\304O\271;\206\025M\274\376u\220\274\323\365\323\272\335\317M;R\302\266\274\263\3617\274A!\213<M`<;\004\t(\2732\t\215<3z\2309\0251O<\227\343-\274/\311\233<\200t\235\273V\230\033\273nu6<\260\342\207\274\240\301d;\217\267~\273Y\307\3509\020\000\025\273\3705`\274\270\377\267\273\016\307\033;~\223\020\274\355\003\201\274`\337\271;\023h(\274\273-\314;\307\342,<\262P\364;\222$|<\271\233\021;\301:\262\273\226\t\257\273\t\020\214;[\206\350;\327\363Z\274\205\253\005\274\270\354h\274\331\262\001\272\260\373H\273D\024\211<+\004g<\362`\244\272\315\343&\274\342\224\240:\334Je<\260\027)\273\307&\223\274\347\013\001:$Q\014:\273\237\215\274\352{%\273\254/\373\272G-W<\373T\257:\\a\302\273i\260\271;\005\2303;\213\260\244;\250v\212\274\336\305\261\271\n9\217<\367\025\216<\034\327B\274\013>\232:BI\263;f\350\207\273AV\270\273\222(\203\273 \276u\274\317\377\251;F\033F\273\002\247\202\274^D\031<\333\026\234;\2456\007<\'\200\002;\351\212\240<OT\3749\266;\232;o/=\273`i\236;E\236\320;7Y\221\2749\347\n<R\025\210:0\342\005\273\200\007\332\2730\'S<\2716v\2744\253\t<\322Pp\274\205\005\335\273\"\2449<F\365 <\020\224.\274\026\227\020\274\3221\300\272\222N\204<\2075#\273\360a\335;\215\255\027\2744\203\023;/\021\203;\342\335\371\273\265\271\217;\255\263%<\207C/\274\223U_<\323!B9\206\037%<\035\372\337;\"\030\261;\333\2527<T\232\245:p\"\315;\020\253\320;\326\231*;!\334\"\274\222\310u<\353\326\213\274f\332M<u\003\3359%\240*\274\252\317\211;w~Q\273E\301r;\253\306[\274\340\200\230;\300\265\032;9+\017\274\317\2670;O\027\301<\316t\365;\260\264\231\274*0x<\207\252+<\233`\001<\260U\205\274\210w\241; \376\262\274\354s\375;\304q <4\320?\273\251\302\2379oI\323:\006z\021<X\324\000<>\354\3037\356\016@\273\345$};J\303$\273HC\203\274/|9<\3532\232;\371\261\234<ft\210<\017c\303;\016YL\274\252\222B<\207\260\206:\206\211\304;\355\312\233\272\210\202\200\274\262\341\254\273\034A\'\274\354\210i\274{\265\336\2740\362\257\272!-\270\273\311\261\237\273\003g\002\273\306\241\220\273w6\311\273\257\034u\274&\026\224<\0132>;\177\321\"<\222]\007\274\006)\334\272\327\231\255;\256\255\301\272\026\226\226\274)\035\200\273\270\343\255\273\010\240\243;ZD\221;\215,\202\273\355\247\212\271\240\244/;\231\"\216;V\323\230\273\202\322\257\273m\007B\274\306\0161\274m<\'<\263G\204<\000\030\216;d\223\331\273m\227\027\274\273*\367;\345\001H\274\222\325\211\273\010\256\214\273\245\005?<m\217\250;\2755\332;\346\000[<\204\023E<x\014I<En\226<\320\327\226;\"\375\325\273}\377\260<dT\032;\357\217\321\274\215\220\222<4\372\217;x\233u:\272I\2229b\001\006;\216\341\216<N\032\355;y\0102\273\202\333\3769\312\233^;\"\t\'\273c\213\366;\262\253,\272\\~{\273\312\027&\274\023\3037<\001\202\r;A\330~<\312\224\034\274g\226\302:\305t\345;\014c\341;f\327a\273\024\'\r\274G%\202<X\360(;\357\276@\274XK\313;`N\225\274\212\210-\273%\361\361;\262=\234:g\255\022\274}\346\240;O\037 \274\352*\225\274?\221\206\274\337\234\013\274\007\314{\274\001o/\273\240\332\345\272\265\363\266\273\020ZO\274A\\\334\273\035>\363;n\377\226\272\000x\220\274\356\3465\274H\202 \274\214%\220\274k\230T<\001\332E\273<\225\302:\304$/\273t\237V\274\200t*\274#\235y\273nr\344\272\374\007\224\274\025\366\r;\341\207\201\273t\326#<\033(*\274\007\224D<\314F\226\274{\271\027\273\032\036\025\2743\200\301;\333\264X\274\211\034^<\230\365\272\273\220G\237\273fBB\274\370\005\032\274\336\244~\273?u\213<\347\213\t\273\235\343\216:\\\024t<M:K<oH\020<\317\321E\274a\216\377\273\234\236M<\245\361\306<\222\235\036<`/\232\273V\253\034\272\255\307\016;\n\2575\271\270[^<\2715\014\273\031\216\232\273nu\352\2734\037\242:P?z\274\006v\254\274\331_\214<\247\001\017<)\335\234\272\220\235\323:\023l\251\273\324\237U\274\333\324\255\273\260K\202\272\264g\222<#l\031<\335\257\224\273u\364\273\274\330F\220\274\371\314I<\241\226-<\307\334]\274\030\033\251;%\207%\274\2577\227\272\247#\036\272\002\002\366\273G=\214;u\367y;A\211\303\273\001\2348<\233\277\363:\251\"\002<f\033\324\273\016\317\027\274\321[#\274\362U6<\265\355;\274\247\3449\274\211\014\275\270SL\347\270\241\305w<\364\010+\273\230\004\207<\035\261\243<\346\362l\274\0249\031<\017.\265;DVA:\201\007\267:\253\232\021<]\221\333;\260KI\274\316\017\324;\302\333r;\351\004\271;1\370\205\274\215\251\000;p\343\360\271o~\250\274e\336\017<\026\353\205\274\260#[;Xp\224\2739-\242\272\030|\013;\335\310\255<P\034\027<o\3065;g\243\036\274W\263\230;\"\366u\272\200\361\r<\270A9\274\"dI\273\004\200\211<\301PR<\371\301\377\273 v\266\273x\323(;P\224\301:\217VP<\255\337\247<^\1776\274*\3136<\273\334\205\274\300CL\273\005P*\274\227pP<Z\265\030\2742\233\':\236\231\235\271p\266\246<\216w8;\217\336\';\304\370!<\316\321c\2730\033\202<\367\000_\274r\207\026\274\337\277\004\273 