node {
  name: "inputs/observations"
  op: "Placeholder"
  attr {
    key: "dtype"
    value {
      type: DT_FLOAT
    }
  }
  attr {
    key: "shape"
    value {
      shape {
        dim {
          size: -1
        }
        dim {
          size: 2480
        }
      }
    }
  }
}
node {
  name: "inputs/actions_num"
  op: "Placeholder"
  attr {
    key: "dtype"
    value {
      type: DT_INT32
    }
  }
  attr {
    key: "shape"
    value {
      shape {
        dim {
          size: -1
        }
      }
    }
  }
}
node {
  name: "inputs/actions_value"
  op: "Placeholder"
  attr {
    key: "dtype"
    value {
      type: DT_FLOAT
    }
  }
  attr {
    key: "shape"
    value {
      shape {
        dim {
          size: -1
        }
      }
    }
  }
}
node {
  name: "dense/kernel/Initializer/random_normal/shape"
  op: "Const"
  attr {
    key: "_class"
    value {
      list {
        s: "loc:@dense/kernel"
      }
    }
  }
  attr {
    key: "dtype"
    value {
      type: DT_INT32
    }
  }
  attr {
    key: "value"
    value {
      tensor {
        dtype: DT_INT32
        tensor_shape {
          dim {
            size: 2
          }
        }
        tensor_content: "\260\t\000\000\n\000\000\000"
      }
    }
  }
}
node {
  name: "dense/kernel/Initializer/random_normal/mean"
  op: "Const"
  attr {
    key: "_class"
    value {
      list {
        s: "loc:@dense/kernel"
      }
    }
  }
  attr {
    key: "dtype"
    value {
      type: DT_FLOAT
    }
  }
  attr {
    key: "value"
    value {
      tensor {
        dtype: DT_FLOAT
        tensor_shape {
        }
        float_val: 0.0
      }
    }
  }
}
node {
  name: "dense/kernel/Initializer/random_normal/stddev"
  op: "Const"
  attr {
    key: "_class"
    value {
      list {
        s: "loc:@dense/kernel"
      }
    }
  }
  attr {
    key: "dtype"
    value {
      type: DT_FLOAT
    }
  }
  attr {
    key: "value"
    value {
      tensor {
        dtype: DT_FLOAT
        tensor_shape {
        }
        float_val: 0.30000001192092896
      }
    }
  }
}
node {
  name: "dense/kernel/Initializer/random_normal/RandomStandardNormal"
  op: "RandomStandardNormal"
  input: "dense/kernel/Initializer/random_normal/shape"
  attr {
    key: "T"
    value {
      type: DT_INT32
    }
  }
  attr {
    key: "_class"
    value {
      list {
        s: "loc:@dense/kernel"
      }
    }
  }
  attr {
    key: "dtype"
    value {
      type: DT_FLOAT
    }
  }
  attr {
    key: "seed"
    value {
      i: 1
    }
  }
  attr {
    key: "seed2"
    value {
      i: 6
    }
  }
}
node {
  name: "dense/kernel/Initializer/random_normal/mul"
  op: "Mul"
  input: "dense/kernel/Initializer/random_normal/RandomStandardNormal"
  input: "dense/kernel/Initializer/random_normal/stddev"
  attr {
    key: "T"
    value {
      type: DT_FLOAT
    }
  }
  attr {
    key: "_class"
    value {
      list {
        s: "loc:@dense/kernel"
      }
    }
  }
}
node {
  name: "dense/kernel/Initializer/random_normal"
  op: "Add"
  input: "dense/kernel/Initializer/random_normal/mul"
  input: "dense/kernel/Initializer/random_normal/mean"
  attr {
    key: "T"
    value {
      type: DT_FLOAT
    }
  }
  attr {
    key: "_class"
    value {
      list {
        s: "loc:@dense/kernel"
      }
    }
  }
}
node {
  name: "dense/kernel"
  op: "Const"
  attr {
    key: "dtype"
    value {
      type: DT_FLOAT
    }
  }
  attr {
    key: "value"
    value {
      tensor {
        dtype: DT_FLOAT
        tensor_shape {
          dim {
            size: 2480
          }
          dim {
            size: 10
          }
        }
        tensor_content: "\021\224\260\275\265\241\363>p\031\370>\023\361%\275`\260\357>\371}Z\276&\027\336\276r\252.?\351\213\311\276\005W\354<4\365\357\275\025\250\266>(\025&>\314o\214\2752\370\336\275\256-\364<sr\203\276\032b\240>\224d5=Rnj=\336\271\036?,\205\367=j(\321<\363\311\267\274v\315\013\277\032>\216\276\233\265I>Z\027\304\276\223\323P>j\035\342\274\334\367->\305\2045>+\351o>0q\360\275=e\361\2764\000\316\275\346\364\376=#n$>q\314\246=a+\n>\262\300B>l\346\207=\265\033^\275S\233N\2748\216\370=\320e\013\277J*\021\276\351\317\375>\242\177\307\273\014\027\355>\237%5>G\360\373=a\234H=\321u)\274Y>,>\215\273\t\276M\221\327\276\320C\251\276\317$\315\276\031\205o\276\324\026\010\276^0\237\276\212\323\363\276\260uO\276\203O[>\230b\360:\223g}\276F\013\375>\017\014\314\276\221pf\276+\321\331\276\026\021j>\264\tw>\n{\336>\217\"\254>M\345\262\276%\307\326>z\312\341\2767\n\037\277\2369\270>[/j\275\246\0018\276\336[R?\367\177\010?\375\023;> \323:\273;\213\025\276.L_?\264\315\222=\241qN\276\321\220_\276V\235j\274n\"\214>8W\377\272Euh>\356:(;D\216N\276\"U\214\273\177\275\t?\236e\240\274!\227\005>JR\200>gl\314=\346\217\002=qd\244\276Y\245\261\276\222L\203\276\236\241\333=\330\n\324\276\021A*\2752\014e>\0364}\276c\'\326>\201~\274\275\252\307{\276\200\275}\276\256\212\037?\314Ri\276\247\371\225>\246k\'\277?\301\202\275\227\201\221\276y*M>\267\220\003\277\346\026\023\276\024\317\372>\211\307-\276\360\2141\276\372\005\002>2\016\330\276\231\000\277>\226\206\021\277l\310\201>2\363\237>Q}\031<\337\271\313=U\377x\276\020\365A\276\3416\r\276^S\334\274\032\370\013?)~9\276qq\016?P\305\334>7S\366\275\357h\001\277-\005\374\275\202\021\341\276H\243u>6\350\212;-\007\241>\3000\035>\202\273\014\276\235\364\302=\013\214m\274\214`\261\276\263Y\002>w\201\235\276bF\035?\324I\357\274\010@\335<\240{\271\276\263\237\023\274S\204\210>3\364`>\014\236!\276\025\356\200\276\353Y\266\276\345z/?E]\330=u|\266<`\203\336\276\354\340\033\277\001QL>\033Z\314<\332P\264\275\337n\207\276\027\273t=\273\2247=\323iL\276\031\303p\276\254\000\340=\367N\214\277\265_\316\273\254\262\356>\275\030\001>\257\212\256>\365L3>2[#\277\244\301\270>pz,\274\"S]\2762\256\205\276\237~\n\277\037A:?\rz\224>v^\002\276\356\361\001\275\376=\315\276\227\266\260>>Sc;\365_\367<\361\375\257>\226\342\327\276\355\374B\277\312|\334>\251\244\003\276\323|\250>\252\"\227>eA\322\276\270\374\251\276\006\257\234\276\232\251\367=\022\363\233>L#t\276h_5?\022]\217\276\307;\330\275\024D\362>y\016\326\274|W\276\276\312(z=*\032(>\354\227\310>\357\210\373\276/\247\302\276nT0<N\207\004\276\327\243\301=\177\336g<\242\374#>\024%\347\274\324 \022\276_\254\257\276\031\003p\275\024\031\277=5\376A\277\006i\003=n$\240\275\200\376\256\276Wo\325\276HyP>W\252\237\276G\221\000?\246\215E\276\317\r\311=c\001K\276\303\332\261>\271\034\373>w^\344\276>\332\r\276[\327Z>\217\336\240\276\340\010\213>\352\330i\276\371\2736>\033u\344>|(\213\275\337r&>\250\207\306\276\200D\271\275\264?;\276S\254\312=\020\226^>\022\220\366=\303\031N\276L\271\024>\306\257\255\276{\322~>t\330\326\276\371\233\325>K\333\216=,\371\351\2757\366\205\275\366;\204<\014{\270:\342h\275=\270\355\004?t\2611>\260h\023?\302&\324\274\260\255\247>\177\035\305\275\214\260\321\276Y\377>=\335`v>\271\357\317>$\200\217>\306\220\214\275\233\260\233>\370\270\013\277\237\177\331\276\032\027 ?\246\240\002?d\020\325\276\262\273\215>\231Ht<\327\036\212>t!\232\276\332\374\202\276O\376\r?\261\371A\276/\311\345>\325\245\244\276N\177s\2760\354\r=\017c\013\276\002C,=z\205i\276v\272\"\276TrT\276\037\366\245\275\230A\014?wz\256>\320\210\312>\217\264\274>\026\005L>\'\027\267\276\036\231\251>\346\2107\276\305\003.\276\356C\350\276\022\214^\276R\236\351\274\314\324\331\276\351\277>\273 VZ\274\256>\213\276\273F}\276\335\206\275\276\334c\352\276\274\031\306>\272\004\327=\255&1\277Y\210\252\276\330\324\205;z;\360>\rl3>\316v4<B\3203\276)\215\005\276 7U>\333\201$\277\006\261\334>\217\"\273\274(\005!>\021\275(\275\375\023\246\274F\324G>\032\200\224\273\362\223\250\274\256\314L\274?9C>\246\247\357=\377\3500\275A-\236>\336\3408\2765\031\250\276\313\nP>\315\376T\276\351\006\272\276\363\300\201>\336\224\027=\246\272\353\276w\333\335\276\235\202\244=\'\216\350=fsR=\232\307\213=\006\032T\27783p\275\207uK<rb\335\275\375\016\320=(A\330\274m\255\245\273\301s\220=Ik\315=\241Z.\276\307\245\320>\333N\355\276*\274\255>\315s\206\276\243\350\254\276\355=\314\276\206\343\333<q\266\233=N\272\363>\313\260Y\276\202\2334\276\t\037\317\276\331f\346\275}H\024<\257_\202\276\204q\362\276~\032\376\275o\317\035\2761\300c>\004U\023\2767\3342=\224P\256\275\340\357\275\2755r\302\276\245\220\006\276[d\371\276\n4q\276\'x#\276\tR\005>0B\224=\003\3006\275\014\360\360\276L#\\?\326\222\022?\271m\005>D\317\000>\020\233F\276\2274\'\277\337\266M\276\351\nl>\304\360\243>\273\177\215>\370\251\004?a0\251>\243\342\211\276\241\204@>\227z\014?\235w\267>\014/\340=\200\302\223>\344<\240>\263\334V\276\031\014\334>{a\020=u\002\260>(\013\263\275\000\266Y\276\026I\021\276\037]\026>g\375\370\276\221\010\013\276G\2612>\235\313\277<@wy\276\247\322\356=^u\353\276\376(/\276\227\341\351\276\322p\t?\\\243\354=\343\214\242\276\214\224:\276\240\\\271\276\313P\001?VJ\315\274\317\302\350\275>\265\270>&\3428\277\273\315\256<{\371#>kC\032\277\2650\327>\035\337-\276\017\0359?\"g\367\275\316m\333\276t\344\324\276\323\330&\276\005<V>x{\254\276\362\303\022>>\360\247>}P\344\275\266\205\'?:,\356>\030hA\275V9\355;\222\020\231\276\2462&\275!) \277Ex\247\276\346\000\220>zr\364=3\350r>\'\205J\277\033\374\264>\031:t=\263\372\377\273\334p0?\276|\242\276\030\001E\2765\226<?\022\177\030?\267\234\300\276S>-\275`P\342<\252J\217\275\307E\332>?oL<g\014\227\275Jx\312\276v\025\246=\332\360\355>By\266>Jb\221>\330\024\301\276\353\226\017\276X\270\207<\233M\205\276\006\274\231\276<\240\235\275\361\032N\274QN\004?\307\177\216>\255V\310=B[\210>\r\006\014\277\302^\236>B*\344\275\240\375\025=HEU>\232\027\031\276%\321:=\035\036\325\275\266\336C\276B\031\277\276\251\022\372\276\341\326\243\2757\007\252\276\240\302%=\014\253M\276\r\014\272>\245\034\304>QG+\276\315\274(>\207r\014>\205\257\314\275\017X\315\275\250\215\332=E\366 \2764\341S\276uf >d\324A\273C\315\022\277Q+\361\276|q\345>\234 \014\275\305\213\260=qe\302>[%\205>\221\002\371>Cf\007\276q#\263>\343S\025\276\243\333d\276\200z\334>q\313\005>]\370\274\276A\201\t?\216zZ\274l,\257<\3537\023?\347H\261>iq\001?&\302T>_\232\320=U9\334\276\2464\322=\241\336\236>\232F\003={\225\306>\371\277\342\276n\276$\276\333\360:\277\017\321\037>\336AK\274\340\024Q\276\270\371\265\276\211`\265=\365\027\206>\027\3152\276\217z\366\276\032\355\034?\374\222C\276i\243F>\'\216\017\276h\230\003\276\206\243\037\275\200a\007>}L\000\275a(7>Tv\204>\336\263[>LD\t\274\240\3759>\037Fo>=\334J\276\210m5=\005J\304>\273\315\256=\231\305o\276\301\331\023?\t\031\271>\334\344\252>\261|K<*\301{>P\\\256\275\312\002^=Rq\262>\263\017\205>:!\036?Y\275\377\275\201\014n=U\301\027>\236\031!>\0002G\276\2033\000\277\301\352\311\276\3449\251\276\3668R\276s\264\270\276\352\242\016>S\023\010\276\2176\323=*\234\354=V\272\313>8\341\212>O\276H;\307\360\321=\003\371\351\276\013=\n\276vbu>\343\365\242>\\#\276>S\310\243>\243\341<>\016\r\302\275.F\034?\221\201\223\276Z\241.?h\362\315\276\227\256\200\276:\021s\276\037\362s>R\207W\276|y\217>\'\361\225\276%\342\307\276\350\2612>\374U\031?\323\350\342\276\t\342\001\277rQ#>\010\365n>\212\233\017\276\360\356o>;\025\346\276\375\267p\276\257~\216>\237\347&\276\221`\216\275\255\007\334\274\270$V\276\337\344 \276\030\"\201<z+\357>\340\362\266;\252\202?\274\317\343\326\275\220\337\233=5\360\035<\026\031\341\275\r\2733\277\333\333\033\276>\341\304\275\232\035S>\227X\273>\\]\014\2773\310@\276;]\271>3s@\277\274\367\306=\202G\375>R\345M\276[@K>\323\177\336>\032F\372\275\373\202m=5E\031>~\263\233>\035\271\260\276\353J\337=\366\"\322>\004\246\256\275\341`C>39h\276\310 \244>\257~N>\177\355\024><\')=\232\272\211\276\363eo\276\232\327L>\325\320#\277\025`\250\276\334\244\260=L\234\337\276&\322\005\275\373)/\276X\223\244\276\362\204\264>NJ\312\276\343\025\324\274\211\030\213\275s\313\030>\210Z\336\275\206\316\217\276\242\226\"\275Dq\254>A%\n\276Ek\203>\203\215\003\277|\030\332\273[\326V>\213+\252\276\223\r\352<\227\244\020>QgA\277\202\2364\276\026\264P>\314\275\373\275\220\034\036\277twp\275\350\336\004?\316\2637>\246\013\026\277_\334K\276LN\375\276x/%\276\262\t\'>\277\242\r\277\262B\036>R$\014?\337\2120?At\267\276\207\216\211\276x;\236\276\257\241\276\274O_\225\276\270\372\035\276\356{\364=\342\274\303\276Q(\007>\261\336\264=\232\322u\276k\035\364\275\247\221\370\276\203O\355=\202b\310>\220j\222\276j8\324\276x\371&\276HS\030\276\270QC\275H\206\004\277M\204\235\276.n\243=qDK\276\0205r=\177\311|\276\340\327,\275\343\226\020\277lw,\276\214\257\036\275[(\010\277\367\245=\276cW\003\276\314\277\345\276\322\3259?y\247t>1%\363\275r\032\352\275\351\200f\276\314\203\367>\243\254\034\277\023\300\211\276j\0078\276]!\240=\205\277o\2761\037\006\275\312#\266\276lE%>o\"\224\275\214\004\261\274\2777\312\276\211\226\206\276}\357\316=\374\346\257\274ll\341>L|\335\276-\000\315\275\320\332.\275\315*\357\276U\320\n\276\'p,=\210v\013\276p\362\201\276JC\013\277\177\000\013?P\360\326>\276\374f>}\232y>hw\372=y\237\325=\203\000J> 9\207>\326\351\004\275\264#\307\272u\352\003?\271\217\021\277\372\325\027\276\004\2020\276\313\006\001>\262\316\224<\304S\277=\251\206\021\277;W\265\276(\311\227\276\2314\216>h\305\242\276\321H\\=!7\010>\346\335G>t\223\370\274\362\034=\276\200\2433\276aO*>\213\266\232>\255\243\346>\022\r\024\277*\354\364\275\013d\016>\021#\r?R\361\300>\013\205\000\277\303\021L=[\005c\276\030@\030\276CC\'\274\214DB\275\355\302\202\2760Zl>d\275\022\276SO\372=\200\324T>\257Q\237\276U\202\234<\233\374\202>\035\220\023=5\205\204\276\212\035x\275[cp>\022\247\265>\325em>/d\213>\276\236\000?\345\037\005\276\035b\235\276\350oC=\366\247\000\277}1<=\027g\204\275\226\374\241\275\254\367\220>\346\n\266>Oi\220=fm\216>\355\016\271>^\025\311\276\0256\304\276n\275\254>-\034\221\275m\241`\276{\362\212\276l{\230\275\327\340\305=-\177\325>\310\023\243\274\r@\324\276\227_\332\275k\242\260\275\255[9\276l\036\237<{\010\037=\226Dj\276\333t}\275w\340\227\275\335\337\331\276\017\251\310\274\\9\376>x\"\246=\316\230]\276\246P\250\275pg\024\277\006\270/\274\316\220\016>\024\300\350=\t(G\277u\337\263\275\032\025\226=\314\357\333\276\020e\243>1>\261\276\262\376D?\036(\307\275i\225K\277\323\240\347\276\005\025\312>\020\013J>3\257s>O\330\237\274\371\324\232>9\270\244>\234\370\333=x\272a\276\277\274\010?\"\216\277\2760X\250=@~\311>eWU\276)&\236\276ML\275>\200\266\335=aO\233\2740\346\344\276Z\331M=\341\001\303\276\351\265\276\276\226\001c\276\340\332\244\276\032\013\230>\367\024\323=\325\335V\276u\274\010?\016f*\275\322\363\326\276\254\251e>\235\010\007\276\366K\202>t\364\255\276\223\237\261\276PKE\276qA\027?\351\024I>\177\353\246>\0170f>\267D\370=\n \210=\\\207<>?\243!\2760\314\026>\260\207Z>\306\367\201\276\005\206\265\276L\200\302>\362\202\177\276 8\244\276\365\177#\276\377:\224\276y\0004\275@\\\005\276~\224\014>%(b>\273\342\207>\352\004\224>\307\353\263<\034\363\341\273\313\320\210\276\304\032\365>l\317\202=\372\347N\276\363\177\215\276\213I\344=\201:\036\275\210\215\261\276E\002\266\276\264\004j>\220M\007<\266\037\">\257UK\276\326\362\002>Q\252\025\277{V\030>S\367\247\275\257\317\202>\023~&\277\250\010\264\275\334\254\272\276\0103\247\273W\215U\277\355e\360>z\004g\276\305[\372>\254\257\020> \347\205=\376[X\276\0253\244\276\237\337%\276\t\226f\276\271\023\210>\367\275\347\276\361\253\n\276\225\324\246\275?\242\323\272}\351\242\275W\355\243>_o \276g\315\267\276\325r\221\275<\254\360=\236g\364\276\220\350\240\276<\2232\276\375!\200\276\232\376\210\276-\230\210=F\240`\275\304b\270\276\254|\320\275\355\353\016\276\277[\265\275a\332%>B\0146\276\347\033\035\277\251\301G\275\325\022\362<h\306\'\275Bv\224\276\262.\005\276\320\316\036?\375\263\200\276\\\t\337>mO\355\275)}\\>\302\331\310\275\003\237\r\276\356\363\220\275\360\352F\2761\351\336\275dD\366= L\351=\337*\242<0S\031;\005vL>AC&?\333/\361>\300}\357=\331w\365\276\326\017\334\276\334\035\220=\370\234\211=\324\244\246>\363\361\004\2755\002.?\365\007\033>\301:\017>)\366[>r \025?UC\002\275xyr>T\031\266>\020\206O>\341\027\027<bK\254>y\206\243>\335\205\032?\376\345\337<\255Z\030>:B\373\275w\000\372\275>\211\223\274[\271\031\276\272\032\354\276-\230\372<\006o\331=\223\033\026>\022k\250\275\371KD\276B\354#<\030s\227=\354?\217\274VoF\276C\326\003\277\016P\246>\027l\326\276\276R\312\276\353\230\301\276\200\202::L\304V\275\260\201H\276M\224\310>\255*\373=\3706h=:b\321=RXR>\037\353\243\276R\270+\276\240\231\337\275w1,\277\016\004\003>*\250\337=\032\227\253>hn\315\276h\274f>/\031\">\266\r\014>\210\244\227\275i\303e>Ll%\272\200pM=NI\235<\023\242\314\276\252\332\001\277E\221#\275\325;u<Co\247\276\2459.>\315U\034\277-\006\031=\320\005\320\275WW\022?\273\217\202\276w\\\372\274\021\017\267>\202\226\004\276sK=\276\272\037\331>\203\225^\276\255?m\275\274\324\264\276*H\256>\005(\340\275=\317k\276iM\201>C\225\256\276^\256\017?\276/\373\276\262\036L\274\257S\347>+\'\275\275\363\242\226>3f\\\277\033C\224=\213r?>6\236:>\313\245\277>\333\"I\276n\314\240>\212\337\024\276\213c\215>s<\273>\300\254\317\276\353p\277\276\250\331\237>\241\r\204\276%e\020<\234\224-\276jic\276L\342\033\276\214\275\337>v\250\214>\373\233\211\276n3\336\276\374\265\036?\252\033\334\275\t\223\311<\221\223\272= \322;\276hg\326\274\332W\027\2761\251^>\210!\270\275 P\240>\202B\306=\240GY=\241\233\337\275mmV\276\214\016\312\276\341.\241>p:\213\276C\322\230>\200#\301\276\370\367^\276@\371&?FO|\276\314@\243=\237\362\215>hB>\277.\347>\273\300t\273\275\205\024\025>^.\254\275h\367\251\275\211\266%\277\244\r\235\276k\301\202\276M\033;\276\364\310\346\276v\210K\276\022d\\\276\035\322\203>\313?\305>\242\t&\276\032>\235\274F_\360=\252TW\275\240o\347>g\225\323>w^\267>\205\345\241\276\017\260:\277\030\206\241>>T\274\275\340\021\265\276X\204\233=3n\277\276X\rX\276\r\n\362>\3469,\275\345+\212\275\003\207\014?\237FJ\2777\310\273>\343\n,>S\352-\276\374l)\277\267\345\003>\355\317~\274,\233>>\036Zj>Z\242\370\276\364\267;\276\262.d\276\363\021\236>l\356/=\013\370G\277\302\273\200<\332P+=mtp\276:\326\270>\nZ!>M3\016\276\026\313\224\2760\310\204>Q\302\004?\007O3>\323h\204\276\"^\021?2\273\215\275\r(#=\024\353[\276xI\207\276\024\354\000?\253\021e>0M\016>@\227Z=\025z\202\276\235\306`\275^QV<\245\313\257>\010$\300\275\036\014\220>*\217\243>\232\3269\276u\257@\276\354t3\276\230\244\334\275\211\003\204\2766\3243\276P\360\213>Z\301\351;\245K\210\275h\313v=/H\340\274\313n\025?J\224\017=qp\304>\035B\026\276\r/\264>y\237J\276>`\037=\233P\201\276D\333u=\346\303\213>\252\353\256=-\351\346\276\357\337\202>\303\246\006\276\256\210\272=S\017)\276fZ$>\356\342Q\275\254\236\205\276\221\324\301=\311\255\344=m\373R>j\307\320\273>\205O\27682\272\275\014<&>\242\345.>1\364^\276H\010\243\276Fc\240\275\351\312\212\276G\331\017\275<\223W>f\027\356\275\370\035\246=\014L\212\276Hn]\277\\\216\277>B[4;\237\230\324>\3035+=\321\021\373\276/\036q\274\256u\302\276\003\253\374\275\203\345\025?S>@>\311\013\375\276\324f\323>S\270\255\275\007@\006>@$\004>\220\034\305=L,v=\2141\366\276\314\\\315>`PZ\276\200\350\365\276\361NP>*7\224>\201\270\210>L\\\t\276\347:\033\277\362\257\004\277\021\303*\277D-\034>\331\204y\276\343\330g\276\n\035\332\276[\005|\276^,\031>/\236\223\276\254%\217=\246\252\r\277Y\361\266>\213\034\247={C\352\276\026h\032\277\240V\004\275\366\'\t?\244\r\371>\031\377T>\355t\241>\016U\243\276\303\004\202\2762\266\312>^\323%\277\206\271\244>\225<\341=\376\241\260\275\267\325\323\275\313\261\375>l\037D>\000\253\340\276\314jQ=\246\374!>\251\305\251=*|\002?d\232\266\276\332\341\275\276\225\325\003?\365\227\013>\214\260\324>l3\213>\230\267\204=\027\0351\277]\336\014\277$\272b>\202\014%>v\246\240>$B\266>\242\305K\274\327(\021\276x0^\2765B\006\2767\331I>\360\007\\\276\333\016\r>\237\335\352\275\274\243\214=\303\332\t>K\223<\275\003;Z\276Hg\222\276\366\303\030\277\"\252\245>>\r\014\276\222kP?\371\215\321\276c%\365\274\262\302\037>\316\257\035?\377v&?u}\347\276l\250\t?4\007\255\275h\253H\276vh\224\276\312X\022=\371&\207\276\3249\204=\002i\025\277C\005\'\276\357\235\366\276t\253\355>\341\301P>\274\001\003?\035\373\367\276cSr=\213\000\234\276\001\300k\276\023\360\350\275\005\340Z>\254\232J>a{\000\276\334\016\214>]\337D>2vw\276\3536\343>A\314e\275\347y\204\276\007H\351=o\210~>\223~=\276{-\366\274\225\353S=$v\236\276\337+\223=\360X\033=\220\240\325>\333\022Z\276\254t\033\275\253T\027\276\263` >\303\364\001>0\2652\2762\tS>(E\316\275\370~v\276\"\263\227>\3447+>sF,\277\336-\335=>\342\022>\331\344\332=\001\264\215>E\302\016\277\246:\347=1j>\276W+\314\275=|9?\204<u>\346\202\217=[D\007>jh\007>\262\262\177\276\227\234\266=\214A\"\275\006\303\240\276\026Kq\276\246\227]\276\334*\220\276\307\252\313>y*\334<\034<\351=T\345D\276\366\201.\275\302%\330=\315\240-\274<\nL\276\313\226\377\276\302\022f=E\307E>Z\342n>\311\3073\276{,\275\274~\221\237\276\3312<=\205\000\335>\360\327C:R\3247;m\314x\275\005\276\255=\305\006i?\2540\350\274\357WH>\007\032\255\276V\247\016>7g\301\274\036O]>\320\211\316>c\222>\276m\2608>\226F9>\355\004\233\276\037\204\245>\275P\236>ro\032<^\353\312<r\302\204\276T\256\222\275\350:\272\276@\302\336>Ml\024?\200\226%=I\253\377>M\005\202>\020\177\255\276\300~\377=\241\003\272>Eer>\026\200\225>t\226\302>\306\\g=\373\361\235\276i\022p\276\344\n9>\314\264D\275\257\031\212>A\201\226>Co\302\276%\264e\277\t\241\033>\324\023\003\277a\230y\277\244x\025\276\372\325\205>G\215??\005wj\274w\312\034\276\026\002\236\276\244=9>\264\243(\276\357\026\215>ej\025\276\006\337\304\276\317D\323\276L\177\366\275\n\001T\276\333/\225\275\272k\024?\000\'<\275\227\321\366\275\227\007\364=\332\274O\276!f\207\276yK\274\276\201\325\335\273\016\320\314\274X\257\225\276\177\267\251=\374q\373\276\001\363\010?c\304\232\276\037y\241\276W\212\303=\333Z\352\275\363\310\306\274\250\240\263>\032\344&\277\260\037\372\272\360\010(:7\376p\276\342l\333>\377\000\326\2765\356\314\276\203\273\366\275\376O\235\276=\2130\275UA+\276\264!\256\273Sw\267=`h\367=\213\n\231\276#x\325\275\016}\210\276\321+%\277\002\320\216=\n\253D=-i:?2\260\020\276\202,\304\276V\002\032>~J_\276\352O\010\276\306\350\310\275\236P\335\275\237\213\226\276g\205\004>\303\355:\275\200\301h\277\313yo>!\"\351\276\266Y\370>\256~O?\211Z\202=\237\034\231>\371b\000\275\004\237\245\276Y\325\354=a\247\312\276\263?\300\275\363*\372\276z?\316\276\362\356\206>\253\014\374=v\302\251=\351\242\260>UX\026?gs1\275\013y\036\276\214ro\276\362\r\030\277X86\276\221\274r>\201q\332\276\322\223\320>W\306\226>r\000\360<f\255\030\272\2149\304\276\303\252\310\275\344uQ=\250}\243\276\263m\177\276\006\364\027?\025\360\262\275\265\004%>\367\367\n?\235\3670\276\007\305\315\276G\240(\275\370*\253\275%\242\363\2765\265\001?\217\203\020>\177\243U>A\034\302>OmJ\276\027Y\027\276\342#\023=1\3426\276{A\'\277l\031\242>\312\330\250>\025d\311=\274\3407\275K\333@=\332\272\231>~\244z>K\352M\276\366\305\267>W2b<\275e\032>\217 \333>\227\224\360=\344\330\261\276\312\023\322>s\n\263<(\322A\2773\365\213\276 \366c\276\255\030\347\276(s\334<\350\016\273>o\373\250\276\003t\251=\215\035\331=\013\333\230=\350\312\256\276U\316\204<\224\364\361\276X\300D\2763\234\"\276\366\006\272>2\007\206>ea\245\276\311\271a=\216\327\025?\254\021\030\276\322o\223=7\267j>\265\261\212\276Q\013\235\275\353\274\206\276\000I8\275\016]\267=\331B\237>C\243~\276e\251\220\276\217\203\207=u\316m?\250\265\354>\243F\223\276\0254\274\275n,\020=A\200\236>Cd\242\275}(\353\275=\025\260>O\310\202\275\360t-;\275\217\247\276O\215\007:i{m>:pi\276\351\372\013\277F\237\205>\270\265\321\274\271\200<=\240\t\244>\314\240\212>\037+o?\345\247\333\274\253-\257\276\023\361w\276w\343\371=t4\326\276\037z\357\275\000bP\276\000IB=\253\265\037\276\331\375\305>\320\031\225\276\0077\236\276\222\216\024\276\210\332\351>\350we\276q\025\032>\225\276]>e\322\313>\324\373+=%\0230\276jd\270=D$\270\275>\022\211=\027\227\330\274`\321a>VO\262>-\350\235\275u\363\n>8)_>\207\"F>u\302P?\002\0030>\2009\276\276\r\257>>Fv\226\276\005\214)?\260\257\351\274\252\354\t<\366[\266\276\225\357\003\276 \226W\276\3154\257<\014U\000\277\324\223\375=W\230\032?=\'Z=v\340\300\275\326\200\323>\242a\324\276\310#\212=\350\010m=:X\350>?\271\343=\3341\340>\037\204m=\374\234\314>\026l\243\2762S\006>}P\360>\351{\230>\256\304\353:\217.\367>F[\245\2768$\334>S\340D>\251\271\317>k\215r\276Y_<>\210wL\276yW\326\276\365ip\275\256\262\264><[\255=o\036x\272\344\021\234\276\302mr>t\352v\276U\331\347=\025\322\025\276QJ\354\276\276\370\232>\206X4>\332\365\266\274&<\204\276\256j\026\275\312\003\365\276\310c\216\276|?\237>\265z\346>\257\203\004\277\266\222n>\020\022\344>\021}\240\276\004\332%>\222cQ\276}\227Q>cd\024?\242o\331\275R\315\211\276lW\337\275\310|#=\013G\247\276\224#!=\2367\326\275I\303\277\276\305#\205>\304n#\277\312Q\266=\374P\001?_\351\201>z\t\216\275\210\206\207>\327\230\034\277\005#\204\276\"d\363>|8\n\276h\315\205>\241|\244\276.p\t\277\243\242\212>\325\205\362\276a\223\001\276\003\202R\276\027\277f>\250\302\240=zX@\275\361\003\207\275\324\tp=N\374\352\276@Jj>\361\031N\277^\236\366=s\0162>\300\231\330>i\306(>^\272\322\275\033\224Q\276\2313\225=\360\275\206\276l\255\r\2774jG\275\034\244\300=\376#\007\276\010\227\"\277=>\217\276f\300T>\3173~=\361\034Z>\2214\021? \323\032\277A\300\263\276\261:\201<\204!!>.\034\222\276Q\000X\276\006\266\277\276j\260\037\277\337\305!>\001\255\316\276\364\242\013\277o\247\312\275\367\333\222\276%f\351\2757\304\356\276\224\354\305>e\017\274<\037\252?\276\351O3?\026\235\224\276\375l \277v\366\r=\350\374\203>_cJ\276\265j\275=C\261\223\276T\263\252\276S\377\210>\210|\203\276\225\264\350\275\302\007Z\276b\2477=:C\212>\327-\345=\3644\204>\262\312%>\374\311V;1-\032\275P\032C?\316a\271\275\303\343 =d\337\035>(Kp=\020\r\211=\275\245J\276 \232\025\2776\321)?\036\230\231>\366_\016\275\3518M\277\325\247S\276\277\024\303\276D\203c\274\313\016\021?\333\237L?X|\241\276\304\335x\276\316\264\230>\324\224r>x\324L\2754\020.\276HPR\276u\204n=\rj]\275\334\213\356>w>G\276\202~\342>\214\357\222=p\247\007\277\347\177!?G0\204\275\375\336\223\275#\222\221>.?\233=rQ\027>\002EC>\030E\230>\272&\223\276\312fU>\025\227\346=\341\277\027\276\233\364\005>\204\314)?rX\026>3n\341\276\227\331+?\370\261\256=\007)5\275\021\3141\276\232.A\276\337\227 \277\253\235\'\277w/\035>\036\275\250>_W\227>\2771\276<(\325\274=\3760\332=\277yA\2776C\017\277j\r(\277eJ\264\276-\246\211=\2222k\276\202\2012>\332\221\226>\277\202\035>+(\000>\377\343\232\276\242\351Z\276<\342\262\276G6\032\276\254D\273=\275\356S\276\016\320\004\274\0377\245\276\372]?=\236\022\233>_\264\367\276\270(\240>\373E\200\276\001\231\277\276\334Z\230>\314\366Z\276og\274\276\276\273\005\277\270Z!\276W~*>\257\372\330=k\233\347\276\022|\331\274yr@\275\346f\347>\2247\317\276\261?\305\275_|\240>\t\245\271\276\030\030u\274\r(\320\276\242X\253=\367\255\313\275!\265\316=\275\277\253>\037\257\270>O\222\250=\177H\323\276\355?g\275\325\230\240>\r)!\277\347\177<>3?\036\277\024\315\214\276\013\224v=\245\\\211\276\t\331t\276`|\333<\241>p<\013\322\000?\257\370\227\276i\302\001\277\224\025/\275N/??\031\031\'\2750\216\244\275M\312\220>CG/?\373\024\n\276p\270\236>\333\0046>\304b\254>\267\261\231\276\373e\211>\0240w:hW\222\275]ET\276\322&t>V\034\242\276?\237\256>\'\327\260=\3556\316>J\210?>c[I<\255&\254\276<\375~\276\261\315\274<,\355 \276\005\277\331\276~\021W>\204\237\311>\211\023-?\354v\323\276\276\273\321\275c\3211\276\211(\235\276\200O\t>\240:\363>\261,\257\276\231d\261<\304\025\274\276\233$\214>\366\231R\275q\261\216>\230u\013>\003\371\020\275\250\270Z\276_\017\247=y6E?\0328\246=\320^\247>\"\221??\220\030\023\276w$\223\275I;6\274k\321\272\276\315.4\276\307)8\276Yw{\276\030s*\276\367z5\276\341=C?\367\213\240\276\310o3\275\323\030 >\013\270\256>#\317 ?y\035\033?$\376-\276\232\034\307>m\2634\276\306E*>Z\316\366=\375yx\276F\253\026\277_^\006\277c3\032\277+\252\315>}\202\312\276\002&]\276\316\300z>z\001\374>\020\330\3649\036\341v>5\251\016\276\002\3062\277h\355\305\275\376\2258=\212\371\006?\035\220+\277\313\203\336=\353\307\237=\274g\365\275AG\324\276\227{\256\276o\371\206>i\023\233=\275!\345<5\351d\275T0S=v\312\221\276\322\351\243\276\364\023\233>\307\224\374\276u\370/>\3477\201\276\377\324\265=\226\323\237\275\363V\244=?\353~\275\365I\002?h\223\210\276\266\354H<\342\310\007\277p\212b>\004y\345>\006]\311\276Qu\362\275\211\275\221=\372\323\001?o_\021>%\024P>@uo\2769\024H\276R\206\377>\324$\205\276\033T_>X-E?\371\361\255\276x\n\027\2767\364\000?X\270\267\276~#7\275\203,\236\276\361\355\342\276\335\005\376>\314\362\224=\236\377\240=5\313\361\274\004N\201\276r\311\272>[\1770>\2457\'\276\213B\241;\234\3176\275&B\">\"\357\305\276j\271\016?\312\221\r>1\'\321=Lb\312>3\356\004\27767\230>\273\032\205\277\030tN\276\225\341\235>\316Z\242\276\225\231\024>\376L~>\2335^=5V\035\276\330\3511\276\271\305e\276D\027^\276>Q\321\275\251\263\231=iQ$\276\337\030R>3 @\276\006\003]\275|x\350\275\035k\022\275e#\353\276ci\372\275)\273\003\277\275\274\242\276D\321\366\274\221\224\222\276r\\[>{\t\017\275\203\241\023=\340}\033\276\301e\254>\204\202\302=\213\215\207=\034\r\267\275t3\005>\341\026\200\276&\340\333>a\303u=W\210\\>\236\271\331\276Z)n=\317\2675\2765c1\275\260+J\277\222\342\246<\354b\301>:\"\237<\375\021\001?\025\034\'\274\314\252\n\276\2162\321\276*\216\346\275w\274\325\276\317\315\317\276\355\003\304=95\274\275\'*f<U\376\227=\220\210#\271\343\272q>])\212=\207y\237>\t\'r\276q>\217>\306Y\004\273\243M\312\275\216\361u=\340\221\034>/+\226\275o\006\026>a6\337\276L\312\016?\352\325\340\276\002\n\253\276\262\225\260\276\023\254\013=I\204\341=4\235\r>\245:\022>\n\303\374\2761\004\310=\305\030\264\276\"\211\210\276\342\005\216\276i~\003>\357I\370\275\r\225 \276\274\026{\276\321]\334\276.\320\307>z\243\214>\301M\343>\010IE\276U\205\266<d\334\302>\275\252\211=\036W\224=g\263\000?/u&\276RV\273\276\270\031q\276W\201\361\274\177z\376>Lw\204>\220\036.?Y\335\034\277a\240\031\276\336\377\342;(\266l\275\205(\306\276\372\330\251>nK\345>S\233C=3\302\300<\3038\324\276\252\010\363>g\210\202=Q;\352>\017\327(\273\252w\016\277&\370<=g\0041?C|\004\277\025\016\\\276\013^\370>u\3351?\2672\260\275\375\302\356>nD\372\276\374i\303=\272x\256>\373\014\342=J\364\006\277h\246\351=\334\371\273>&\261,>V\000N>\264\t\221>\341?\241\275\211!\346>\346\025\205>MN\207=:aF\276O\310\217\276\n\260\356>\002\264\007\276\310\266>\276\305\034\347\276\3405\370\274\311E\020\275\3675\256=9\231\327\276\201\321\t=\202\341\242<4\333\232>\261\354X>\340d\016\275W\334\033\274\341\254\016\277\336\261V\2761\231\207>\324\370\311>\345\263j\276\315rZ<\371O\230>\007\336e>\205\210\023>\304\263\312>r\274y>\241?B\275\326[\340<\251v6?\221\217@>\221\332i>\033\313\316>\313\226z\2765(\250\275u1z\276F\023\036>\330LR=\276\026|\276\345\226\204\276\366\247\r>\373\251)\276\314\306\220>\227P}>\356\025\255>\030\327X\276\233\347\013?\226\255 \276i\030\202=M\232\201\276\274|\274\274\203\253\214;k\260\211\276\002\252\t\276\234\021Z>\017\340.\2764#\020\277l\231\014\277\346z\315<vfd\277/q\212\276\361@\'?\211\277\025?\001\265\n\276\022wp\276\"}V>D6\032\276X\365B>\367\207\255>\307t\204>\3074\310\276\226\276Z?\243K\001?\345\270\376=\324\344\373\276\374Z&>\204(A\275[\3431>\300\233\377<\237\323\313\275\352\032\300\276\000c/\276wHO>\177?\237\274vU\243>\212\253\370=h\250E\275\000\360b\275\032\247\r\277\263\334\222\276\353c@\275\026]a\276\'\353\220\276l2#\276N\360\267\275jK\272\276JLe\277]\204+\276w\217\300\276\350\021\256\275\232\337[>\342\350\030>*A\270>\035\315\277\275\225eN?M\202\016\277]/\202>\304\231\024\277M\255\036\275\345\201\257\2743-K?X\224I>\237+>\275\225\003\357>\2006\240<N\177\016=;Y\r=2g\023\277(\005z\273\213\020\323>]\260\020>\274\207{\276\231+\213>B\016\377;\034\330\001>\003/\227=.\'\215\276\272%\230\275\210\206\351=xj\337=\270\2750\276\003\033\371\2748\217\037\276|C\035=\033\227k>G\004\037\276\010{\357\276\327d\200\276I)\220<\300\362\302=WM\360=\214,\311\274\030t\200\276\032\221\302\275yN\014? \376~>7\027\226<\323%\231\276\303\013\r\274@\216+\276\265\225(>\233dz>;\023\014?x\242m>\023\246\022?x\247O=W\371\327;1\t\223=O\330\010\277%\310m\276G8m\275h\307\210\276^Q\003\277\220Z\304>\276y\334>\023\261\263>\310 \033?]\006\n\275\260\022\006\277\267v\234=X\021K\276^\223\027\276\346Yz\276R>_>n\310\035\277\366\325\213\274E-\224>\372\260%>\024\037u\276\253\323\n\275\245\307M?\360\333\274>\361\202,>@:J\276\257\377.\277\"\216P>v{\206>\237H\260\274\214.\364=\023\351\376\275&M\004?\377\235\215\276\333]\315>\364\"\204=\247\300\252\276\024\\\315<*=\347>\344H\001\277#\031\273\276\330\215\031>\025\313h\276\021P\303=\267\2130>\000\265\333\276X\020\315>\035\216\001\275z\026\010?\340\016\352\275\224v\222=\311R\245\276\277\010\016\276\034\006|\275\227I\336\276P\236K>R\213\376\276\325So>\375\005\322> u\202>\256l\317\276MI\253\276O!k\276\316\360\261\276\232\3559> m)?\341L`>\331\373\326\276\247\027\220\276\301\305)\276\306\032\016\2773%\333\276\242\215\352=\264\220\250>9}\003>w\217\370\276\306W\210\276\2615\310\276\323\200\020\2764\031\325\276~\325 =\315\225\'\276q\035\204\276U\352\260\275\272\370c>\360\272\331=\211\024\256\276?,\350=-j\n\275\325\035\252>Q\037\353<\001\221\351\275~\256\207\276\220>\216>I\t\322>\003\032\232\273\025E!\277\321\330\236<\005\027\356=\323\221\313\276\221\242\274\276\377-\374\276\272\303p\274\244\214\265\2747s\377>\275d=?`\303R=\346\tG=d\324\337>c\332\367\275k\3500>\212K\022\277v/\310\276f \r\277\"r7\276\304\313\245\276l\030h\2769\356,\276{\014\334=\346\3640=\335\256\027?y\276\343\275\252)T?_\224\230=\300{\315\276\236w\322>\375\211\355=\027sx>4\240\241>\361\246\334\275\261)\217=\303\r\312\276n\243\000;\354U\205>X\177\213>\227A\036\276\202e\322\276\214\314\335<3XW\276\207!\350>\312g\320>Rg\231>4!\317\276\n=\224>\200\235\215>=.\270\2747\235\365\276\027\007\250\276x\013\321>\233\203\014>\353\266y\275\277(\311\276\177\233\251\276x\206[>T\273<\277f\005\315>\376\302\212\276j\266\257\276r\263\005>$?\350>\367\203\371=-B\354=\272\004\202=(\316\345\276o\235A= \270-\276=E.>\261\336Q>)\\\034>A\223\275>\207\361]>\"\177X>\0265\002\276q\200\221\275\360\210j>\367q\n?M\215_>\366\2425>\244x\212\276\320\207\306\275g\033\035?\366\200\343\275U\025p\276\336I\236>\217\325\020?G\213*?J\376\320>\010\227\200>\227:\001=\330\341\303>\\\365\210>c\367\214>\343N\017>\267W\316=\272\026\244\275\3746R=\021\302\316\275\nM\276;\220%/\276\026\r\220\274\\4\036\276\364\023\374>z\206\260\273{\357\t\275\330\001{\276\357R\356>q\tR=\341\303\260>:\213\375\275\376\345j>\207\"\213>\025\347\330>9)\344>LB\237\275e<\t\277w\347(\2762)!\276K\306\241>\206Z\326>\372\324\364\275\264\003\024=m\"\326\276(7\206>bb\376\273b\376?\274\207G\014>t\271T>M\207\244>\233d+?\323f\305\276|p)\276\306^\251\274!\345\211\275S\205\353>\024\317\233\275\002\034K\276\003\306\304>\333\022Q>G\003\275=k\260\253\275\027\312`>\036{\365=\227O\252\275.\251r=1\234:>q(\374\275s\2512>W\257\366=\2517\273>\313o;\275\236Lp=\210\215\016?)\215\344>\016~\026?QQ\026>\341Qu>P\316\241>\020,\241>\267l\206>Dl\275>\212\205\331\275`0\007\275j\316\010\277\351\317\251\275J\273X\276\000\\\000\273\006\230\252\276\210\276u>4Z\277>\275\322\302\276\373{e>1\200\347>B\000E\274\006\3101\275\202\000\237\276\215\177\035\277\347\304\370\273/I\337\276)\253\272>\232\002\343>+\202>? JL\276b\237\316>\376\3362\276\235C(?\254)\"\277@\211\210\275nR\265\275\200\254L>\036\323\232=\340/M<\373\333\023\277C\202t\276\372^\216=\365\327\003?\235\"\262\275rM??\362\302\272\276$\225\301>\\Z\025\277s\314\211\275`j\245\276\033\2678\276\213\205\333\276J\225\350\276k\376\300\276(\377\234\276B!\353>\352\327\021\277\354\255/>\020\300\031<\027\270-=\214\034n>Mm\216\275\033\3249\277\304\266\204=\202w[\277\004\264\207\277I\376\315<0d\016\277\376o;>\030\033\350\276V\330\252>f\226g\276z\255\315\276\" \013\277\313\213\225=\275\311\r=j\261E\276\333g\365\276\010\266\347>@\332\221\276!\024\201>--\\>\2320\253\275\362\274\013\276\302\3233\276\001X\227> #\275\276b\017\317>QAJ>\262\237a>\341:\213\276\336\325g=[\373U\276\023\334\004\277\367z,\277\360Y\017\2764\027f\276:\245\200\276b\216\364\275\223-\005?\304=v=V\242Q>\312\212<>%\340\255\274A1\216\275A\322 >P7v\276\375\356\213\276\t\365\247\276>\273\254\276e,\351\275h\025\006>W\241\233\275K>\\=\250c\232\276&M\033?\2202\231\276c\216\214\275\006\317e>MS\335\275\2055\n<s\004\305\276\211xE=\216\351\216>K>\036\277\243\021\213\274\354\311\304\276\035P\214\275D^M\275\352oM\275\021z%\276w}q\276N#\n\277\233\266\034=\026j\016?0\233\341>O\372o\275\344\360\\>uf\t\2764\376\000\277\257:\334\276\240\276\224=48\263>ry\007?\341\237\237>B \311\276\240XZ\276\221\370\343=+\004l\276\314\375\202\275X\274\220\274\331\314e>\\B\343>\003F\375>\211\314\257;\330\"\014<\211Pl>r\256\003?\271\204\037=k\003\315\275\202\032\235>\006\363\016?\326n\237>\215<\020?c\207P>\003\033\315>E\205\003?\311\362\256>\354\221\231> +7\274L\033\305\276H^\245=\024L\010>\220Z\216>K\364\340>Gh\313=\373m\023>\336f\251\275\356\330\367\276\006@8=\374\000\033\276A|\315>\303\364\r=\314\231\312>&\310\374<\315\210\362=\345^[\276&8\221>\354<[>\022\017\300>\326\277\256\276\244|\302>C\314\032>\032\371\026\276\320\211\217>\000f\005\272\0148\306>\316\211\354>\371O\372\273\324j\016\276?\307u=\345\354\267>\025\376\366\275d\254\006>L\323W>\326\271\255>4\270T\275\002\2701\276\325\237\322<\263\202\264\275\354\271y\276\236/\277\275\271U\201\276\247q3>7\222\t?L\031\367>\3622@\276_^.?N\274S>\324\215\265>\310\360\t?\265\247\332=\273\251\214\276P\201#?g\333q\275]\245\r?1B8\275\261& ? R\342=\037^>\275#\2700>IQ\230\276t\241\030<#`\216=X\353\212\275\354{t=\220Z\232>\332\177!>M\225\370\275\221\326\207>\365\366\345\275\350\304\005>@g\270\276\234g\233;\323\034\225\276ea\266\276F`\007?\210X+\274\231\227\240>;]\243>\350\277\032>\006\210\244>b\233\031\277\370A ?_=w=\201\276\347\274Mn\026\277\374c!\274+\253$\276eL\032\277\036h0?4-\025?\205\n\365\276\363P\314\275\351\216\271>\344\355.?o\004\271\276\213\200\276\276\321v\016=\027\037p>2b\004?{p@>\023\375\305\276X\254\246\276\344\314\314\275\235\271\207\276\356\242*=\261$&>\005\033\237\276\207\256!\276v\216\r=\032\376\030?H\371_\275\035^\013?\377U\244<\033\257\235>\304\316\227=\005\222q>F\003\214>\200<\274>\3515\275>\271\262\257>\275\022\373=)\036K=\366B\324>\250\271\314=\\\010\343>)\246r\276%\360\301\275\002\315\374=\270L\037?\217\240\350\275\244\224<\276\201\351\255=\271\220\014<*\336\025\277\231\266\250>\350Q\235\274\332\364\217\276\350\373\316>\240;\325>\250\372\210\274vz\377>\021\213m\275X\271\250>\261\212\312\274\021\334\342\276\231\333\334>\274\200\252\276\270>n\276\273,\034\276\362\211\206\275,\270:\275\373ah\276\341\003\203>;\205\266\276!\264\363>f\243*\277a\242\341>\007\224\316\276\257j\305>\036~\253=E\333J=:d\305>\343\320\272\276\331}\262\2767=\033\276?o\207\276\003\337\346\276\223n\024?\337\274\223>\000r\004>$\241\"\276\365?\374>\360\024\014?;~\274> \255\214=\n^\375\276\3070/\277\357*R>\256\313\004?>J\005\276\262\261\216=\374(\263>\276\\\335>u\301\020>\014hQ\276\030I8?\302A\246<\024\362\230\276\352\013M>\2773<\275\324\231J\273\303\203\214\275g\355H>Y\344Y\276\207~V>\302\336\034?\211\311\247>\325\300\232\276>\202\245>v\022\t\277\2374\234\276\300\370;>\272\333\213<\226KE?\312\013\270>=3_\276\215\210\006\277\037\305\301\276|Kp=\346\327\203=\326~\265\276\211F\025>\207\225\035>\222\360\317\275\006\266\000>-=\352>\306Kh\275\006\243~\277>~\204;[\224\364\276\322S\224>\002Q\020\276\036\356P\276\036\257<\275\314\177\353\275\257\241\201\276t\245a\275\213\334\271\273\376+(\274o\\[>\325\347\200=\207wM?\210\205\360<<k\\\2744$\231\276\302\200\017\273\236\260\314\276. \223>\020\2652\273\034\027\177\276\t\213O>\031\016\256>\372\270\004\277\345D\206>\\{\255>\270t\261\276\331~\232\276\031\312\337\2769]\332\274\244_\353\276\304\032\361\276\351\001G\276\021u\\>\330\321\320\275/\004\355=tS\242\276\215\226\246>\276d\301\2767Z\004?\240?\267\276a\3023\276\224\343\263\276-yf\276\312\2733>\363\035c=\245[\021\277\2074;\277\rY)\277\372\354\220=\034\344\366\275\231\351\017>A\314\261>n\327\301>\031y|>\203f\001\277\020->\276\0243\205\276h\005)\276n\222\356=\361\322%\276\244J\320\275<X\341\274\237f\322<\r\224\352>\343\306\224\275\323S\234>\241\313P\277\330\322H>\245\313\022\276r\346\247\276\014\026\221\276O\\\202\276\237l\353\276\223T\351>\211\301\247\276\332\212M=\214\306\202=\207l\265\276\0232\001\276Nm\364\274os\241\276\\\354\302=\221\344\256>*\336F>\377r\357\276\362\367\354>M~I\275\213.\034?\237\243j=ag\216\275*X`\276\222\203J;;0\356\276\243\026\344\275\261\245\024\277N\313\336\275l\310A\277\327\035\274>n\375\027?\0036\232\276\274\302|\2766\\\237=\025`6\276\003\214\370\276$\264\032\2769\276\001?\354\256\031\277\016\030/>B\373\210\276K\355\001\277\317\305\274=\344\311\267>b\361\207\276QD\344>2rJ\277\213iF>c\342\276\276\013T\233>\307G\202>\235%\342\276w\344\"\276/\217\306=8f\236\275J=\221\275\030\206\215\276\3763\274>O\030\332\275\327\230\315>m\000\207>\363\212k\275\357C\326\276r\234>\276\001\033\357\275\370N\017\275~\217\266\276\354\225\r\276\200\355\267=IoF\276\270>\006?\334;\000\277D+\367\276\024\376\312\276\302\211=\276E\010\212>\335\330\035>\246\r\336\275p\\\034\276ME\026?\005}U\276Y\357e\276A*\231\276\234/\305\276jx\001\276\000&\316>3\265\304=>\275n>\2209\273>\303\355\'\276\317pS>\021\333\357\276\207cz\275&\313\016>\023\326\014?r;\t?\020{\376=\231@\266\276\t\245\332<\203\364\216>N\324\357>\261C\244=\341*\235\276<\331\322>\r\261\032>\322R\216\276\241\rV>\231\354&?\020n\300>\253\034\232\276~\340<=\301W~>d\271\013>I!\004?X\361\302\275\241)\024>w0(\276\271\377}\276\230A\301\276=\216\362\276\010\312\265>a1w\276\25315<\345B\250>D\202/>zC5>\036o\327=\366^\264=Ja\337\276\017\277\177\275^p3<\364\315\315\276d\3320\277Qd\265=\317\271\010=\032o\241=\206c\264<\244\254\230>\337W\004=\202\373\023\277\375\242z\2769M\367\276\n\270\306=:\321;>j\240@>\301\177\201\273\267\237\021\276\3400\207\275j]\200\276a\365+?W\345\327\276\250\225\010?\227\355\263\2753(\022?\253w\363=\266%\n\277\231\276\017\277\304|`>\237\230\277>V\340\021>\363GI=\325\232-\276\362e\334>W\324p\274t\371\216\276m\032\251\275\243n\331>\007<\221\276d\206\216\276Z\312\317\276\370b\332\276\316^\240\275\275\035X?\326X!\276\2152\010\277\312\276\261\2751\202\221\275\251\363H\277:\326\331>\017\310\201\277s\tU>Nwu\276\r\334x\276\223\207\230>\0141\332=\376\n >z\333\213>FX\306\276>\365\216=6\322M\2767~\356\276\252e\202\276V\265\231\276in\206>\022\331\376\276\007\261*\276,A\331\275\006E\266\275N\322!>\370\017\255\276\323c\210\276Jy\366>|\273\026?\203\014\031\274\262\311\372\276\\\354\023\277a\210\236>\221u\266<\345ZE\276\027,\337\275\027\243/>\236Y\211>\371\330\373>1\320z=\202H\246\275\330\352\257\276\374#\223\274\245\305\250>\364E&?w\001R\277\323)y\275[\216(>a\220\342\276>\243\330>\334J\241>\333/a\274\224\232p\2764\022\354:\225e\333\276\251\206\\\276\310\r\002>$\311K\275\n\356v?\242U\352\275\353^\235\276H\002\225\2757\344\005?\240o\t\277\327\265\237>\022\302\201<\341+\230\276S\2452=Y\331)?\330w\213\276 \342+?>+K?,\335\031\277G\243\374\275\2652\367>\004\223\027?H\006 \276Ul\362<\323.\313\275\204\027V>OD\331>\215\030\312\274\371\221\344=X\376\010\274\307wN?3\215\210>\226\025A\277\314\234\242\276\354\342\036?\255\032{\276\014\214l>\300\206\363>\275\346\262>i\356-\277d\254\305\276]\274\213\276\337E\254\276\331\2707\276Xj\206>,\335\262<`\2328?+\200H\2760\244\317\276oP\257=\227E\006?\302Q\225\275\215\356\203\275&\031X?{x\n?<\n\226>\345\003\342>\240\203\036\277\365\037\016\276\263\257\207>\372&\210\276f\320\035?U\261\262>\301\t\262>\255G1=G\302\254\275]\367\321>\353G>\276f\016\213\275\\\265\027\277\np\031?\341X\222=\307\373\365\276\354\266\202\276\377\353(>P\274\244>\262\306\204>\240\344\305=\372\004@=\304\354\362\276\007\3254\276\336 \n\276\020\311\004>\245s\220<\200\"\336=\3200\305\276]\225\225>\227\301\023\277\310\330\207=tu\272\274o\021\265>3\022\227=\350\037\210>{\340-\274\372\204\006?o\334e>\n\022\026\275f+\250>\361?\032\277\224\212\010\277\002\342\213>\354\331\214\275?\372\031>d[\223\276Uv\376=\200\227\315\276\005;\221<\273\354\231>\372\220\240\276\363\251\236\276\267\004\272<\272=n>R\307\256>\367\203\221\275\276\306\210>\372\260\262>\213/t\276|_\345<`|=\276*\274\026\277\300d\372\274\336\272\r>\373UA\277S\366\360\275\260\206\325>\222Cm>\320]\333=c\347\025=\032\254M\276b\016\217\275B\020\230\275M7\251>\031n\243\275\363\217)\277\177\242\020>\204\\\313>\336\203\324\276\274Sh\276\310\347\247>.\004y>\023\204\201\276\000\245/\276\312F\243<\311t4>\213\r`>\341wF>zv\212>\022}\322\275\257\\\231\276n\256\376\2756\230\031\276\263\275\266\274\257-\233>\255\222t>\314\344w>gk\317=\035\210\236>s$\002?\306Y\220>\314\364=\276~g$?|D\332=\316\255\312=\001\373\227>\232\0352\277f\261\244<\3031\316>\002\242\322\276\375\326c\276\'v\255>\003\303v>q\227\007\277(\177\013\277V\006s>5RH\276\033\r\205\276p\006\234>\322N\002>\331E\n\277)\030V>\276\376\367=\004\002\212>\326B\305\276\210|\317=\237 \233\276\347\036\203=7 ^\276?\340\230=\343I\234\276\375\345\\\275\200\207L?\363\372\276=\230\375\206>B\265\323<\235A\205\276%\223\226\274\206\273O>\017\275E\276\004\312\362=8\225\223>i\216\244=%\333\373\276\004$\247\275\355\270\032<\363F\261\276P\021\231\276\210\035*\276\007\240>\276\"O\003\276\216\334P=\252\373\031>\237\002\353\276\003\220\217\276\031\300\362\276\273\0044\276\013\224\214\276\313\267\305\275L\256\335\275S\334\022=\265\206\222\276\3268?>%\000\300\276\220n\337\275q@5>\310)\224\276i\374\224\275\013P\272\275\213(p\276wZ\341=\341u\306\275\330\336W\275\350\345\332\274\201\306T\276\364\203+\277-\027<\276`Y\201\276\313\203\377\276@\345\325\275R\373+\276N>\267>\327\177\'\276\373\334\273<\005\265\214\276\2655\365>\272|\373>Rz\240=\326\251\">\'\311\262\276\212\241q\274\250\350\n\277\032\212\315\275\3368\025\277\254\334\220\276^vC?\"\000#\276\266\364\255\276\227\375\241=\032\303\222\276T~\006>\010\014\334\276\326M\256\276|O\365\276\343L\220\275\003\317\240>\326\273\204\275:%X>\356\270\326=X\234\323<`6\356\275\227\260k\277\215\366\235=\260f\247>\013E\235\276s\3601>@\375m\275\000\303\211\276\243}\330>7(\314>e`l\275\033j\276>2\210\214\275\314A\237\276E\375\262>\325z\006>\014]4>\303\036\342\276s\321\034\276z\232r=\007\026\260>\214k\347<\337m\341\276K\230\236\275\206\375\201\276\332\271%=T\206H\275[\255\365\275x0\n?\026\254\217>00\206=8\257\361\274\274Q\344\276g*\363\275Ir\304>\210s2?\306\320 \276\360\021*\276\0372k>\"@\215=\241h\243>\252t\316\275\321~\000\276\"\252\227\277\224\004\333<\365\214]?Ls\010>W\204\227\276\036|\244>\347\223w>c\333\203\275\234\227t=\226)K\277\025W\033\277\365Q\016\277+\324\004\277\017\"\317=\001\215\273>\\@\354>\301\000->\256\363\024\276\371\027\307>\254\217\003\276U\024\263\276\300<#>\000\365\236>q\256E>\301o^>\026\343L=\304\ty\276\"\2457\277\256/\240=\306\374\245\276\226-y\276m4w=\341\210J\277\340m(>\025\210\357>d\376\304\275\214\264\240>q\243i>\205\223\352=\3426\241\276\206\221\313\275\366\374\307>\255\327\241\276\265\374\321\275\226\026G?\314\242\341\275\214\277\352=\372\nu<6\361\275>\211jV>6o\r\276\031\372\357>A\024G\277rY\022>1\301\031=\312\r\006\276\366\227\004>\253\244\312\273\377\256l>\357\242\017\277\372\373_\276\377t,=.J\267>\216y \277\310\177\330=\265\304\212\276\300r_=\267=R\277\332\353\233=\226\337\237\276\"\356\200\276x\"\">\221/\025\277q\320\252>iq\212<\271\276\237>s\002\033\276\331\345\245\276e[)>\331p\005>\267\001\200\276\344\351A>=\3722>\370\316B>y\215c\2762\204\222\276:\031\006<\000d\007>JC\303\276\014N\331\276P=\305\276\364k\251\276\"e\240\276bc\206\276\276pa\276\265V\320\276m}\270>\227w\034;\341\201\264>\020\243\036\276\356\223,>{\352+\276i\320\250>U\324h\276\234\202\224?\345y\271\275\322\236Y=\302e\n>|\211H>\206|\227\276\222\3251\276Z0\220\276VA\340>1\271\367\273=\324\r?\251x\013\276\260\331\215>\030\376\036?\033\311\233>\365b<>\"`\263:e\203\233=\312\210\322\276Q\027\224\275\303\333\315=\022\223\234\276\322\306\233>\320\335\355>v+\200\276F\206\200>\005-\021\277O)\275\2764\220\004>F}\206\276\306\025c>:p)\276,Y\357>\000\3045\276\366\271\030>\315\277N\276r\262\226\276\027\006\001=\215\341\325<\262]\312\275\214\216\037\276\240\375\347>\310\215K=S\307\203\275\335N\376<\376\025\030?SZI>\000\340\261>\305P\273\275.\003/\276C\031\307\276Z\3326\275\346\225K\276e\0242>\222=\220=\237\320\'?\270Lm>k\031\367\275<e7\275\253\314\346<\251C\241>\3716\376\276g\241\345\276\022\252R\275`\'S>o\260;<d\377\313\274Za\243>\367jJ>mF\247\276\026\240\362\2755|7<\236`\306=\3049p\2755\000\305>,\320?\276\324\367\343\276&\216\232\276t\301\245=\265F\267\276o\004\357\275\022,\034>\274\321\016>{U\005\276\361%n\276Qa\013>\251;5\276\220\252\227>\302\0370>\333^\263=,\313\345\274\303\202\216>\253r\033?\261\321!>\366\037\024\276\213\347\237\275\372\000\001\277\247N\003\277V\000\007?\034\354\263\276\\\375\014\277\306+F\273\276Un=\316W4>>?\307>\204H\211>;\202o=\204\342|>\024\215\243\275\345\304\000>\360\273\226=d\254\023=\235\013\201\276\250\360\255>\314\217\212\275\342$\213\276`\364\n\277o`\n\277\366F==\236\365\232>\256\0337\273<\025\320>\374\247\235>\253\373M\276\310\033\276\276.\206S\276xE\304\275\022\301\272>#f\362>\222\332\235=-c\362>\304\013\363\276\321\256\007\276\336\260\251>\343Z2>#\311\205\276x\365\357\2755\000\244\276\002!;\276\033\3611?\006\302\222\276_\2535=\273\301\215>\367\"[>\340\356\242\276\030\211U\275:iU\276\312\340m\276\365\365;=\017\261\242>\373$K>=\334\025\275\234\220\270>{==>/]\372\275\236\226\222\276a\205\036\277\007nc=\270\026T\276\246\230\374\274/\267\304>7}\256\276i\'\025;\375;\025?\352W\351\276\213R\002>\343\320v\276@\210\327=\324\317\202>\320\356\231;\302\361\306>\022\302\311\2758\201z\276\353\246\371\276\220\245\013\277\346\207k>/=\023\277\270\354\336>Q\211\263>\264\322\364>\2753\243>S\325\026=\241\333\235<\227\327==!\027h\276l\020\n>\031u\026\276{E\177\276?\336\275\276\347\317\344>K\214\273>\323\325\225<\245T\002\276\324\352d>\340\352T?,\341\320=#;\360\276\231%\232\276\323&\352>~\206\220\276\017\214e\277\213r\263\276\232\264\361\276\032d\024>Z[\325\275\007`)\277\335\250\350>\260\020\206\276\346\031\177\274\325\201\231\275\036\325I>\340\361D\277\016\343\205<\337\377I\276\346\245\224\276\342\327\365>19\\>R\254W>\233\313W>\001t\003\277\374_\026\276=\303X>\341\374\214\276\306$\006\277_\227F\276\255\016*>rL\275\275\353_\377\275w\266\r?G+?\275KsG>\3423\244\276\375\314B\276\210:\376\275\304\005\254<IL\246>zRJ=\200\026\237>\211\250\340=i\211\220\277\374s\243>\204\036.>\022\014\375<r\256O\276n\234\217\274\227\024\304\275\234T!=u4\317>\333\310s\276\246<\333\276\215/\340=\257\241\253\276.\317\001\276\325]\273\276\301\']\277\221\372\000>x&\373=\375\023\204>\312.\374>n\303\377\276\354U\310\276\347\020\305\2764!x\276\366ae\275\373\031\217\276\355\235+\277Z\365\361\276a/r\275\312\261[\276\233\305\327\276}\254b=\310\273\343>\021\277\273\274oq\266\276\234\214\331\274\177\310\t\277\026\316I\276l\333\365=\241>\233\276P\021\002?0\315:>)\214W>\366\375f\276\r\330[\277\344\004+\277\342\232\364>\3767\213\274\262z\265\2740\333\300\276\261o\220=ScJ\276T\004\324\276!)\376>\326\200\022\275\242\302\304>J3\307\276m\037\254\273\0212\223\275\201P\t=\366hw=Dc~>\313&\331>M\220U>\335\224\031?\026\242\273=\276g\271<k\0306>\304\211=?\265\377\212>\277P\'>\013\000\347\275\350IS\274\2210\213\275\222\371\262\273\024e\327\275 O\326:J\324\242\276\203\217_>\024:K\276\276:\357\276n-<?\245>\024=\003a\036?\212\247\305>(\004\356>\340\225\017\277\246\232Q\2776]\315>\372\004J\276\362\335\254\275\234\3718>Z\334\023\276\353\265\030?Z\337.?\'\305\260>\007\330-\277t^\211>\306\206\361<\275\220Y>TlP\275\'4\245\275O\211\032?h\006\304>\032\206\251\276\n\021!>\243\\i\276\241\324 \276p\350\254>\034\351n\2765F\362=\252x\364\276-\255\001\275S\2054>\376\210\314=8\357\023?$\337\336\276]U;?\377y->k?\025>\303\320V\276\340\367\014\276\020\221-=\356\251Z<\207+*?\205\374\322>\376\247\006\2753\034\303=\003\266c>\251n\243\276\346\'\344\2760\007\201>\340\277\254=s\367\243=!w\277\276\333\326t>+\321\016>[\220S?\357\032,\275\214\225S=\203\036b\275\230\346\001\277\2701\000>\030\326S=`<=\275\307I\254<\237\225[>\270k\023>PZ\307\276\211v]>\2140\021\277\240\002\000>\255\337\313\276\241\214\200>\274\374\030\276\247\273\276>\267\310\000\277c\315\002\277\310\242I\275\262\022!\276I\005}\276\267J\304\276\036R\255\275\202\356\264\276(\351\002?LY\227><\016/\276O\\\277\276\336\256\271\276\346N\004\276\307|Y=\223\002{\276\223\330\200=Q\241y\276\306\357\206\276\253\335\241\276\267\244p\276\275\274\022<DB\004\277ul\351\275UH\036\275\225t\035\276\024\273:\276\022J\236\273\013|}>\337 \315\276\035^\021?\371S\005\277r\212a>\323\254B\276r\322\\>\030c\361>\206\243\206\276?[\000\277\202\370\'\276\030&\210\274B\347\354\275\355=l\276\343\020[>\246KC\276Ll\210\276\347\244\316\276\360\337R\275f\267q\276#\241\202>Q[%?<X\276\275\254\366\334\276@@\200\276\246W\315=!\271\204;\024\243\324\276\247l\355>\350\305\275<9\305\206>\254F0?sI\205\273\216N\023\276\263\360\241>@\323\340>\240-\335\2766\334\225=\013\017\r>\000\346\310\275|M\346\275Ra`=.\202\226=8\353p\276\270V\202>\322q#\276K\016\036\276\301\364\212\2761\341\314\276\270\332\261=]\240\030>+\371\222>@\377R\277\330\262\017\275(\240\201\274\2601s>L\247.\277m\2644?\250\336\030>HO\004?F\025\366\275\247\356\242\276\243\254\014\277>\214\341\275F\367\035\2758\253\001?\222\224\327>S\203\263>\247H\306>k\320:\276\241\252T\275\326\250\240\276\245\237\207\275\275\367\275\276\327\237\312>L\253U=\243\250p\274\261\027\031\276\244\307R>_\356\">\264\360!?\270T\006>\366\t \276)\226\272\276\224\203\375<\315\244\336=\263|\237\276\202\227\031>\000{\035>VH\256>\317\346\247>\257\361\230=\347\246N\276\355\273J\277\310\230 ?\346`\216\276\372\243\231=\216\367Y\275~\032\334\275\247\337n\276\310\241\020=J=6\276l\324\352\276\021jh;\234\363\237;\233\350-\276`_\262\274\251\327\032?K\370\">\275\022\246>(9\336>l\r\010>>\342\036=\246\337\025=h;\"?a\241\303>3&\344>\314vP<\024>\355>&S\255\274\201\250\253>3o\260\276\030Q\013\275\016\177~\276\320\tv>X\214!\276\034\240\224\275KO\352<\r%y>A\372F?w\223\333\276V\013;\277\273\343\376>/\002\306\2760\355\t\277\001\n\331\275\036\263\347\276\247g<\275$\305\200\276\235\027\001=I\263e=\023\t#>\335\234\003?O\225%\276a\035\303\276\273\361\">\327\254O\276\006\002\252=\275\367\233>W\3351>%A\200\276[\323\215=\036\265r\275\210\204\205\276J\2012=C%5\276\307f}\276\201e\212\276\242\375m\276P\262\352\275E\352\352>\332\275\270\276\025U\302=*\346\177\276\270\021\031?\'\316\202\274\t\035\201>\366>\361\276\001+\240=\245q\257\275n\215\243\276\013\236B>\271\265[\276\222P<\273\344\023\030?\016J\257\276\340\203\300\275Z\n\024\277)\3336>\210\276\337>c\221p\277ur\003\277=\327\204\276\3601\355\275{8\343\274_\0255\277\262e\324\275<\020\020>\352\244\262\276\325\364\224>\374=\235\276\036\307n\276\310|n=\201\360\007\277qh\030\275\340y\020\276\350\366\230\273H3\350\276=\007\244<\240(\006?8\355\212=9\276\022\2761\273\222\277t\227\234\275\222\225\343>}\343\032\277\340\334N>\002\341=\276o\257\323\276\363\020\377=H\013?=\351\336S\276Q\341\033\276\'[>>;\205\241\275\327K\317\276\321\215\033\277(\272\311\276\020\360\007\277\276+A>,;$\276\241\333\331\276\022wE\276^a-=\201\236\020?8\r\034\276\n\264`=\006[\213\276f<\272=\260\271E<\223d\226>d\023+>\017\274\355\276#(\235<\344\313!?i\376\024\277q\237\202>\364\200\235\274\027\312j>;\034\374=\372\324\337\276\004j\003?\017\263}\276\207\374\255\275\253&Z\275\255]&\277~#\273\276ZN\200\276\027\031\237\275\231\356/\275^\353m\276o\376\017?\254^\357\276o\253\324\276\350\362\217\272h\322n>\"\272\013\276\240\210\262\275l\223\240>]\351,>\300m\251\275q\233S>00\237\276Q\177\205\276\004\2163\277\340\332\241\275\243\021\002>\335\005\251=3+\361>\002\257\333>:_$\276\327\263\306\276\322<1\277\374\347\027\277#\254!?\202`\307<Q6\312>\263\371X>\211\005\341>~\325\304\276\n\300\t>\311\235\364>dz$>\253\250\002\276)\034\201>\264J\377\275\272!(\276\232:\217>\256\033\026\276\344\221H<\336xu>?\021R=NJ\214;<\276\313\276\202!P>\216?\210\276x\271\275\275\346\2573>\244o\214\276F\367\342\276-\252\363>>z\272>\236\200\222>\334\"0\277\352\344X>M\331\007\277_\336\214\276\206\326}\276\362\332\010=\2709\227\274@3\233\276w\t\306>\365XD>n\330\014\276\255A\365=\237L\274\276\274:-\276\036CT\276\225O\215=\221\334\'>\013\034i>R\370\020?8\202\317\275\246:\'\276\373\005\243>m#\021>\250=\206\275\237{s?Zv\\=\360i\370\275\364\373|\276\025\263\267\275\020\304\271\276\322>\333\276\014\236\261\276u\211\201\276\376\240\231= iN\276\252#\212;5\214\277=\010\336\361>qw\343>\010\243V<w\232\232\274\303\375\223\274\004\'k>\212/\336>\344\236\003?\245q\376\276\365\313 >#5\370\276\324\274\330\276\312\230I=\314Py\272\261\260\013\276P\275\335\275\376_\302\275\224\330\341\276\232\334\213>\305\003\006\277\n\203\330>\355\306\330\276\255\332\234\276C\253\370\274\235!\005\276[2\033=\203\3711>\241\231\003?}\201<\276\003w\025?\263\343\360<3\226\314\276Q\333\202>1\271D\276\265\006\314>d\\\310>q\206\256>\253\032\226>\276\233j=_\nJ?\'ja>Z\303\203\276e\227\024\275y\035\331>\251\2708=\0209\373=\013+\360=\305F\273>\357\234\302\275.\227r\274\010:\030\277]\275\014\277oJ\232>)kX\276\001\232=\276\202\r\251<\355\314U?\266A\256\276\362%\351\275\303GI>\265\010\234>\020>W\276\346\0075>[m\342\276 \270F\276w\021\006\277\352b<\276\314=\316>\220\021\370\275\303<\302\276\000?H>y\271V\276\273\223\022\277\324\276\355\276y\225\336>\370\221-\275\325K\250=g\261\322=\322\223\303>\221$0?7`\363>\316q\332;\370/Q>v\306\366\275\320\331\257>P\035T\276\240\323\343>^6\344\276:*\214>\366\016M>\2574\351>\252\363q\276\310\263\005>[\034\033?\026\254.\274sl\030\277\353Wq\276\304qJ>\371\310\025>\3136`>\010\275\342>\2700\273=\247\350\374>\006\230\367>S\271\326\276\276t\210\274Wy\333\274\312Y\010?\367\370\214>\362`\375>\323\016\201\276\207Hf>Q/\263\276\207[\354=D\250\023\277=\237\035\277\273\370r>\020\333_?\221\2021\274\261\007\023\275|\235\205\276.\327\230=\262\215\214>\236\213w>\335[\301\276\250\225\360\275<\217\302\276\2469X>\261\232\261>\213 \027\276\\\242\356>\201IP\276[qv>\024|2\274\177ck\276\177\226\375\275$\"8>\304.7>\344\354\n?\t\213\023>\232\377\027>\224\321\277\276\000\203J>\220H\211=g\270\037\276~;c>\316\004\n?b\267\005\276A\211->\303\210y\276\351}\311\274z1\320\276\275\347J=\260)\366=\021\200\256\275(\212\030\276\242Rm>\331\320\314\276<`\350=\375\344<\276U\300\347\276v\'x>\031*\312=\017\027\251\276\247\2068=\277\004\254=\243:\333>u\252\025?,M\335\276\300\224\335<\301\274\245>X)\016>\301 4=t\226\300\276B\230\224>\017\320\231=op\222\275\336\334\030?\273\246\221>W\237\371=\033\230\262\276\323S1>\320\225r\276\362J\253>29\237\276=\203E>\362^\232\276\215x\021\276f\327\353\276\276\227+><%L>\014\245/\276\354\370\325\275\367\313\272\275.6L\277)\331\330\275\214jU\276V\006;\276s,\023=f,R=v\177\255\276\026\376\230>7{\003>\377\377L\276\210\003\307\276\027\273\234>s\023\005\276\347\177\004>\260\370\251=*S\366\276,RP\276m\230\363>\217\203\207=\233LN\276\326g\245>P\257\000\274\354\021\"\277g\240\262>,{\207<\215\027\212\276!3C>W\242\222>i\332\353=\363v\250>\251_C>\306\352\222>I\366\324\275\t\366E\276Y\002:\276\333y1\276Q\312\271>\204\330\357=\001\263\347\276\203\025\316\276zh\363\275\n\332\010?\014\221H\276\240\n\234<ds\273\276\351\267\251<@\267\334>\001\234\236>\233\375\002>\177j4\277P\254\211=V\311\355:)4}\276\324!\036\277A\227J\276O8\264\276\001\265\257>\222\331\252\276\000\332\363\2764\310\310\275\232\244i>N\207\274\276\221\337u\276\rI\365\276c>\014\276\364\003O\275\344S\225>\255\020\230=\350\256\274\275\007\256\257\276\024\365b\276W\214\270>\262\017\264\276<r0\276{v\006<\327\007\274\276\251<{=\274#\264\274\237\334\301\275\261\376_>\303\366\237>=\272\033?\273e \274IO\013\277B\365\271=\371\022i=\332\325\254=\342\273\253\276h5,>1\272\213\276\372@\346=HXV>\332t\247>1].\276\313\205\274=6P\201\276\342t\004?:\341\030?l\003f>\370f\225\276\035y\256>\334\317\005?zg\215<\2373\265\276\345\201`\276\277\003\003\276\275\332\004\277W\243/>\315\033\205\276\326r9>#D\230\274\311<\027>\362\341\257\276/\213O>\226\033\213\276\346\304\016>S\377\321>\036\250\334\276\335\243\242=\360\215\227>t\371\326\274\223\325\216>\305u\213\275\352\231\312> \260\026>\321:\027><\3019\274\034\272\032\276\030\037\315<k\177\330\274\335\311\325<5a\313>\257\361I>\312\027s>\265\236\021\274X\254\000\276gN\026=\332\020\220;\244I\346>\317\306\324\276Ce\200\277H\241\204=\010.V>\267\034\r>\275p\202>9\211\367=\301\360\023\276L\211\224<p\t\255<\364\331\354=\221\2063\274\332EX\276\362\006\322\276%=J\276[8\203?\315\304\367;\365\334H?r \250\275\020\023\262\276\023\270\340>\266D\333\276\037\262\235\275\211\347W<\324\213\023\276\371\177p\276\177-\310>\370\250p>\305\315\216=\203?-?M\\\244\276\336\334\"?\214\337\205>\301RP\275Oa\277>\224\205\032>\315\376\330\274:;^>&\006^>\352\210\253>A\200\223>e\205a\2746\202.\275_3C?O*\262>\354\266\022=\336\221\371\274\024\236\353\274\202\036\357>\334*\263\276H{Y\276\300\206\323>#|~\276\227\216\212\276\207\265\301>\207\354\247>\222\023,\277\336Z\305>\346\246C>\343\263\006\276\246\203,>@\327T=\212Tr\276\262\365\017\277l\3600\276\014U\034\276=\331\n>}\031\233\276S\345\251\276P*\354=O\262C\277\335f\014\276\252\315G\277\345\006\225=\n\352L?;L\347\276\274\250\240\276T\n\272\276H\375\036>\232\261\274\276\307\3735\276\354\257l>\363@\274\276\2011\360>\330\013\333\276\005\016\352>l\246\345=\212\242<>\261\026B\276\362}\211\27663\237\276\334\335\214=M\326p>\306\000\361\276(\356\206<\326\347\034\276\201\357\370=\346?\247\275\270=\232<Z\200\270=_\261\274\276O\027\225=\376\004\273>_\262N\274\016 W>\035k\207=1\306`\276%\361\303\276\253\310\004\276{u=>ai\006=\024\334\307\276x\020\253\275\314\272\023>\007\0367\276\364}:>\357[\202>\212\010\374\274\302\005\t\276\323V\366>\202\274\007\277c\214{>\305\334\275=Q\320\377\275\216\337\031>Ob\251;\335\350\026\276@\225\327\276ZE\246\276iS\372\276B\311\316\276N\233\334;u\242\355<J \244\276\031`\\?\213\206\250=h\2041>\221P\355<\003\243~\276\t,3?\221\324[;\322\003\034>T\212\026?\202\263\032\275\304Ep>\361\2619>\232#\206\276\252\200V>\360dA<&n\353>\346h\364\272\355,\256>\374\222\321>\334:\030\276\342@\014>x\334\017?0\230\227\275:e\200\276\0335\021=\204\035\320>p\371\252>\257\227\222\275\361\361\251\274\'\360]>\373u\246\275\016Q\254>\313\203\030?\237\362\030?\313\005\035>\341RM>(\025\311\276U\242\315<\340\263\340<\213\323\232\276\221c>?b\334\376=1\241\224>\354c\317<6\255}\2767f\200\276\261H\032\276\330\322i>e\273\310\276K\377`>\214\327\336>i \002?\037\222D?e.6\275)q8\275\340Ry>\234\337\r\276\277\273\277=t\017\005\276\251)\241\275\215\"\034\276\333<\225\275$\357\020\276\207\027\000?\270z\345\2744\005\215\276U7v\275R\000\031\277\310I^\276\256%\204\273_z\007\274\364\374\231>\033$\000>\017\344~>\206\r#\275\261\306V\276\251\311\333>:\232\033?\341\036m\276>\233\244=\346^\363\275\242\214\353>]k|>( \205=y\317/?r\tB=\340\306<\276d\035\004\277}8Q>\237\336\265>6m\263>z\031\267\274\201\245\025>\250\233\265\276\231\377\350\275>\034\266\276\0100\341\276\220K2\276\3078\\>yU\263\276u\337~>\177\210\324>s\371\233>\263}\\\276.L\210\276\234`d>\252\204\021\274\250\352.\277\2579\021>\324\331T=\025Y\254\276\220\030\313\276\303\305<>,\032\344>klt\276\270\303\270\2745g\271\2762\332j> \010\320>\252\300\007=y^\301\275\340B$\275v\207\357=;\001\364>/\200L>Z\273M\276c\366\336>4\276\276\276\3502\"\275q\304\'\276\216l\337=f\267\335\275WD\224>\023\357\323\275\tr\235\276\213\341\200\276woD?\340\nx\276\030\020\025\274z*\365\275B(\376>w\222\301\275\272\376\323>\355\356p\276\315tc\276\033n><*Xa>\030\262\311\274\341\346\316>4\037I\276y(Z?\236\363\222>\335\206L\275\231\221\026>\226\345\253\276(\3542>\362\"\207>a\033\304>\310j\334\275U\325\307=\001\205\017?.l\003\277\337,\023?\336\371\'\276\020\202\003>\215\262~>\222\306\030?\013\220\252>R\r\017\275\213^\303\276zQe=\203\344\310\2756\354\n?\266\000c>0\002@=x\007S\277\330\335\024>\264\376$\276\200D\363\276\365L\341=\004=T>\270\307m\276,\361\037\276\230\244\241\276B\3543\277\252\363c?B\237\234\275\026}\206>\354\371\316=b\2633?q&\263>>lP>p\302\331<+t6>\331\335r\276y\337Z>\350rd\276\227\0231\277r\2562>\272_\217>*\221\214=\37584\276{\347{\276\2169\020\277{\237\223>\344y\317>\003\271\t\273\177j\230>|\304G?\365\275\256>#B\232\276\261eV=\225\000\203>\320x_=N\336L>\002\t\214>|\332\203\276\tk!\276\361\213\177>N\311\243\276-\\\013\277\367\037\235\276\241D\215\274\207\375b\275UaQ>\335\347D?\"\337q\276\212UE>\027\023e\276R\353\035\277r\304\223\276\325\325\024=E4\367=mt\320\276Cf\335=\035Oo\276\204\352Z=\222\356\223\275\221\301\035=\2324\263>\306:u\275\0033\r=\232\006\220>\214_\205\275I\254\223=\240d\310=K\274\260\276\243\250\202=\314\350@?\345\357h>$\214I\275\3506<>\315\343G\276\353\242\340\276D:\371\275\r\301\256<\215&G:\374!\017=\357:\242>GB\221\276Y\233L\277_\325\267\274G\265\025\277\277\314l\277K_8\276\025Tk\276\252\234\336\275\036?\270>&\361A\276\005[\276\276\362I\023=!\3170>x\374\243>@\027\035>\re\204>\267*\272\276G\246\376\273\330\030H>\220\320u>\352\346\322=\320\214\323;\002\226\227>\210\014\233\276i\3134\277}y\267\276<\000\346>\363wd>\277\207\344\2732/u=\037\316\305>\374Q\343<:\013\202\275>\374\316\276s\224\336\276u\304J>\376\010Y\276}\032\203\276n\245\034>|\236\244=\220\302\365\275\177Q\235\276\350\254\347\275\263\021v\273%\265E>\203\321\323=\226E\335=\276*\033=\232\217\322>\257o\310>\217r\222=Rp\337>M\200w>\247b\264=\251\267^\276\024u\010\276b9\366\275\226\364\327\276\245\205\260>&&1\276K\361e\276\204\336K\276\272\206H;\205vt>+\326\301\276vh\214\274#\\W\277\271\234y\276,\005K>~\230\275\274wX\364\276\270\224@?0h\032?j\324I>\035\'\207\276\020\316\265\274\216\271\357\276\253g\274\274\220\323\013>P1\235>\'/\031\277\361\275\315<\204\306\017>E\242\275=\333j\275\276aB(\275\362\004H\276nR\005>H \022?7\377\026<\037S\304>\262<\235>Y\021\030\276g\364.\276\341\212U\276\341\025\212\274\250H\217:g\031\206\276\023\365\360>\325\246\331=p,?=\023\034!=\215\273\314\272\235\220Z\276\256-\325\276n\301\350=\212D\277<!\315^=A]=>\342d\002>6\374\333=v\311R=\247\3512?O\232\267\275\013\3468>4k\372\274\007o\265\275\010\354_>\n\n\223=\211\361\253\276\334\347\244\276\013fU\276\2066\200\276\325M\013\276!\037\273>\354\334N>X\271\335=\"\334\362\276\375\302\254<>\271\361=\tdD>\317p\001?\275\205\317>\303\250\252\276T\212\337\276d!\022\276F1\216\276S?\020?\336C\"\277;\374\223=\236\n\211\276\220\252\213\275\036l\337=\n\275\246\275\253\005,?\251\253\031\277\341P\264\276\036l6>(\235\237>\300\361\005?\352\331P\275\377\321\303\274\261\305\263\276l\333\307=5[\004?i\321\311=\376\256\303=|6E\276\340\252\035?\362\254\036\276\024\031\260\276~e(>\202\360\206=Grh>\332nW\276\335s\017?@\240:>\347\014\227>\325@\205\276\264/c=MB\322\276\267\335\222=\202`\314>|nN\2764j\205>V\254\263=\3403\272=\350$}\276\\\345\025>\205\221\264>\352\374\354\275 \272\224>\330yM:\361\245\271>\023\251\006\275\313\266|\276\337I\213\276\362\363F>q\362\202>\000\026\006\276\342e\212\2769\240\300\274\034\023H\276=4\247=e\352\004?\316\247\224\276\'\237p\276SR]>e\363\010?\271\322m=W\215\337\276\264\244\255>T,\236\276\351>\327\276D\251=>;\3270<\nD\177\276xe\321\274\330i\036=\222r/>\367\022\224\2768\234\322>9\001s\275d\222\027?/R\213=\336(\323=k\334)\276\325\364R>\264%\207>B\360\207>X\264\342=\027)\245\276\027\360\232\276\224\310\272\2760_u\276\322E@>\020\273\311>\365\036\224\276\032\026\226\276\027l\016?]w+\274\247\312\362;`\267\227=\356\344\221;\321V\322=?G\244<\360q\336\276X\032/\276;.\301\275Iw\270\274{\305\t?\374\037\022?\215Nx>0\301\314\276\331D\013?\034\333\243=\217}7>\002z\353\276\363\3311\273\030\220,>\374\277\303\275\307X\204=x\212\307>\002\257~>xk\340>x\274\217\276\336\304\272\276\307\036\303\276<ZV\276\\nd\276P\310\307>Q\352\227>\"\313]\276xD\226>\315|\013\274\227K\372\275\333DZ\276\271l\361>\3268w\276(\336\214>\270p\317\276\275\253\006=\244\231\326>p/\323\276\305\037\223\275\034\3424\276\374Sr\275\343#\257<i\0223=\323\324)>Y@u\276\303\344\310\276:\000\216\275\270\243_\275\246f\"\276(9\315>\330w\257>\335\236\022?\264\376o\273\245\005\226>\264\207n\273\302Q\004?\215y+\275F\343\032\275\306\306H?\327\025\343=}\313b\2761GN<\226\215\024\275\304\302\341\276\036\303\022\277\352\244c>\372\225\271\274Z\020\254<\342\216\304\276s\303+>\003\207\204<\216\275\236\276\321\220\232>\034\223\340\276%\222\375=\344\262c>\367~\032>\310\233%\276\245:\r\276P\024\274>O\033\030\276\002&>\277\275\210d>\266\215\233=\367\005\330=\241X\310>i\250F\277m\025 ?\311=\240\274~Gm=Oy\237>s\201\310\276Y\020\'\277l\305\253\274\304b\023\277\364\347\001\276\375\010\036?\267> \276-\271\026\277-\3732\276\234@S>\n\313\313\2751R\334>\232xK>\251J\211<\244\315\303\276\001\335\220\276s\201g?\215><\276*L)\275\272\004\035\277\034$\353>\276\006\224>\357\343\256\273\214p\272\276\220\260U\276qm\227\275\310)\331>\215\307\232>?\351\202>\333\233\270\276m\334s=\363\363\235\273\350\001\"\275\311\260A>\032\007\030?\377\323\271=\262\201U>\273\214\273=n\004\316>\340z\203\276\316\036\373\275q\263\212\276\201\\\247=;$j\275\224m\031<\363\022\241>h\206\246\274\343\2619>\2066\030>\037\\E>\253?\351\276\361\322\347\275\276\033\352\275\356-T\276\266\273\021>\235\203\031>\337\233F?n]p=\356\260\373\275\270D\245<h}B>\363\272q\275\300\014\204\276`t\245\276\376H\004\276\326\204\372=Cp\222=\230\246\217\275\034\362\036\276;\005\035\2760=P\277\346\320\316> \"\007\276\2508q\275\354\216$=\036\315\006\276\347\340\340>QV\234\274\314\255\036\276\354\034\201\275Si,<\002\346\272=\222\n\216\276@\240\031<\366p\317\275,\357\366\273\306\361h\276\206o\217>\264a1\277\246\324\250\276b\035 >\222(F=eNe\276n\263?\275j\217\304>\371\0323\276Jm6?\276\355\242\273\366m\010?\2333\037>\342\312^\276B\267\215\275\376ZD>\362B\001?\262C%>\020\236\365\276)\302g>:\336\212><\312\205\2765`J\276\313\"\275\276\2566\010?-\355\207\276\364\302\220=\230h\031\276,\rX\277\262\244\003>\220\337K\276y\247.>\n\\|\275`]\343\275j*\232\276\360\035\377>\034p=>\237g\"\276\310\351->\260\021\302=\246\245.?f`\311>\034\253\273> \026\351\276\200U\016>\241\224[<\223N\004=\373d\250>9\025\313\275\316\221\350<\306\307\007\277f\032\222\275o4\216\276\273\010L=\250O\244\276PQ\017\276\324\207\355\275\333\311\017\275\353\214\333\275\016\275\304\276\026\373\223\276\224\375\007>\245\375\267\275i3\013\276\256$\224=\307\274\323\275dn\006?Y\351i\275\335!-?\341K(>\317\255\213\276\333e1\276G\206W>\205>\276=\337\373\246\275\ry:\2766\023\001<$\350\244=>\204\217>;\266U>\n\241\222>R\377\363=+\333\350\276f\217\221\276\375\365:>\007\305=\276\322\310\325\275\3536\260\276\257\220\350<,q\343>\031&\323\276\275\370\362>\2657\364\276$}\201>\372\177\035\277,m\016\277D\350>>A\215R>\367\004\262=\013\013\222>\202P\352>K\365\377\276\205\304\205=\231\306*\276\376\355\252\276~5\217\276;\001l>\320\201??o\227\220>\322\336\316>\205,\251>\324\250#\276`Z\001?\014r\332\276=\001\364>\374\253.?b\352\250=\374\227\313>.\320\344\276hR9>\370>{\276ux\202\276\364\226\212\276\231\031\207\275\314\303\246\275\342\220k>Y8e>\211\273%\275\007\330x\276}\300\347>\360\246\233<\365\206\023\277La\260=\347\341\246\276\007#-\276\262!\317\276\302\002\307>\211\350\214\276\356\256\267\275\217it=\2507\305<iE\266\276\356\360\313>\323[D>\"\320\217\276\013\370\201=6A\322\275\2408\022\277\305\355P\276X\265\333\276\035L\323>W\377g\276\264\036T\274\0372\216>\254*\205>\203\224]\274#g\265>\030\300\220\273$\365\341\276\034\202\320>\276~\036\276\356\300\204\275\255\334\267>6qr>\374\245\027\276D\221\302\276\024\372>=J\033\"\2761\361\361<\260\203e\276@[\257=~\332\241<T`\333>NI\310=\365\334\344>\247H\000?R\206\317>\3057\276\274\2347.>\271~$?k\007\200\276^\236\242>\255\354\361=W\201l>\350\2049>\240;\023>\372\026\217>\275\"\223>\257\277\341\276\251\203q\276\224<\344>w@ \276\247\302\211>\324\335V\276\342E\322\273||\271\276\"\362\177>\220\014{\275E\353x\276\332\t\226\276\254=\235>Gb\024\276\t\305\230>?\233\272>#0\310>3\0016\276[\342=>V\207\305\275\324;\t?\361\327\010>\r\034\376\276j]\027=k\301\365\275H%\227=\2213`\276K\337\327\276\241g\024?\306\020\317<\301,\201>\224\023\247\276W\230C\275\003 \325=\036,n\275 kg\275\237]\324<\215\215\312<\267Y\326=?\313\255=8\323f>\260\310\006\276\310+7\276\377n1\2777\343\213>G\276\303\276}\023\t\277\227\262\316<\361\346\031?%GS>H\335\016?\351\014&\276\316.\016>\316jr\276\262\224H\276\207u\375\276\263\236\327\276r>7;X\222\353\275\227\334\361\275\367\025y>U[\275\275\3123j\276[\021\243\275\314\276D\276d\226\315\276\022\222\215\277\307]*=RO\343=\235\272\266>\252\204\250\276\257ET\276\377\206\251\276!LZ>\\\226\312\276\364Q\031\277\267\357\347\276\233c\204>\2067\322\274\036.\314<X\352\245>2\027|\275\207b\331\275\233|@\277\305\2672\276s9+\276`\320L=\2265\230\275\272]\322<\371\3663?\013\222\327\276\n8\013\2756\350K\276^\334\221\276TGJ>\3631\235\275\330\340+\276\263oJ>\225\214\003?\2426\033\276\177\264\363>i\210\303=v\365\256>K\305\312\276\350S\351\276\007\206\237\276W\223\327\276\301\364e>\205\240\010\276\246\267\357;f?\325\275\247N\034\276\nL\344>\202\303\025\276\027x\014>c\023\366\274\347\026C\276?\372\303\276UT\274=\246\345e>\375\020\334>\316D\n?C3\355>\t\002\307\276f}\253=\212\003\363\2734\023\r>Gj:\276\036\024\351\276\002\262\221=Qg\236\276\227F2\275\003\316x\276yTw\276\202\020?>\244!\234>\345\271[=\232\0172>U \226\274\377V\272>\243\226\013\277\264\201\027<K\302e=\2328\021?\276}\325>\273\2415\276ip^\276\340j\260>@\211A\276S\262\367\276\244I\376\276\311\217D>\330\306\310>OOw\276\253-H>\307\220\255=\374\324\217\276\263\311\353\275\342\007\003\277b\242\346\27441\203>\306\343\272\276f=\234=\010U\272\275\302\204\342\275G\300\347>\353X\025>\264\352\354\276\354\215\322\272?\215Z>\244E\227\276\324\337\374\276D\031\021\276{\213\016\277i\273\355>\225\246\017>\235\272<=\262\305(>\362\202#?\365\325\240>Ud+>Gu\217>GM(\275\356\331g\276\374G\306>Ur\207=\022\\i>\242\033\020>\026\376^>\277Mn\276\000\3702\277=D\323>\231\213\336\276t\353\311\274\375\232\350=\200\024\263\275\350\307\240\274\261\372\007?$<\277>\tH\t\276l\233\024??\343\224>\340\241\233\275\004\236\224=\033\025\000\277\'\232G>\343\271\031\276\330\342\036\276\274\225\t>\270\261\023?\217\264\324;_o\307\276\2146\222\275:\271\307>R\013\020\277\372\247\204\276\177\221\342=c\024\002\276W_C>\356\214\230>\246&\227=W[\320>\026RA\276x\002\036\276\037\347I>w\005=>9\034S\276I\026:\2768\254\325\276\022\352\317>\177}I?\210b\022\276\201v\244\273\333\307\316\274x\320\223\276\013B\004\277\340\244T\277b\377\210>m\235\031\276o\240\252=\200\326\010\277\230\"\201=H\256L;\315\253{\276\306\'T\276\360\362\365\276\301$\220\276\313\352\366>\007\002\002\277\255\265\310>*\231\201>Eq>\276\'\261\030=\314\216\'<\"\211*>\246\236+>\342p\n\275&f\324\276\307r\254>\266\036,\274~\212{>\304\322\360\276)V\013\276S\356\">\030\347K\276\256\0319\276\335a\t\276\317\233<\276U\377\001\275-\261\252=\r7\357\275D\341\273>\306+.<~\266z>\240\322~>\266P\252\275\202\334\333\276\214\241\r\2777\026o>\335\251\304;\tV\270>\207\241\307\276F\276*\277l\025\332>\021)?\277\330\366\357<f\377\210>l\244\003\277U\334\254>\331\363\326\274\"\371\005\276\314\035\371\275\374\236\365>8J:>3B\233\2755\244\025>W=\252=\353\303\200\276\236\265$\276\277\211\222\275\305+\264\275\347\227\324\276\233M\241\275\266N\305<j\376\277=h\217\204\276\303\356\253>^~\222\276\311\317(=\320x@\276L3q\276M\324\022\277\214$\222\276\304S\035\277\221$\374\276\333^\277\276\"t\203>Do\262\275\226\267\026\276\233\305\245\276D\362\233\276z\201\241\276\371P\021\277Ig`>J`o\276vRt=\236\371\260>\354\320R=W\340E>\r+\270>\270\"\304\275\322\035\206>\322h\302>\306\335S>\337\033U?\311\000\306=\004:=>\243\347\n\277\227\364[>\351\304\240>\233\263t\277\365[b<\026\361\266\276V?\'>\276l&\275\240mf\276\302\022\227>\267E(\277%\355\224\276\227\323Y\276\260\372\266\276\362\205\335=L%\026\274\340\003\201\274B\261\342>\177\316\310\276\036\224\034>\356\233\355\274\307\363u\276*\305\223\276\247v\366>\237\356\240\275[\313o\276\243\234\"\276*G\236\276|\023\026>\'\035\021\277\t\312o\2765\260j>\274\257\347<\033\263A\277\036\356\233>\005-;>.\236\224\276\252\221k\276\375]o>!Z\371=\312\364\023\277\307\257D>\266\020>>\263D\244\276\342\346\214\276\\\372\211=\333\244\331>v\352\\>\267\336@\276\321\020\356>:\304B=VZ\371\276\177\242\351\276\035Y\212>\334AT?\306\374\247>\220\177\357=Dr\207>\363m\013=\013G\277>O?\215\274G\004\263>\204,\347>{t\357\275\273\014\375>\231\020\346>\355T\'?>\374/>\334\335[\276\313\376\250\276\222\215F={\372s\275\177-l\275\002\\\\>\r^\036?\222\302\342>\310\3669>j*\276>\231\230\326\276\204\217p\276z\206\002>\271E\215\274\243\2437\276E\247!<\327\002%\275,%\232>\3200F>\213\272t\276\037\274b\276\353=\004?\343Pr>\3713<\276<\005\226<\037\321\032\277zhf?\376\241\201=\355\264K\276/\304y\276\t\014;\275\\\235\233\276\323\312\303>#\262S\276\033\002\310=\361\024\032\276f\037&\276\262&\263>\267K\257>\354\340\202>\236n\220=\3521`\276\242\021\317\276\332B\'>.YJ>\"#\253>U\267\200\276\301O\230\276\004\266K\275/Z\215>\r\004\262\275\256P1?3\305\332\276\270\244\353\275\003\025W?\231\361t>\032\254\245\276\330\351\202>>\240\206\276%\020\273\276L+->zf\266\276$\245\'<\207\344\373\276\341t\021=\306\306\274>%\1778=Xf\321>\226,\227>\245mo\276tB\022\2778\303k\277\3158\016??\245\277\276z\010\022\276\367\177\267>\013\032\227>B\234\243\276B\217\243\276Z\026\345\276\337\237\233\276C\200&>\234\344\204=\206\320\270=C\345Z?\034;\031<\341\252!? HW>\244f\253\275\330\345\270<\036_M\276\027\225&>\372s\034\276\216\007R\275H7\201\276\304}\036\275B\022\244\275\031A\">\224\342\273>\253x\t\277\321*\016?\236\227;=\343\333\277=6M\230\275\372G\301>\361F\310>\031\221;?\216\271\377\275\240\363g>r:\203\275\255\271\247\276\337k\202\275\"\267\032\2764\225O>$\"\201\276.\216N\2759\026\000\27608\320\276\362Q\221>\013\";?$`\304>M\205\n\276\372\223\206>\230Yr\275=\025,?F1*\277W\237\342\276\355\272\221>R,\305\274\370\244\340\275\340\002R\276\306\006 \275\237\362\033?\200\337\313>\203\"\035>\241\302\374>\252-1\275\214\223\317>=\333E\277\314\333\340\275`E\017\275\317\302\203=\030B\364>\207\321\330\276\306\360b\276\013@I\276\320e\352<NLp\276\270\215\253\275\r\363D\275\271O:\276\217R)=\222(\205=\216\337\203>\300\202\200\276\257\335\320\276|kQ\277\217\357\r?@\362\014;\031\322\025>\236wM=\333\202\333=b(\036\2750p\353=\007\217\325\276y\217\032\2760\312\244\276\241X0\276\205\001\207\276\"W5>\242\247w\276\215\235\264>\325]\014?\346sm\276\376\214a>e_\211\276\000\022\314\276\204>A\277\330\365Z>r%\236>cI\017\2770\272\244\276\243\271\370=XL\001\276\274P\003\277\001\177\n\277\364\366\022\276\034U \275\214\323\037\276`S1>h\300?\277?\353\232\276\303\311\321=N\242\004\277\357\244\204\276\216\3264>\251\211\222\276<\252\035\276\357\325\252\276|B(\276\307\217\223\276\253\257 \276\025\225\250\274\223%\206\276\335\213\201=K\352\016>\305c\300\276i\035\222\276m\206\025>\347v\306\2749\203\177=\326 \237\276\267e\326>\216\001\300\274w\327=\276\200$b\276\272\317\244>V\237\225\276\340\241\352\276\224\275\000\276\320\372\211\275/n\022\277_1\354=\304\352t\276r\026\026>\003\023.\276I\202 ?]\027\222\276\345\210U\275\301b\002>M\020\275=\225`\204>\226\223&=\317\225\">\314\177\206\276\260q\212\275\215+\227\274\304\302\311>\216 x;\006\331\375\274\251f\252\276\376a!\276\335E\361>\227\001B\276\202P\323=w\275\277\275\364]!\276\321\370\253\276\262\270\310=\376\223\270=\202\260j\276q\362\335>8\037\303\276~l\253\276M\302o>\305\261\\?\205G\266\276\250\r\226>a\031\205\275\334wQ\274\344x\253=\214dR\276\243\202\306>\206\203\346\275>b\257\275\340d\235>\212\200\263\276\350\0202\277\225\200\025?\324\330\314=3\265\010\277,\034\017\276MH\\?\0016k=f\004g>y\321\344>B^%>Qu\271=TF\243\276\225\3258\274\024=F\276\\\307\031\2760\211\220=\t\000\217\276\177J\246>p\023\303>T\026\202\275\031&m\276\274\001h\274S~\003>.\334\353\275\332\247\323>\274t>>\362\317]\274\017Z\037>0/\372>\371\306\221\276E\365\225\276\222\342W=XO\313\276.\243\025?p\357[=L\227\250\275\267\260\227<\030q%=$\373\370\275\252\225B?\307\356z\276Zk;>/\307\231>\256]\347=h\342\013?\014-\014\277\215\211\220>\274\r\336\276\310\006\327>\224\334\231>\307\0239=\253H\035>\001\226\306\276\204\254\204\276\271\010\330>\306&e\277\304\013z\277~R\323>\367\2615>\"\312%\2762\330\003?\331\303\225=tN\027>\313n\362>~\275i>\334m\312\276\r~l= \201\020?\025\251\321\273^\245\220>\241\024\026\275\026\334)?Tn\t=\300\202\307>B\2738>^\344!\277E=w>\003\377\241\275\263\223\224\274\352\245e\276\027\311`>K\230\250>\334%T\276Kx\005\275g\3638\276=\'$?S&6?]\326O\275\347\"\t\277O\001\275\275N\244r>\014[\362=\037\377\312<{V\255=<\200\271\275\256\207\001?%\343\277=\375\262&=\333\216\306>WE\233>\235\252\304\275l5\334\275\203\361\304>e\016h=&\260H\277\252\263\252>Y\247y\276\324\363_?\025\374\337>L\'\270=cl\345\276\251\203 =\270\246\362=\212>{\276\344\235>\276\013\260\245\276(0\315\275\376uf\2743\020\202\276+\353M>\250`\346\2758#\215\276`i\312\275%\250\355\276w\020\366>\301\322\274\274L\231\366\276\240\372B> \226-\276\324\213\n\277sA\245\276,=T\276\372$f>\037\207\216\276\260\323\345\276>\375\025>\332\222\272>\\\274\216>\267\304\277\276\034/&\276\006g\302\276o4\025\276\014\342\357>\364^@\275\376r\231\276j\323\322>\337`\226\276q\310\035\274\352\367}>.\255\374=*g\005\277\203\010\025=\266\227\363\276I4D\277Lmf<\212l\213>\226\032\030;TO\320>\215\256\315>\304<\347\276~\253\226>\014\216\300=\360\323b\2762f\212=\010;\343\275t(\300\276\0327\257\276b}8>\233\026\017=\320\000S\275\203+\323>{\\&>\242\307Y>\334\244\261=\352D\004>\253\345f\276h\210\360\2756{\021\275\r\201\341\275@k\025>L\227I>\247\316D\276\021L\263\276\303.?\277P}\004?.\330?\276\242\304\357=0\000\324=\332!\226=\312\022t>\230\013j=G\360+=\345U\233\276 \0135\276\271\200\344\275\3572\005>\025\214Y\275Y\377_\274[\243-\276\252\245\266>\356K\267\276|\352\353\275\000\255\021\2761xg\276\277@\334\275\337\331\257=\241\253F\2762\340\320\276\r\316\220>o\354\215>\222[\">\251D\223=>HP\2754\004\005\277?\001\350>\250\r\016>\334\016\372=\261d>=\252\347\\>\353\240]>\262C\364=\340\250\273\276/\356\270\276\253j\201\276;Z\232\2760i\325>\026\244\220\276\\\006\221\276k\326\237;\262m|=c\235S>*N\223>\203\304\206\276\371\323\344\276\345\321\227>\210\035\213\273\003+u\2761\025x\2757\276\302\276\246\270<>g}\373\276M|\373\275\036\236\030>m\217 \276\037@\310;\"\371\362\276\217\376\002\2769\250\356>\334\313\355\276\\\034\220\275\\>\201\275\263\241\007>\211\214\217>\240\355\336\276\250\366K\276y\323J?@\332Z\276_\\E>|bR\277\241JE\276\016\007\304>q6\301\276\031G\265=\000\363\007\277\276*t\276\327\017\335>d\225\304\276\232\314\022?J`\233\276\376\004\013?^\276\010>\357\001\002\277\027\233\010\277\375\353\030\277\r#\267\275Q3l\276-\326\234\275s5\202\276d\026\334=\022c\262>X\215\325<b*\251\276F\240\330>l\'\332>\3730\200\2758\376\227\276\004\375\324\276(\376\211>\223\305_\275\375\177\252\275\354S\322\276\320.\\\275Iz\237=\307z\016\275\231&6\277\275>!\276\340\232\005\277A\276\322\275\343\353\331\276\356:2\275\345\264\274\276\370\005\213=>D\324\275\272|V>\"5\243>\t\035\267>>}\212>\254p9\276_\200\231\276\333r\270\275\215v\001\277\232\327i>U\tZ\276\364\336\335\275\256\235?>\000TZ\277\215j&\276n\340\321\276\217\227\252=\300\354\017=\000\221\236\275\212\013l\274\257%\201>B\345;>\252]\360=B\202@>\262\252\212>\027d5=\255\r\017>\331\224\027?v]\227\2756\306?\276\213\007\004<\376\312\213\277\367v\270>\035\025K\276\032\256\023\276\032V\275>\340B\004\276\213\277j?:_\260=\020\350\037\275\312)\224<\311\253\301>\345A\213=t\313*\275\315\025\252\276\337\254\274\276\275T\327=E<\250\275\377\016\375\276H~\000>\273k\177\276\213\013\232>L\000\326\275!\370\221>\027\247\205\2752\316\227\276l\371+\276\275[\327=\307\016\375>\213\234}>\224\315\360\276\321G\r>4z\330=\255t\276\276\261\321R\276W&\001\277s\3270\276\226\304\340\276\267\374\362\275\204\261\235\276\003\020=\277\233<l\276\220\311M?\002\264\321=\307\2257\276\'\362\327\275\024*\265\276\323N\327>\213\222 \277\227C\343=\326}\017\277\221=\003\276^ET\276\375\270\324\276\2471=\276P\266\204\276\2378%>y$\256;\022\213\231\275q~\354\273\3141\024\275\250\305I\276;\215}\276S})\275\367\356\244\276&-\362=\256\277\023?\316\330\355\274\214\352\204=r\243\233>%\253\233\275\254\004f>NL\325\276\366\262Y\276J>L>\301\333\334>H73\276\217$#>1t\225>dM\230;\2708\262>\241\314\t\275\023R\334\274\306b\207\276\036>\022>\345\214\215>\253\025\367\275l\021\233>\232\231\263\276\010\276\213\275~\315\325\276Y\\L\276%G/<\335\233a\277\245\307\017?\220(7>$nw>\334\277\335=~i6\276P\030\035>7\034j<z\034u\277\014+,>\226\203\211\276\235\303a>\372}\010?C\007e>\330F\257\276\002\200\257\276\222\004h\275\312\344\271>\255\244l\276\212\360\017\276l\271\005\277\244.\n\277\037\"\212>Xl\217\276\010q\204\276\030c\205\276\302r\234>\264\037Y\275\255\271\346=\354\270\354>y\203?>\005\216\254=\231j\353\275\r}\t>\027!-\274j~\360>\277$V\276\2201\261\2764\321\325\275\257\316.?\251sm\2753\n\031>\020\246A\277\367\316\026?\013%\302\276FxR\276_W\342>\334\367\370=\331\317\215\277\311\264\346<\005\003\353\275\234\311x>\006\"\250>`\334 \275aC\311=Y\325\242\275\022\n\267>\365\230\005>\310\232\032\277\325\246\346=\225R\254\276\020i\352\275M\301\002\276{\272\211=\210\033\r\276\013\362o>\205\3255?\004\302\203=\361\177\355\276H\'\276>\353\3103\277\334\250\t>\267\365\333>\201\250i>FX\305=\237{\321>\243\267\014\277\325c.>\2479\331=.\222\224\276\313\266\'\276Y:\217>2A\362<\351\361^\276\252\016h\276\221w\033?R\2343\276\'^\223>K=(\277\235o\336\276\033\271U\276I\220\214\276\2069><s\214\032\277\326\270\177\276\007\214\341=\332~\371\276\352\357\220>U\345\271\276#\315Z=\351\014\303\275&\013\251\276\362\033W>>`\324\276\232\016/=\215;B>\322\323\031\277i\340b>\272\027\263\275\032r\276<\1772\003\277@\361#>f\035\367\275\t\t\264\276\200\270O>\240\230A?\302l\016\275\376\346\203\276\326K\023\276\001\007\374>\254\3349>B\221\006>\'\240\201\276}\230\003\276\260\215`?\354\005\244\276\\\222\r\277\367\264^>h`\271=m\321\330\276\004;\200\275q$9\276\"]\037?\316\337\275\274U\252\205>\317,\003?\376[\335=x\035%?u\004\230>\027\305\020>e\021&\276\033\202\205>D\"\273\274\024\353s>\236k\230>\304\332\\>,\006L\2770\222\252=\314\304\273=\320\217H=\235\ta\276\207\323\223\276\376E\270>\307\311\302>\256s7\277o\361r\275\267d\204\276*\332_?\2455->\221\2452>Z\222\335>\372\302\236\276.]\205>\217\246\006\276\323O\007>\375\273\226\276\260\002\204\276\344,\002\275ALR>\335\030h=C[\261>\024.F<\344u\024>\332e;>U\307\234\275d8\357\275p\375\034\277W\202\370\275p\256\036\277\356+\311\276\256\n\036=*Z\255=,\034\353\276n\375\316<\330^\266=\275l\310>\032\004\006\276S\226{\276\3130`\276\241y\323\276\362\321$\275\204\343r?C\t\266>|f\306\274\305\306)>\025\271U<(^\330\276\315\346\261\2760\\\200>\003a\232\276\351\360e>o\374\323>\244|\225\275Z\035\237=\354\251\006\272\261v9>\227=\036\277]\206\253\275\324\344@>S\3556\276u\036\375\274\264\245??\371Yq>\tI\250>\016>\003?\233\203q\276I\225\323\2746J\354\276\227\310\231>\021\217\004\276\360[\251\274\262\200\001>\220\315Z\276b,\245>\211\252\220>%v\240\276\370\314\243\275\327\024\006\276i\017\020\277:\245Z\276 \252\"?\367#\n?4\244\217>\351\371\003?\352\345\226>\032$P\276\222\215\210>\202\274r=\255c4>7e\342>\307\206\362\276\226\014\037>0\201\244>\261\212F\276\321)\002=@\217*\276\3602\004>\254\325\323\276\314\022\351=!\303\"\277V\020E=Fh\241<\0037\237>\265\240\037\274\016\200\306\275\324n5\277\366\223\306\276^b\337\275\360\350\010?\364X\202\275,\277\234\275\'\373\254\276\237\251[>\326\242\001?O\027\256<\335e\003\274\207z%\276\351\005\367\276~\334\006?\004 \261\276,o\210=\305n\303\276\245\277\341=P\205\224\274F\323c\274\036\315{=\033\263\000?\014L\331>\020\273\377\271@\276\002?\342/\373=\234+g\276\237j5>\253\210\022?x\356!\277\016\331t\2766\334\306>\027w\\>\233\364K\276I\304\241>\010]\261\276\357\344\024<\237D\200\276\307\006]>\362\306%\276\024\252\275\276^\313\243\276\217*\224>\206M\251>i\341\243\274\315\205\360=2-\214\276]\2538=c\372O>]s\002=\244%V=\376\313\372=[\212\t>\313v;\276\006I\336\276\177\201\034\275_9\237>\345\033&>=\006H>\336uC>\027G\324\274e\266~\275~\\\347\274\251\370\217>\340\3427\275\315\2431>\250\302s\276\027\006\331\275Wh\235\275\203O\315>R\023\262\274\016_\255<ga\324>>5\265\276\246\"\350\276^\264\303\275\036/\262\276\215\265O>\356Tq\276\213\262\212>75f=\217\214-\276\274:@\276\257{\310\276\256g;>\307\022\212>\264\275\266\276\342\215\371>8\2502\277)Pt\276\014\313J\275\'\267P>\220U\323\276\356%\205\276\374E\003>\301K;\275<\263p\275\263~\310>7\331k\276-\016\223\2758^(\276\314\220\316>\355\206\365<\036-\220\276\315\3252\276\360^:>\353!\321>3G\t>Z\323\350>\326Y[=\030\206\241\276\253v\302\274\240\212\247>?\226\341>0/\202=Y\335\301=\364I\221=\206\313M>\255\350\376\275\315]&>|\207\331>\202_\210\276q\321J\276L\335\357\276\326\020\357\275\243\355\225=36\'\276x=\252=\270\033O\276\274\347 \276\232V\340=\264y\235\274c\312\303>N\204\376\276\031j$\275\200\304(>v\321{\276<\312L\276-J\313>\3655\010?D\216\202\276W\032t>{U\006\275X\266 \276\354\314\024\276\270Y-\277\2362\240=\244\205\204>\2773#?f\352;>\224\311\327>\336\231\013\276\236\201\326>?\344\230\276\241\235\301\275$\233T>\240|\203\276\033\224\333\276\344Ki=/Z\373=\301\205\023\276\372\234\311\276Y\230o\276\"\370\263=\314v{\276c\010\371=\243\010\220>\027\305\032>\307\315\256\276\231\214\016>\256\200\342<\312\016\004?\026>I\2761R\244\276\034,x>\206\207\333\276\261lO>\320\223\232<\220\326\344;*\310\374<\002\n\t\275\316\276T\275K\237\323\276A\034\203>n\341\273>\270\271\323\276^\332\273\276w#\211\276\001\273\275\276y:\210\275\247\230\034\276h1\321=\3246\026<\026\'\213=\246\355E>x\210\242\276\367\273|>\035+I?SKx\275\211\313\201\276\216\320\001?\230\231,>|a\020\277\024rP\275\262\0201?\343\341\234\276[`#\276\343\305\260\276.\230H\277\375\203\246\273\306\241\340>\250`\316=\372\350\357\276\275\327\264\275\242\t\346\2755\243\031\275\323s\221>\263,r>\307Z=\277 ^l\276\262\206z>!u\"\276\027\320,>\311k\206\276\203\035\310>\200K$\277z\"\254\276\336\260\005\277e.d\277\037n\003>\364+\307=\257C\'\275\356\244\"?\310K\374;\276\300\205\275\324\377|>\335R,>{\303\236\276\231X\317\276X8\233>1 W=\317\223R\274\320\310H?#!\233>\003\001?>SH\214\276\035\305\331\276p*\025\277\342\224\003\277\360|8>\347\223\200=\226)\202>v\324\002?\300\376\010\277\270+A>y\275}>b<\257>*U\365\275Q3S>\020\330\250=\202-\372\276\202\274s\276\032\321`=!I\275\274\375A3?\270\352\000>\2341\r>\023\272\213\275O\020)=2\261w>\272\340:?\317;>?\214\277\375>\020\361r=\307=\000\277\016\240\221>\332,U<\312q\003>\341C\250\276a\342\344>;0\365\276#$\206\276\346gj?\244\243\261>\036\304!\274\271\355M\276\342l\245>\271\376\300\276\207]\245=\371\301\006>p\345\206\273\263\235z>p\211\r?\331\225`>\326\341x=\352\305#\276S\214S\276~\202$>\244\201\025\276\243\030->\253\327\233\276.[G\276\276\376\347>@l\022>\317ZJ\276T \002?h\'\274\276\337\002\232\276iEF>\213\236n>\274+\241=\036\311\243\276\205A\372>\026\265\375\276\263\272\345\276&\251\340>d\221\264\2768\030N>?\027;\277e\233\\\275\352\007\240>X\342\250=\340b\274>\302\354\276\276\212X\201\273\341A\210\276Un\026\276\367\314t<\351\276\266=\031\371\233=\252/\232=*.\227<e\340\004?\273\300\007\277j\226\245\276\237\260\341\275\250\253\304=\256\350,\277\334Ga>,\033\245>\312\356T>\246\206\\\276\276\007v\277U\r\374=W\033\202\275~\233\220\276c\2362\2757p\000?4\006\274>\325s\031\275{_i\276\227{\265\274\271\037y>\310\311\360\276\303\344S\276\205J\235\276\340Q\215\273\321\n\360=\215\366*>LH\021>\323\017\n>\252\r\250\274*\320t>\370\307B\277vv\200\2762\230\220>I\222\237\276\3019\325>\223\334G?W\216D?\267\264D?\276\267\330=!\226\265\276\"\254\034>Gj(\276\361e\212\276%\322{\276\247J\263=\r\216\214>\246?!<\304\324\375=\202\266\201\274.\013\251\275#\203\377=\347\030s\276\312\271\310>x\263\261>#\242\242\276\214\350\007\275\"\317y>,=\343=\036\004\263=\222\304\215\276\316\266x\276+\333(\277\373\016\"?m4g\277\361\214(?P D?ls2\276\337C\177>Z\037\260\276\350\250\207\275\000\300\234\276|\341\371\276?%\331>^\337\210\276\351(\010\275Y\326\213>\000\250D\275J-\000?f\212\242>\254:\302>\243\351\347\275<\242\207=\253\224\363>B\317\000?ff\340>\310g\010>\2142\027>\332\327\363>\256\333\300\276f\306X\276ik\037\277t\315\216\275\301k!?\313\262\202>d8\211>R\241z\276\261@\242\276\336u\207\274\327\250\200>L\263\333\276\251k\235=\177\247\311\276\177\372\024\276<\216\202>g8\354\2751K\233\276\317\257\225\276\326\211\245=\260\001\177>\277Q\"\276\006\320\367\275\241\360\264\276\354Z:?:5\363\273.\331h=c\333\036\276\254\326\222\276W\'\353\274\326%_=\224\212\211\276@\221\320\276\217\320\311>\320\262\321\275\220\3005\275Q\230\375<\300\2637\276b\200\227>\3429c>\374\255\226\276\032\205\270>\227\010\t=\213#\331>\330\332=>\355\363\020>\003\233\235\276s\255\237\276`x\327\275\373\036\257\276Io\275<\256\352\177\2755\272\234\276@\n\021?N\330\341\275\255\243\353\276\031h\301\275\214\336s;~\237\356\276\222\304\336\276\n\306\007\275\365=\345=\021\314\240\276\230\263\000\276M\364\035?\037?@\274\343\317\017>1\177\014>\350\334\010>\177]\215>\360\240W>6]\002\276N\363 >\200\r\001?]Zi>\341\342\202\275\364\022\233\274NN\233\276\263X0\275\314\257\030\277\374\005\264\276\005\343\001>M1f\276\223\327\201\275\341\370\247>\346\007\307=\316\325\340\276s\306\356\274)\370\377\275b}\243>\3123-<|\215\350\275\221 \372=;h|\275\253\031\246>\222c-\277\346_\342\275\304\327\317=dO\216\275r\231v\276\332\361f\276\277_m\276\263/\031\277;\211\n\275\333\310\033?*\200T>\177\025M=Q\243\261=\347\330\305\276\255\216G=\325\373\225\276\313\212\034\276\007_\313>\233\301\344< rd\276\"!\221=\3135\326<\323\237\260\276}\255\265>6L\251\276~F\351\2756y\342\275\361\356\254>\316\023E>\267\347\337\276T\027 >\262\037G<\322\0176?\304\256\306\276\273/(\276\341\341\032\275Eu\263>\353\332\252<\377\200\230\275\277\337\250<\217:\n>\027\273\226>-\330\014>+\217\">j\334/\275\330\367\334>H\035a=Y-*;k\212\204>s\346T\275\246\203s\276\207\262S>!:c>\215Y\305\276\201\341\240\275\224E\013?\302\212\025\276\036e\255>C\237\361>\005v\007?J\253\267>\272-\016?\020\303\360>\034\324\250>\350{2=\036\331E\276\021\022$\277\006\336\337>\025w\262>\020\332\010\276\233`\205>\t\2062\2754y\257>\245\251v\2752\216\316\276\250\215G>\240\322\325\276E[\303\275;\003\202>PG\374\275\311\203\260>7\025\256\275\3055\320\275f\301\330=j\224\227=\023\263\232\276\222\317\214>>\014\260\276~\325S\276<\330}>z\253^\276\r\204-<\315\270\353>\361I\020?\300\212\240=#\331\226\276\350\262\222\276\263\r\224>\242\226\014?\325\036\004=V\233Y\276\316c\233\276\255\374\200>\254\217\004?\001\345\331=\231\223\213>8\256\302\276X\277\324\275m\251\033>\014e9\276\275(X\276\310`1>\016\017\274\275\205\346\236<?\353o\276\210\036\322>\263!\t\276\246\300\025\277\344\023\210=(\215\021\277\253\302v\275L\r\322=\203\232\014?\004\005\274\276\231\000\350\276o\204\370>\212\354\001>\271\334\"<\361v>?\005\377<>Vf\203>`GB>vT\267>\230\200\'\276\220\r\225\275\346\212\001\275b\\u\276\036?r<\250\005\251\275\027T\202>\335\371l\277#\333\204\276\334\207V\276K\370_>\262\201\243=\226\3719\276\020<G<\266\225z\277\020\263\r><\177\363>$\310\262>\343\267\021\277d\270.\276\341d_\275\\\373\332\276\331\023\021\277\245[\313\274\305\213\344\275\033T\003=\316-\327\275W\376\247>F\177\032=\227\356\345>7\335\"\275\202\3109?\356\030p\276\000Uj\275\346DS=\3769\236\275\034\347W\275\006i\355\276\323\036@>\311\r\366\275\3051O?\017\2300\275&\310\250\276\304J\213>\027P\305\276\237&\237=PR;>\367f\022\277\'\245\017\275\033\307\230>j\221\205\276sqT>\227a\014?X\242\315=\265}\r\277\270\326\020>~]\345>nA\246\274\2201\263>\347\367\231\276\340\235\332\276@\006\255>\266\224#\276+\261U>l\202g\276\035\251\r\276\372\331W\274\2471@>\032k?>?\231d>\230\303\\\276~\370\264\276[\2530\277\345\307\t>xi\342\276x:\305>\244\345\303\276T\007Y\276\013\370\366\275\215\334Q?\311\200\n\276!%\256>I\343c\276V\350\337<\014\313\251\275\203V\333>P\037\'\276\366\n\r;\332H\254>\324\225\005?\252\315\225\276\244\035\355\274S\236->A\314Z\276\355\311\003\277\327&\343>\037 \265>\345\340O\275\306q\364>\245\264\035?\310\303\256>\373a\323\275\255oy>PG6\275u\001\244\274\376\337*?A^\303\275\265\245\267\276\277\006\247\276\300\201\375>\017~\211\275ntH>c\020\033=|\204\272\276\004\333D>\254Y\217\276N\277\017\276\275\266O>p\255\200<\207\202\205\275)]\277>\242Q2?\322\376\231=\237\270\266\275\307\005?\275\031\311\222\275n\216\321<\202\232e\276\276\216\221\275\025j\205>\320-\200>\3547\037>k8\351=\3622P>G-\007\277OD\362\275\323\230\225<;\304\200>\352\274L\276zcN\276e\350\316\275R!Q=\346%S\276u\243\314\275\244!q\2754\251A>\027i!\276Q{D\276\251\360\234\275\3109\221\276+\227\177\276s\207\302\275\252\230\237\276\003\373\003?S>\023\277\351\313\t\277M\254\360\274\300q\302={\231\024\276\347-\316\276\274\251\275=|\345C\2766\017\002\277\372\237\246\276\024\274e\276\311c\203>\227\213z\275u1\037?\250\340\371\275\336\273c=\262Qx\276\357\372\004?d.\022=\252\224\345=Im\021\276\362\262\226\274\235\302j>\227\002\013\275\010)\214<yh\222=\307Y\257\276\014\021\322>z\216D\276\2642\231>\237\030\022\277\216\272\351>:\005\241<\021\207\357\2768\330\037>\377\177\201=\213@\253>\251*\010?{\324\273\276\340h\200\275\241\227\335=\024\255\000\277;\034l\276z\027\315\276\237\273\324>K\252O\275\"\261\367\275\266aK\276\363T\253\275-\235\262>?\276\336\276\376\r\273=\373l\202>\254H\261\276\366A\241>~?\206\275\'^\332=\034\344\353\276\317\000\002?h\257l\276oq\333=?\372\023>%\210\342\276s\322\342\276\203\222\350>\031\202\342\276@rU\276#\014\371<\250\371d=\215`f=l\014\310=\\\016\225>\2140\010\275\014,\274\276I\353\026\277\323\356\241\273U\241\202>\321uf\277\276\254\322\276\321\314\260>\227\004\316\273\031\223J>\312\215\240>\243\373\210<\260D\243>M\266\214\276\356>;?\347\r\300\276\265c\025\276\037\371->\330\023\027\277\017I\302>{\226\243\276\315\237\256<\034~ \276\tN\322\276Zx\202\274\365\202+\276\376\355\247\276Oh#\277a\347\236=\334\205&\275\322s\363\273Wb\243>h\304\r>\363\034\335>\243\275a>\t\201\275\276\265\021;\276\276\305,\274s[\315=\020\271(\276\362E\350\276\371\272\004\277\372\024\221\275^W\"\276\227\342\'?\360\307M>V\343b\275&e\355\276\232)\233\275nW ?F\253\202\276cW!\277n\202\030\276\353\257\t\276\023)\250\276W\357\241\276\n\314\300\275/v\202>\204?\224\275\230\033\225\274Z\021\244\272E\354\016=\2564O\273\262{\031\277`1\006>@Z\233>\320\006\314>\242I\002\277p\007\236\275\321\032\201>\251\213\223\276j?\224\276\346\361\225=--u\276\025\036c>$\233\t=\213\340\321\276$S\017>\203zo\275\325m\374=J\216\321=t\270\002?Bq)>\241\226\255>\253i&\274\020\234\215>m\257\037>\030\371\034\277\341U9=\027\032.\275(\342\307\275}C\374\275I\336\007?U\'\244\276#\371\203>&\260\264\276\231`\004\276T\271\202>\372W\336=\350\274\252\276\2047\273\276FG\301=\223\355 ?\201[c=\023]U>(.C\276\023\372\017>\030\374\020=\365o\324\276\3303\361=#]O>L\357:\276\t\224\r?\366\007\013>.\266\235>\335\230\225>5\333p>\242\337\200>\272\317\027\276\036,2>C\231\270=o\247]>\'\"\377\275\216\"\027?h\237\006\277\220\301\372>\311\216\324=\206\334\333\276\227\220k\275vy\t\276h\n\361\274\345\004\214\276\223l\240>\311\'\206>\025[\214\276\262\0243>\347\023M?0\360\030>%\236%\277\204v\311>\311X8>\216B\254>\277\213\241\276E\325\236>;\335*\277\301\313\245>L\030\302>S\236%\276?\344\227\275\376\023q\274\2752\010>z\360\254>\363\215\030>\310H\312=\177\347\302= \374\025\275\203\272\263\276]|\251>\204\250\001=\033X\377>\020\374\274>u+\225>w\215a\276\304\030\016?!\313\212=\317\016Y>\241\362\236=\357\244\362\276_\033\205\276\326\267\254\276\2468\023\277[c-\2778\300D\275\361>\230\276+\223\212\276?\372?\274:7\261\276\273|Z\275\376\262\017\277\343,\034?)5\235=\247\037\306>\026_~\276\224\037C\276\244\325\364=\234\005\337=\223\251R\277\350\033\":\275\251e\276\312\354B>\366\227\274=0\037\336<46#;`\037\225\274\212\306\340=\224\251/<\216\235\266\276\313Ii\276+\032\300\276\000V\261>\326\226\331>\337&\241>\177MA\276\201\232\300\276\346\332R>\326\302\\\276\374\316\244\276\020\204\257\272\371\370\230>)!G>*\263\017>:\356\025?\245\030\276>&\377\211>\027\320\007?\207\325\223>\211\201\310\276\214\220F?\210\367\240<C0:\277k_\364>\347\010\242>\333e\"=r\310\244\275\336[\231=\225U+?\313\007}<\374\355S=rG\023\275}\261\034>\331\214\014\2766\r\315>\004s\253\275=\206\326\275\361\001\037\276\254y\t?)|\035\276\322\360\021?\030\216\271\276\032\3250=\006l\213=/\017\254>\332f2\276\020h\210\276\255\303\036?\207M\225>\326-\021\277>\346\266>,W\037\277\323\"\227\275\350\270\237=\272\2407>m\276\234\276\254KJ>\336\266[\276\235{\265\276Z\0244\277\007~\264<=\200\355\276~\n\017\276%YG\2765\327V<\200\357\332\276\301\r\035\276\376M\233>M\270\036>:0>\277\236\244\207\275\030\353\227\276\023\330\027\277\223O}>\226f\270=\242`\032>e\346j>9=\355\276\274\314\320\276\\\300e\276\364E@\276-=\"\277H\265\207<_h\352\275-\363\325>\303\000\n\276fE ?\346=\036\277a\250\032\276>\r\316\276\026j\307<\222\331\372\276\016\346\207>\210{\\\276\024H&:\006\365X\276\221\342\037\276\370\267Z\276\ry\373>h;z\276\006_g\275\017%\267>\363\333.>\2028\223>\254L\002\276\005\234\270\275\202\234\000?\336\253!?\357\260\212>\036\'\245\276_b\333\275\332s\303\274\375\203S\276\226j\334>\214\343.>\206\220\030;\357\312\265\275{mu\275&\236\364\276\034\037P\277+\211\331>\006\3070>3\365r\276?\004\223=\316\216\243=\024vr\276\351\256\365\274</\355<Q\367\372>\264\376\256=bKx\276M\262R\277k\2324\277\243\"\264>j3\023?y\034\177\276AVB>\235~C\276\2263\002\276\330$\037\276Y\320\256\276\213u|<\316\321o\275\377\264/\276\261\217\013?\200\354S>W\025\214>\314\315&\275\017/\274\276\025\002\335\276\364\307N>\350\007\352\276\223\356\004\277\373\206%\274?\237Q>P\202\r?;^\007\276\371B\024?\353\213\013?\310\226\n\277\003\026\222>8B\231=@\345\224\275E^\207=\037\001\311>\327d\225>\325\375\317\276\331N\225>J\r_=\306S\212=\252\037\374\276\256;\002\275@\3404\276K.\030\277(\352\216>\345\303\004\277\246X\354=\3605\235\276\220\242\214<\016\311\326<\351J3?\217\265q>\324\334\017\273\251nD\276\272)\300<\311\352\343\275g\265Z>|\240\000\277\265\330\277\275\'+\365>\372\004\330>\247\264l\276\373>@\276\326\346%>5l:\275\212\377n>ob\r?\220\330\367\276\355\371\215>b]\014\277~\312\302\274;#\231\276\227\021\231>\2534/\276M9i\275\302\336 \276\307K\014?\205\024\206\275\3579\237<\2438t>\231\217\r\275\303z\372>\337h\373\276\226\036+\276s,